<unk>	0
<s>	0
</s>	0
▁	-2.92119
s	-3.64437
▁the	-3.81695
.	-3.92763
,	-4.48356
▁to	-4.65935
▁of	-4.68635
'	-4.68971
▁a	-4.73192
▁and	-4.73293
ကို	-4.94934
▁in	-4.99543
t	-5.15985
▁i	-5.20261
▁that	-5.34968
ed	-5.35181
▁it	-5.40649
▁is	-5.47222
သည်	-5.48566
ing	-5.52072
က	-5.58675
d	-5.62129
▁you	-5.66784
-	-5.69793
▁for	-5.70875
သော	-5.74165
၊	-5.75495
များ	-5.79386
▁was	-5.8035
တွင်	-5.80735
▁အ	-5.86438
နှင့်	-6.05253
▁on	-6.05931
▁သည်	-6.06452
▁are	-6.067
ပြီး	-6.07282
မှာ	-6.07493
▁be	-6.07754
▁they	-6.1289
များကို	-6.1407
မှု	-6.15227
၏	-6.15933
အ	-6.16413
ရန်	-6.1734
▁with	-6.20013
ly	-6.20186
▁not	-6.22365
▁have	-6.226
▁he	-6.22966
re	-6.24332
မ	-6.28114
y	-6.30715
သည်။	-6.33342
▁(	-6.36594
▁as	-6.37399
n	-6.3788
e	-6.39749
ရှိ	-6.41166
er	-6.41263
)	-6.41803
▁we	-6.42986
တွေ	-6.44292
▁မ	-6.46137
ခဲ့သည်။	-6.47765
▁but	-6.4844
m	-6.48901
▁at	-6.50059
များသည်	-6.50529
▁က	-6.50806
▁there	-6.52364
▁by	-6.52979
တယ်။	-6.54367
မှ	-6.54701
▁from	-6.56689
▁uh	-6.58279
▁၏	-6.60848
al	-6.6121
အတွက်	-6.64358
▁this	-6.66693
▁know	-6.66713
▁an	-6.66744
တဲ့	-6.68742
ရ	-6.68793
▁so	-6.72246
နဲ့	-6.73258
▁or	-6.74409
▁can	-6.75384
။	-6.76066
a	-6.76641
▁do	-6.76848
ခြင်း	-6.7851
r	-6.79115
▁his	-6.8137
▁all	-6.81372
▁has	-6.81829
တာ	-6.81956
သည့်	-6.82366
▁one	-6.82966
in	-6.83892
es	-6.85305
▁had	-6.86632
း	-6.86718
သွား	-6.86754
ပါ။	-6.87155
▁ကို	-6.87634
c	-6.87712
▁no	-6.87794
▁were	-6.87805
နေ	-6.90675
ရေး	-6.90681
▁ငါ	-6.91423
ပေး	-6.91804
ဖို့	-6.92919
နိုင်	-6.93092
i	-6.94114
▁နှင့်	-6.95097
▁like	-6.97386
▁about	-6.98144
o	-6.9816
လာ	-6.99492
?	-7.00294
များနှင့်	-7.0092
တော့	-7.01298
တစ်ခု	-7.0137
▁will	-7.0137
th	-7.01946
ဖြစ်သည်။	-7.04174
or	-7.04665
▁their	-7.04795
သူ	-7.05291
▁if	-7.05531
ချက်	-7.05867
ကြီး	-7.06021
b	-7.06413
▁what	-7.07114
▁out	-7.0805
လို့	-7.10022
ve	-7.10077
le	-7.10262
▁more	-7.10744
▁don	-7.11401
ဖြစ်	-7.11426
ထား	-7.11782
▁would	-7.14111
ll	-7.14341
▁my	-7.17387
▁people	-7.17788
▁just	-7.17836
▁up	-7.18764
▁တွင်	-7.19805
en	-7.20423
ဖြင့်	-7.20807
ပါသည်။	-7.21155
▁မင်း	-7.22374
▁she	-7.24058
▁de	-7.24167
▁been	-7.25606
p	-7.25905
▁when	-7.2594
ကာ	-7.26042
u	-7.26689
▁ဤ	-7.27353
▁yeah	-7.28119
▁me	-7.29192
▁သို့မဟုတ်	-7.29272
▁think	-7.2961
▁well	-7.29862
on	-7.30295
ရင်	-7.30794
▁time	-7.31047
▁them	-7.3154
▁။	-7.32196
ri	-7.32371
▁some	-7.32728
▁because	-7.32809
▁S	-7.32841
il	-7.3291
သို့	-7.33009
ra	-7.33216
ပါတယ်။	-7.36011
▁သူတို့	-7.36923
ပါ	-7.37045
▁re	-7.37687
သား	-7.37792
g	-7.38222
l	-7.38531
▁သူ	-7.38939
w	-7.39659
နှစ်	-7.40215
ကောင်း	-7.40358
▁get	-7.40693
▁who	-7.40886
တွေကို	-7.41194
▁other	-7.41681
an	-7.41808
▁လူ	-7.43757
el	-7.4475
တယ်	-7.45129
သာ	-7.45341
ers	-7.45409
ထားသော	-7.45732
လို	-7.46494
▁than	-7.46897
▁မှ	-7.46912
k	-7.46953
ဆိုင်ရာ	-7.4743
အား	-7.47519
▁သူ့	-7.47555
▁her	-7.478
ch	-7.47811
▁ဒီ	-7.48385
စွာ	-7.48931
ro	-7.49271
h	-7.49411
▁go	-7.49854
လုပ်	-7.49933
ရာ	-7.50575
▁over	-7.50655
ne	-7.51005
▁၊	-7.52527
ကြောင်း	-7.52791
များတွင်	-7.53628
▁new	-7.54191
မှုကို	-7.54195
▁said	-7.54877
▁၎င်း၏	-7.56261
▁c	-7.56491
ur	-7.56593
့	-7.56737
လိုက်	-7.56897
များ၏	-7.57054
▁only	-7.57127
ခဲ့	-7.57137
ation	-7.57452
ထားသည်။	-7.58953
▁most	-7.59
ယူ	-7.59032
ic	-7.5994
▁which	-7.60212
ကျ	-7.60438
▁good	-7.60556
စ	-7.60646
ကြား	-7.60992
at	-7.61368
တစ်	-7.61442
စား	-7.61608
ar	-7.61939
န်	-7.63754
လည်း	-7.63844
ပဲ	-7.64066
လူ	-7.64996
▁နှစ်	-7.65932
ter	-7.66095
ion	-7.66316
ထက်	-7.66414
ဘူး။	-7.66992
▁f	-7.67256
▁its	-7.67718
la	-7.67965
▁any	-7.69469
ကြသည်။	-7.69835
able	-7.70653
te	-7.70738
it	-7.70961
▁A	-7.71148
▁ရှိ	-7.71182
▁၎င်းတို့၏	-7.71426
အဖြစ်	-7.71829
▁b	-7.71861
▁very	-7.72035
▁work	-7.72137
▁right	-7.73186
▁now	-7.73421
စေ	-7.73586
ment	-7.73639
▁un	-7.73777
▁your	-7.74312
တွေက	-7.74586
▁how	-7.74739
▁could	-7.74853
ေး	-7.74896
▁many	-7.7522
ကြ	-7.75367
▁him	-7.75475
နိုင်သည်။	-7.75894
▁into	-7.76006
များအတွက်	-7.76062
▁two	-7.76158
ဆုံး	-7.76428
▁st	-7.76435
▁ဟုတ်တယ်	-7.76845
▁see	-7.77213
ပြော	-7.77644
က်	-7.7783
ပေမယ့်	-7.78078
se	-7.78269
▁ဒါပေမယ့်	-7.78407
ပြု	-7.78524
▁really	-7.78749
▁should	-7.78932
ပင်	-7.79257
et	-7.79268
▁C	-7.79815
▁did	-7.79839
▁man	-7.80695
▁even	-7.81895
ol	-7.82165
▁ငါတို့	-7.82401
▁lot	-7.83059
z	-7.83203
▁19	-7.83223
as	-7.83624
လုံး	-7.83697
▁also	-7.83708
▁ပို	-7.83722
ထွက်	-7.83778
▁um	-7.84809
ity	-7.8488
မိ	-7.85181
ရဲ့	-7.85233
na	-7.85596
▁here	-7.86011
ပြ	-7.86039
▁much	-7.86174
▁F	-7.86568
▁never	-7.86648
li	-7.86863
▁way	-7.87199
▁အခြား	-7.87219
နေရာ	-7.87571
ent	-7.87657
▁con	-7.87679
▁သင်	-7.88282
▁these	-7.8845
▁after	-7.88586
ma	-7.89798
ွ	-7.8986
သ	-7.89902
▁years	-7.8991
is	-7.90124
f	-7.90545
ry	-7.90639
ပွဲ	-7.91019
စ်	-7.9125
ဘူး	-7.91349
နည်း	-7.91356
ကြည့်	-7.92345
▁where	-7.92352
▁T	-7.92356
--	-7.92513
ချ	-7.92607
ဝင်	-7.92783
▁take	-7.93347
ce	-7.93516
▁B	-7.93546
to	-7.93614
▁our	-7.93735
စရာ	-7.93741
ဆောင်	-7.93752
တ	-7.94095
ကြာ	-7.94282
စာ	-7.94473
▁တစ်	-7.94703
င်	-7.94751
im	-7.95162
ive	-7.95701
▁then	-7.96687
ul	-7.9725
ပုံ	-7.97254
co	-7.97323
ir	-7.97337
▁going	-7.97839
များ၊	-7.97888
အတွင်း	-7.98119
လဲ	-7.98164
ta	-7.98548
me	-7.9876
▁make	-7.99039
▁back	-7.99246
▁G	-7.99398
▁ma	-8.00049
လ	-8.0027
man	-8.00625
လောက်	-8.00961
▁ထို	-8.01312
A	-8.01441
▁mean	-8.01465
မဟုတ်	-8.01485
▁year	-8.01601
▁first	-8.0204
▁co	-8.02101
mi	-8.02196
;	-8.02324
လေး	-8.02335
ck	-8.02528
est	-8.02575
▁want	-8.02766
ရောက်	-8.02925
▁လက်	-8.03498
▁down	-8.03521
တင်	-8.03812
ia	-8.03858
ခဲ့ပြီး	-8.04219
ခံ	-8.04348
▁P	-8.04507
▁too	-8.04874
▁ဖြစ်	-8.0489
တော်	-8.05174
သော်လည်း	-8.0524
လက်	-8.05253
ရှိသည်။	-8.05265
ခဲ့သည်	-8.05365
us	-8.05439
▁us	-8.05765
ဆို	-8.06128
▁ကျွန်တော်	-8.06237
▁အလွန်	-8.06595
um	-8.06642
▁la	-8.06896
▁အချိန်	-8.07203
!	-8.07237
de	-8.07373
န	-8.07441
အထိ	-8.07455
▁အလုပ်	-8.07664
ke	-8.07752
▁place	-8.07973
တစ်ယောက်	-8.08017
ဟာ	-8.08028
▁p	-8.08045
ကြောင့်	-8.08115
ci	-8.08759
တိုင်း	-8.08892
စု	-8.09048
▁may	-8.09131
ni	-8.09694
ော်	-8.09901
▁လုပ်	-8.09955
တ်	-8.10241
x	-8.10602
ဘဲ	-8.10686
▁information	-8.10793
သိ	-8.10833
▁ပြော	-8.10884
▁got	-8.11015
ဝ	-8.11139
များစွာ	-8.11865
ချင်	-8.1191
▁made	-8.12083
sh	-8.12235
▁g	-8.1257
v	-8.12964
ခြင်းသည်	-8.13379
4	-8.13523
▁government	-8.13615
ဲ	-8.13673
သောကြောင့်	-8.13698
ခ	-8.13734
သေး	-8.13937
မျိုး	-8.14503
▁those	-8.14736
ကုန်	-8.14759
▁still	-8.14861
ver	-8.15151
▁စ	-8.15159
တစ်ဦး	-8.15237
▁ရေ	-8.15704
lo	-8.16307
ပါဘူး။	-8.16572
▁အမေရိကန်	-8.16825
age	-8.16879
hi	-8.16967
ဖြစ်ပြီး	-8.16975
တက်	-8.17271
▁သူမ	-8.17619
▁bo	-8.18229
▁e	-8.18366
▁before	-8.18836
▁help	-8.1887
▁အသုံးပြု	-8.18913
ထုတ်	-8.19078
ု	-8.19275
▁used	-8.19316
ပေါင်း	-8.19564
▁didn	-8.20072
ha	-8.2016
▁pro	-8.20439
▁state	-8.20755
▁car	-8.20995
▁something	-8.21072
ဘက်	-8.21128
သုံး	-8.21133
ဟု	-8.21145
▁long	-8.21368
▁ခုနှစ်	-8.21439
▁little	-8.21678
son	-8.21698
▁၎င်းသည်	-8.21915
ရေ	-8.21957
▁ငါ့	-8.22314
▁need	-8.22438
ate	-8.22693
C	-8.22892
တယ်လို့	-8.22906
အသစ်	-8.22922
မရှိ	-8.22942
ist	-8.22987
▁oh	-8.23067
လား။	-8.23151
▁ပိုမို	-8.23219
ted	-8.23262
ပန်း	-8.23269
▁use	-8.23281
op	-8.23552
အပေါ်	-8.2394
သည်ဟု	-8.23999
▁under	-8.24064
▁things	-8.24071
▁E	-8.24729
▁အိုး	-8.24759
ca	-8.24974
▁ခုနှစ်တွင်	-8.25144
မီ	-8.25294
နိုင်ငံ	-8.25321
မြင်	-8.25515
▁အဲဒါက	-8.25671
▁city	-8.25786
▁legal	-8.25859
မျှ	-8.25913
မြို့	-8.2595
အရ	-8.26031
▁H	-8.26132
▁ca	-8.26456
ပိုင်း	-8.26507
▁through	-8.26787
▁သိ	-8.27033
သင့်	-8.27116
ယာ	-8.2728
id	-8.27331
စီး	-8.27334
▁home	-8.27347
နေ့	-8.28039
တောင်	-8.28042
အိမ်	-8.28191
▁find	-8.28195
ပြန်	-8.28311
mo	-8.28403
▁being	-8.28676
ဖြတ်	-8.28677
▁high	-8.28696
လမ်း	-8.28758
ge	-8.28823
▁part	-8.2883
▁dis	-8.29667
ဆက်	-8.29871
▁mo	-8.30015
တိုက်	-8.30251
▁ဘာ	-8.30298
▁1	-8.30419
▁အဲဒီ	-8.30632
▁off	-8.30747
ba	-8.30793
အောင်	-8.30797
ies	-8.30954
ခဲ့တယ်။	-8.31006
ian	-8.31146
နေသော	-8.31309
no	-8.31339
7	-8.3154
▁နောက်	-8.31953
▁around	-8.32112
မှတ်	-8.32395
▁အစိုးရ	-8.32436
တစ်ခုဖြစ်သည်။	-8.3278
ဆ	-8.32851
မည်ဖြစ်သည်။	-8.32951
နာ	-8.32955
▁old	-8.3306
▁day	-8.33119
၍	-8.33202
ရှိသော	-8.33713
နှ	-8.33988
▁such	-8.34021
ine	-8.3432
▁world	-8.34667
ရပ်	-8.34667
အားလုံး	-8.34694
ပေါ်	-8.34807
ယ	-8.34828
အဖွဲ့	-8.34852
န်း	-8.34923
ard	-8.34984
ပ်	-8.35322
ant	-8.35444
▁K	-8.35561
▁great	-8.35575
ting	-8.35834
င်း	-8.35983
3	-8.36055
▁last	-8.36228
ိ	-8.36358
▁အဲဒါ	-8.36693
ance	-8.3681
မှုများ	-8.3681
ပုံစံ	-8.36949
▁k	-8.37133
▁ဟု	-8.37138
▁ra	-8.37265
တို့	-8.37274
အချိန်	-8.37365
ထင်	-8.37449
▁kind	-8.37452
ty	-8.37458
တူ	-8.37992
ငွေ	-8.3801
▁အိမ်	-8.38017
ထ	-8.3804
တွေ့	-8.3805
▁Ca	-8.38139
▁say	-8.38223
ချိန်	-8.38237
▁does	-8.38243
ဆီ	-8.38432
နား	-8.38487
ချုပ်	-8.38517
▁အရမ်း	-8.38624
▁both	-8.39094
ပြီးနောက်	-8.39158
လား	-8.39296
ti	-8.39591
အကြောင်း	-8.39637
ru	-8.39648
▁M	-8.40008
am	-8.4004
ပါး	-8.40071
▁public	-8.401
ခွင့်	-8.40124
▁sa	-8.40209
da	-8.40266
min	-8.40604
ရတာ	-8.4095
များဖြင့်	-8.4109
▁အဓိက	-8.41487
rs	-8.41794
▁ကျွန်ုပ်တို့	-8.42202
▁သူ၏	-8.42477
ဖူး	-8.42485
▁သူသည်	-8.42548
he	-8.42588
▁three	-8.4264
၀	-8.42803
▁always	-8.42938
▁w	-8.4295
tic	-8.43014
စိတ်	-8.43136
▁house	-8.43139
ဆင်း	-8.43171
ရုံ	-8.4332
ခံရ	-8.43409
စီ	-8.43464
▁အခု	-8.43537
မြင့်	-8.43601
▁end	-8.43822
ဂ	-8.43869
▁war	-8.43929
ton	-8.43988
သစ်	-8.44222
ဆွဲ	-8.44259
သမား	-8.44289
ပို့	-8.44732
▁2	-8.44766
▁pre	-8.45087
▁while	-8.4513
pe	-8.45259
▁ဒါမှမဟုတ်	-8.45459
များက	-8.4555
▁federal	-8.45632
▁လိုအပ်	-8.45769
ပ	-8.45795
io	-8.46163
▁town	-8.46252
va	-8.4629
un	-8.46308
▁same	-8.46553
▁own	-8.46675
▁money	-8.46718
nd	-8.47024
▁program	-8.47045
နီ	-8.47126
1	-8.47151
ဘာ	-8.47197
▁every	-8.47274
vi	-8.47285
bu	-8.47588
ခဲ့သော	-8.47629
ak	-8.47869
▁ပ	-8.48214
မှန်	-8.4841
▁စိတ်	-8.4885
ံ	-8.4893
ary	-8.48948
ie	-8.49009
▁come	-8.49102
▁cost	-8.49205
▁small	-8.49555
စနစ်	-8.49706
ဆိုင်	-8.49947
▁ဒါ	-8.50085
ထဲမှာ	-8.50085
▁po	-8.50116
မှုသည်	-8.50306
▁life	-8.5051
▁သူ့ကို	-8.50954
တိုး	-8.50963
▁found	-8.5118
00	-8.51527
▁hand	-8.5165
▁thing	-8.51798
▁သို့	-8.51873
▁look	-8.51879
ဘ	-8.51892
▁di	-8.52076
ထားသည့်	-8.52286
ရင်း	-8.52432
သူများ	-8.52443
မြောက်	-8.52456
▁မှာ	-8.52647
▁ပြန်လည်	-8.53058
be	-8.53102
land	-8.53256
မ်း	-8.53369
▁နေရာ	-8.53373
ည	-8.53542
▁act	-8.53548
လုပ်ငန်း	-8.53572
▁W	-8.53879
▁ex	-8.53889
ling	-8.54022
red	-8.5406
တန်	-8.54193
▁case	-8.54236
ပါက	-8.54301
▁real	-8.54385
ူး	-8.54817
the	-8.54931
▁နောက်ဆုံး	-8.55013
ated	-8.55086
ငယ်	-8.55237
ig	-8.55497
les	-8.55564
▁18	-8.55686
▁du	-8.55781
go	-8.55788
▁best	-8.55881
ရှင်	-8.5595
ခန်း	-8.56284
▁ကလေး	-8.56397
▁system	-8.56587
ut	-8.56846
/	-8.56959
▁D	-8.57048
ပတ်	-8.57204
ဒီ	-8.57258
fi	-8.57349
▁thought	-8.57386
5	-8.57391
▁law	-8.57459
ho	-8.5774
လှ	-8.57907
စက်	-8.58241
နေတာ	-8.58259
လျှင်	-8.58381
pi	-8.58406
▁services	-8.58418
ကန်	-8.58506
▁during	-8.58584
ad	-8.58596
and	-8.58732
▁ti	-8.58784
▁national	-8.58989
မယ်	-8.59134
ဖ	-8.59373
▁few	-8.59473
▁school	-8.59758
▁hard	-8.59792
mb	-8.59809
ရန်အတွက်	-8.59816
▁put	-8.59905
ို	-8.59927
▁အဲဒါကို	-8.59972
▁rule	-8.60125
▁between	-8.60605
▁စီးပွားရေး	-8.6069
▁လမ်း	-8.60716
▁anything	-8.60807
▁မြို့	-8.60808
▁V	-8.60837
▁since	-8.60962
S	-8.61132
▁care	-8.6125
sa	-8.61274
▁each	-8.61312
အားလုံးကို	-8.61319
▁service	-8.61349
▁သို့သော်	-8.61411
သေ	-8.61448
ာ	-8.61561
▁I	-8.61577
ng	-8.61651
▁point	-8.61682
စဉ်	-8.61693
န့်	-8.61781
▁show	-8.61939
▁am	-8.61957
▁better	-8.62011
ish	-8.62078
ရက်	-8.62226
I	-8.62616
▁might	-8.62901
▁pay	-8.62943
ster	-8.63022
ကိစ္စ	-8.63049
▁သူက	-8.63065
ပါတယ်	-8.63068
▁Ma	-8.63284
ပို	-8.63287
တန်း	-8.63358
သတ်	-8.63419
အများစု	-8.63434
ကျောင်း	-8.6349
▁sp	-8.63572
ပြောင်း	-8.63739
ရှိတယ်။	-8.63832
▁20	-8.63877
ယ်	-8.64072
ရာတွင်	-8.64197
၅	-8.64436
တို	-8.64601
▁တ	-8.64697
▁different	-8.65117
ကိုင်	-8.65142
ot	-8.65317
အရာ	-8.65699
ဒ	-8.65735
au	-8.65745
မည်	-8.65805
▁da	-8.65876
▁m	-8.65919
လီ	-8.66003
ness	-8.66148
led	-8.66443
▁ပြန်	-8.66538
ဆင်	-8.66636
▁ကျွန်ုပ်တို့၏	-8.66844
ခြင်းနှင့်	-8.66877
အလုပ်	-8.67006
▁country	-8.67007
▁ပါဝင်	-8.67068
တဲ့အခါ	-8.67089
မှုများကို	-8.6713
▁less	-8.67144
▁h	-8.67175
ကား	-8.67314
▁must	-8.67375
▁sure	-8.67375
အပြင်	-8.67478
▁အတွက်	-8.67535
▁number	-8.67771
▁per	-8.67818
▁ပြဿနာ	-8.67822
ous	-8.67849
▁another	-8.67855
ောင်	-8.68093
os	-8.68183
▁တစ်ခု	-8.68226
ဗ	-8.68486
▁big	-8.68549
ဆိုတာ	-8.6898
▁ဘ	-8.69028
ating	-8.69213
မယ်။	-8.69289
ပါပဲ။	-8.69298
▁water	-8.69365
wa	-8.69373
pa	-8.69446
),	-8.69493
po	-8.69534
ga	-8.69605
▁provide	-8.69648
▁၎င်းတို့	-8.6979
နောက်	-8.69835
gu	-8.69928
ူ	-8.70027
ဆိုတော့	-8.70253
▁important	-8.70384
▁r	-8.70392
ရီ	-8.70421
တယ်၊	-8.70661
လေ	-8.70955
▁တခြား	-8.71102
ခွဲ	-8.71203
▁အကောင်းဆုံး	-8.71365
▁အမျိုးသား	-8.71378
▁အရာ	-8.71415
▁ဘုရားကျောင်း	-8.71441
မာ	-8.71652
▁သင့်	-8.71664
ခြင်းကို	-8.71666
bo	-8.71678
တတ်	-8.71791
ence	-8.71808
ph	-8.7198
P	-8.72064
▁လို့	-8.72091
ris	-8.7216
▁area	-8.72287
2	-8.72353
ab	-8.72441
နိုင်သော	-8.725
ac	-8.72507
▁percent	-8.72722
▁အသက်	-8.72797
ဟောင်း	-8.72817
▁လုပ်ဆောင်	-8.72848
▁ဥပဒေ	-8.72905
ဆိုး	-8.72996
▁ဒေါ်လာ	-8.73073
▁pa	-8.73286
သက်	-8.73597
▁away	-8.73759
ဌာန	-8.73823
▁gr	-8.7402
▁control	-8.74083
ell	-8.74088
▁ga	-8.7414
mp	-8.74294
မှုနှင့်	-8.74438
ခြင်းဖြင့်	-8.7451
▁business	-8.74527
▁အများကြီး	-8.74533
▁give	-8.74615
စာရင်း	-8.74755
ပစ္စည်း	-8.74854
လုပ်ဆောင်	-8.75175
ပေါက်	-8.75185
▁N	-8.75205
).	-8.75236
▁street	-8.7542
▁အဆိုပါ	-8.756
ဒေသ	-8.75635
ism	-8.75689
▁went	-8.75756
▁သ	-8.75898
ေ	-8.75961
တွဲ	-8.76031
အချက်	-8.76133
တာကို	-8.76204
▁ပြည်နယ်	-8.76291
▁ပေး	-8.76443
▁နိုင်ငံ	-8.76512
▁island	-8.76657
ful	-8.76709
▁live	-8.76781
der	-8.77091
ရုပ်	-8.77235
မ်	-8.77501
နေတဲ့	-8.77553
▁တို့	-8.78078
ဝယ်	-8.78127
လ်	-8.78207
▁four	-8.78241
▁pi	-8.78251
ations	-8.78274
်	-8.78297
ure	-8.78502
▁စာ	-8.78504
ပေါ်တွင်	-8.78509
တွေနဲ့	-8.78515
ial	-8.78572
▁states	-8.78633
om	-8.78682
▁၎င်းတို့သည်	-8.78717
▁week	-8.78764
ခဲ့တာ	-8.78865
ပြင်	-8.78872
နှုန်း	-8.78914
နေပါသည်။	-8.78995
▁မင်းရဲ့	-8.79037
▁keep	-8.79075
▁open	-8.79138
▁far	-8.79595
M	-8.79684
▁though	-8.7996
▁5	-8.80081
▁doesn	-8.801
▁office	-8.80196
များမှ	-8.80197
▁ကျ	-8.80294
▁စတင်	-8.80536
▁why	-8.80585
▁play	-8.80633
▁အမျိုးသမီး	-8.80714
▁set	-8.80726
▁data	-8.8075
သံ	-8.80884
▁american	-8.80975
အဆင့်	-8.81144
O	-8.81172
▁ပြောင်းလဲ	-8.81232
▁came	-8.81243
▁ဘယ်လို	-8.81331
▁ro	-8.8139
ဂျ	-8.81406
di	-8.81466
ခေါ်	-8.81502
▁၎င်း	-8.81553
ရဲ	-8.81554
▁view	-8.81626
▁president	-8.81637
do	-8.81729
ခြေ	-8.81835
▁သုံး	-8.81861
tra	-8.81938
ိတ်	-8.8195
6	-8.81965
up	-8.82037
သူများသည်	-8.82068
▁မည်သည့်	-8.82119
ap	-8.82141
ဘေး	-8.82199
▁process	-8.8227
ိုး	-8.82556
▁3	-8.82576
ပေ	-8.82609
ချင်း	-8.82767
▁ဟုတ်တယ်၊	-8.82774
que	-8.82843
ဇ	-8.82876
ud	-8.82878
▁bar	-8.83165
▁guess	-8.83179
▁air	-8.83191
မြ	-8.83228
▁ငါက	-8.83339
ား	-8.83559
▁4	-8.83605
လိုက်သည်။	-8.83668
ev	-8.83682
per	-8.83689
ဒါ	-8.8374
ရုံး	-8.83827
our	-8.83889
အတိုင်း	-8.84043
▁support	-8.84171
▁large	-8.84322
▁left	-8.84495
တိုင်	-8.84511
▁လုံးဝ	-8.8466
ကျော်	-8.84697
သွားတယ်။	-8.84757
တွင်၊	-8.84879
ward	-8.85107
ထောက်	-8.85134
ပညာ	-8.85139
▁ကုန်ကျစရိတ်	-8.85146
သလို	-8.85204
ရိုက်	-8.85297
▁plan	-8.85413
cu	-8.85522
ဝေး	-8.85604
dy	-8.85681
▁10	-8.85685
▁management	-8.85829
▁site	-8.85913
▁ရက်	-8.85967
ring	-8.86167
▁once	-8.86189
▁ရာခိုင်နှုန်း	-8.86298
တာက	-8.8663
▁call	-8.86707
▁ရဲ့	-8.86741
ဘဝ	-8.86896
ill	-8.87
▁မြင်	-8.87103
▁nothing	-8.87279
ny	-8.87282
ခရီး	-8.87612
▁name	-8.87643
▁room	-8.87661
▁men	-8.87726
▁offer	-8.87755
0	-8.87781
vo	-8.87793
▁တကယ်	-8.87882
ions	-8.879
▁report	-8.87906
ကနေ	-8.88033
ized	-8.88062
▁ရရှိ	-8.88133
ရိုး	-8.88167
▁ever	-8.88231
ခဲ့ပါတယ်။	-8.88264
▁အဖွဲ့အစည်း	-8.8827
▁jon	-8.88295
▁na	-8.88324
▁မင်းသိ	-8.88594
mon	-8.88686
▁comp	-8.8882
▁mar	-8.88975
▁without	-8.89082
၁	-8.89107
▁သတင်း	-8.89169
T	-8.89174
▁အေဂျင်စီ	-8.89264
နှစ်ခု	-8.89279
▁head	-8.89282
▁vi	-8.89302
cy	-8.89409
tu	-8.89462
▁children	-8.89479
ပစ်	-8.89595
အသုံးပြု	-8.89665
▁O	-8.8973
mer	-8.89779
em	-8.89811
မင်း	-8.89812
▁white	-8.8988
▁စစ်	-8.89889
ရည်	-8.90116
ဦး	-8.90119
▁ထင်	-8.90296
ထားပြီး	-8.90401
▁အား	-8.90784
ဥပဒေ	-8.90786
▁15	-8.90885
ခဲ့ကြသည်။	-8.90896
လဲ။	-8.90984
ရှိပြီး	-8.91043
▁saving	-8.91099
▁market	-8.91203
ရှ	-8.9122
less	-8.9124
▁ပရိုဂရမ်	-8.91246
▁start	-8.91344
▁ငွေ	-8.91557
▁le	-8.91619
▁ရာစု	-8.91836
▁order	-8.91849
▁tell	-8.92223
line	-8.92257
▁museum	-8.92264
▁done	-8.92275
နေသည်။	-8.92324
▁ပြုလုပ်	-8.92348
▁five	-8.92398
ဆရာ	-8.92402
▁ဘယ်	-8.92459
▁believe	-8.92479
way	-8.92564
▁မရှိ	-8.92622
▁Ro	-8.92775
ဘယ်	-8.9288
ow	-8.92923
▁local	-8.9304
▁times	-8.93094
ound	-8.93115
▁bad	-8.93144
ka	-8.93196
▁ပြီးတော့	-8.93315
မူ	-8.93335
လည်	-8.93438
▁St	-8.93497
▁against	-8.93538
▁next	-8.93546
ag	-8.9357
▁night	-8.93578
▁visit	-8.93578
ှ	-8.9359
▁mail	-8.93625
▁test	-8.93704
daan	-8.94089
ဖက်	-8.9434
▁enough	-8.94388
▁တောင်	-8.94421
ဖြစ်စေ	-8.94518
▁job	-8.94534
▁fa	-8.94544
▁ပြီး	-8.946
com	-8.94602
▁let	-8.94604
င	-8.94624
ep	-8.94691
▁ဖ	-8.94755
D	-8.94914
▁love	-8.95003
ရောင်	-8.95088
lan	-8.95105
▁lo	-8.9517
▁reason	-8.95238
နေထိုင်	-8.95277
▁probably	-8.95303
▁La	-8.95329
တပ်	-8.95329
▁li	-8.9536
အချို့	-8.95411
အနည်းငယ်	-8.95533
တိ	-8.95624
▁လုပ်ငန်း	-8.95694
con	-8.95893
▁doing	-8.95918
▁court	-8.9592
▁စည်းမျဉ်း	-8.95939
▁သူမသည်	-8.95988
ile	-8.96049
ပျော်	-8.96341
▁သူတို့က	-8.96377
▁တစ်ခုခု	-8.96414
▁ပေးဆောင်	-8.96488
တရား	-8.9655
▁several	-8.96714
▁ဖော်ပြ	-8.96731
ဖတ်	-8.96843
▁art	-8.96851
ခင်း	-8.96907
▁သေချာ	-8.96959
▁took	-8.9703
ဘာသာ	-8.97139
▁change	-8.97164
▁today	-8.97223
▁along	-8.97227
ပြဿနာ	-8.97315
▁form	-8.97332
ger	-8.97388
ပြီ	-8.97399
နည်းလမ်း	-8.97421
၄	-8.97429
▁built	-8.97472
▁walk	-8.97474
▁church	-8.97539
ron	-8.97551
▁ထင်ပါတယ်။	-8.97569
▁၁	-8.97647
စစ်	-8.97672
▁million	-8.97766
▁လက်ရှိ	-8.97817
ဝတ်	-8.97976
သီး	-8.9798
▁ဖြစ်သည်။	-8.98003
လိုက်တယ်။	-8.9801
▁အစီအစဉ်	-8.98088
▁clinton	-8.98235
side	-8.98742
▁သွား	-8.98774
ကောင်	-8.98814
▁Re	-8.98859
▁programs	-8.98905
▁ဒ	-8.98915
▁young	-8.98916
ကဲ့သို့	-8.99037
tion	-8.99263
fa	-8.99298
▁ပထမ	-8.99357
▁al	-8.99385
္	-8.99401
▁17	-8.99438
▁ဟ	-8.9944
ရရှိ	-8.99606
ပူ	-8.9977
lin	-8.9984
▁center	-8.99847
ရှာ	-8.999
▁until	-8.99968
ုံ	-9.00016
ise	-9.00047
ဓာတ်	-9.00147
lu	-9.00197
term	-9.00248
▁yes	-9.0067
ally	-9.0069
▁ten	-9.00774
ကြိုက်	-9.00816
▁south	-9.00856
မဲ	-9.0089
▁လေ	-9.00905
အောက်	-9.00935
ရို	-9.00939
သင်	-9.00941
ပေ။	-9.01039
▁again	-9.01104
tan	-9.01137
▁th	-9.01154
▁o	-9.01156
ပျက်	-9.01157
▁ယုံကြည်	-9.01234
hum	-9.01274
▁မှန်	-9.01444
ns	-9.01447
▁seen	-9.01455
ထိုး	-9.01526
ner	-9.01541
▁read	-9.01598
▁include	-9.01691
▁ခရီးသွား	-9.0173
▁feel	-9.0174
iv	-9.01743
gra	-9.01755
▁မီး	-9.01759
▁ကုမ္ပဏီ	-9.01786
▁ဆို	-9.01802
ရှည်	-9.01852
စွဲ	-9.01912
ခင်	-9.01929
▁north	-9.01949
▁century	-9.01993
▁ယခု	-9.02117
▁သူမ၏	-9.02235
▁New	-9.02354
▁idea	-9.02418
R	-9.02453
▁၎င်းကို	-9.02466
▁security	-9.02471
▁ည	-9.02523
▁person	-9.02625
▁kids	-9.02633
▁မင်းကို	-9.02674
▁course	-9.02896
port	-9.029
▁however	-9.03085
▁called	-9.03194
pp	-9.03264
▁ဆုံးဖြတ်	-9.03385
▁fact	-9.03401
▁second	-9.03416
ugh	-9.03433
▁ကြီးမားသော	-9.03463
ကဲ့သို့သော	-9.03597
စောင့်	-9.03616
▁financial	-9.0363
▁ဝန်ထမ်း	-9.03773
E	-9.03799
▁ပထမဆုံး	-9.03829
ဟ	-9.03958
▁performance	-9.04072
ထားတဲ့	-9.04085
▁ရှာဖွေ	-9.04086
▁review	-9.04097
ော	-9.04109
ဒဏ်	-9.04111
▁ပြင်သစ်	-9.04132
ဖြစ်လာ	-9.04211
▁family	-9.04227
tro	-9.04234
rn	-9.04238
▁pretty	-9.04371
▁၂	-9.04444
▁gao	-9.04449
▁enjoy	-9.04466
▁ပြ	-9.04482
▁တောင်းဆို	-9.04554
▁san	-9.04628
▁ငါး	-9.04697
စေရန်	-9.04781
ခု	-9.04815
ခြံ	-9.04899
သောအခါ	-9.04937
▁everything	-9.05044
နေတယ်။	-9.05175
huh	-9.05257
ors	-9.05264
မယ်လို့	-9.05373
▁GAO	-9.05406
▁နဲ့	-9.05419
ang	-9.05428
▁ရှေ့နေ	-9.05502
ub	-9.05572
▁ကြိုးစား	-9.05658
တွင်း	-9.05695
ning	-9.05718
ကိုယ်ပိုင်	-9.05825
နေပြီ	-9.06035
gi	-9.06115
▁main	-9.06336
▁talk	-9.06377
▁study	-9.06453
ical	-9.06574
ခန့်	-9.06594
▁ta	-9.0663
▁se	-9.06658
nt	-9.06664
▁side	-9.06682
▁သမ္မတ	-9.06708
ဆာ	-9.06765
▁ခု	-9.06849
▁ဖန်တီး	-9.06876
▁stay	-9.07033
▁sub	-9.07049
ွေ	-9.07193
မိုး	-9.07248
အကြံ	-9.07314
king	-9.07339
ရွ	-9.07446
tor	-9.07459
▁united	-9.07678
▁အထူး	-9.07686
▁ha	-9.07794
ထိ	-9.07873
ip	-9.07887
▁run	-9.08104
▁သတ်မှတ်	-9.08197
▁LSC	-9.08231
▁agencies	-9.0838
ach	-9.08387
ကူး	-9.08561
we	-9.0861
los	-9.08623
ခြင်း၊	-9.08628
▁တည်ဆောက်	-9.08666
▁ယူဆ	-9.08669
ki	-9.08689
ိန်	-9.08739
ham	-9.08834
မရ	-9.08862
▁dr	-9.09112
ီး	-9.09124
ley	-9.09209
▁Jon	-9.09249
▁agency	-9.09258
ey	-9.09362
▁wanted	-9.09396
▁ကျွန်ုပ်တို့သည်	-9.09422
▁lsc	-9.09443
ဖွယ်	-9.0946
ရော	-9.09554
ze	-9.09597
j	-9.09667
▁cre	-9.09741
တီ	-9.09825
▁general	-9.09992
▁ရ	-9.09996
အကူအညီ	-9.1004
▁နိုင်ငံရေး	-9.10041
bi	-9.10068
▁နောက်ထပ်	-9.1009
ပု	-9.10094
▁ကျွန်း	-9.10112
မရှိပါ။	-9.10201
ယောက်	-9.10219
▁mu	-9.10227
ities	-9.10338
▁problem	-9.10395
▁အမြဲ	-9.10413
ဆေး	-9.10421
▁project	-9.10431
▁Mo	-9.10449
ကွန်	-9.10528
??	-9.10575
▁power	-9.10576
9	-9.10832
အားဖြင့်	-9.10832
ကာလ	-9.10928
▁Pa	-9.10943
ship	-9.10961
▁အခြေခံ	-9.10975
သက်သာ	-9.11067
ဖြေ	-9.11075
၂	-9.11117
ိုင်း	-9.11174
▁john	-9.11189
ခဲ့ကြ	-9.11191
ချက်ကို	-9.11234
ပေါင်းများစွာ	-9.11351
▁won	-9.11389
ပြား	-9.1145
▁လ	-9.11557
သည်ကို	-9.11619
ဖော်	-9.11653
ဆန်	-9.11737
▁$	-9.11763
တုန်းက	-9.11789
ec	-9.11789
▁book	-9.11793
၉	-9.11809
8	-9.1192
ier	-9.12163
▁past	-9.12167
▁design	-9.12198
▁interest	-9.1223
▁စက်	-9.12418
အသင်း	-9.12458
▁temple	-9.12487
▁ကမ္ဘာ	-9.12538
od	-9.12575
▁သူတို့ရဲ့	-9.12678
▁free	-9.12707
ai	-9.12838
gg	-9.129
▁န	-9.12921
▁six	-9.13122
▁close	-9.13148
တစ်ခုကို	-9.13149
▁၁၉၉	-9.13324
▁understand	-9.13452
မည်ဟု	-9.13547
▁ရွေးချယ်	-9.13573
ပိုင်ဆိုင်	-9.138
▁အချက်အလက်	-9.13813
▁face	-9.13819
ထပ်	-9.13867
▁movie	-9.13868
▁R	-9.14091
▁ဆွေးနွေး	-9.1421
▁မသိ	-9.14228
▁having	-9.14319
end	-9.14445
▁value	-9.14476
ဝါ	-9.14485
နှင့်အတူ	-9.14514
▁buy	-9.14573
▁capital	-9.1474
▁least	-9.14742
ခေတ်	-9.14749
မည့်	-9.1476
▁16	-9.14766
gar	-9.14807
အရင်းအမြစ်	-9.14873
သေဆုံး	-9.14877
▁အချို့သော	-9.14962
လိုအပ်	-9.15049
▁ကျွန်တော်တို့	-9.15065
▁often	-9.15126
▁6	-9.15147
ံ့	-9.15198
▁အကြောင်း	-9.15338
▁tax	-9.15365
တွေမှာ	-9.15477
ran	-9.15577
လိမ့်မယ်။	-9.15581
ice	-9.15643
▁popular	-9.15676
ပညာရှင်	-9.15704
▁known	-9.15821
သွင်း	-9.15854
▁နာရီ	-9.15906
ီ	-9.15918
▁ရှိနေ	-9.16005
▁major	-9.16066
B	-9.1611
▁ချ	-9.16127
▁costs	-9.16159
ction	-9.16178
သင့်သည်။	-9.16402
စေသည်။	-9.16467
များဖြစ်သည်။	-9.16532
ite	-9.16707
▁ကား	-9.16968
လှည့်	-9.17104
ဖမ်း	-9.1714
ign	-9.17152
▁health	-9.17246
qui	-9.17286
▁မိသားစု	-9.1731
▁matter	-9.17381
▁fe	-9.17384
▁ski	-9.17388
သောက်	-9.1743
စင်	-9.1752
ue	-9.176
▁12	-9.17641
ual	-9.17736
ex	-9.17805
ကျယ်	-9.1785
▁နေ	-9.17874
▁class	-9.17883
ကြွ	-9.179
▁gu	-9.17947
tal	-9.1807
ဖွင့်	-9.18226
▁women	-9.18285
ရှု	-9.18287
sur	-9.18301
ကိုယ်တိုင်	-9.18441
han	-9.18475
▁level	-9.18488
▁sh	-9.18615
ခြင်းအတွက်	-9.18616
မြေ	-9.18635
စပ်	-9.18644
...	-9.18693
တို့ကို	-9.1872
များအား	-9.18732
▁အမှန်တကယ်	-9.18785
▁park	-9.188
များစွာကို	-9.18849
တန်ဖိုး	-9.18964
▁turn	-9.19163
▁black	-9.19202
နယ်	-9.19225
▁ဒါက	-9.19227
▁ကလင်တန်	-9.19281
▁budget	-9.19393
▁paper	-9.19445
နှစ်ယောက်	-9.19519
တီး	-9.19532
▁The	-9.19608
ther	-9.19623
▁getting	-9.19631
▁ပြသ	-9.19635
▁ago	-9.19638
▁present	-9.19675
▁example	-9.19839
▁cut	-9.20114
ပါဝင်	-9.20121
ကင်း	-9.20241
▁ငါတို့က	-9.20275
▁နေ့	-9.20388
0,000	-9.2045
che	-9.20561
မွေး	-9.20598
ငါး	-9.20624
ထဲတွင်	-9.20739
▁told	-9.20756
▁ကြည့်	-9.20761
▁သန်း	-9.20853
▁land	-9.20853
နေကြ	-9.20958
▁economic	-9.21023
▁days	-9.21038
▁problems	-9.21058
▁type	-9.21058
all	-9.2109
▁deal	-9.21194
ချီ	-9.21281
▁နှစ်သက်	-9.21355
act	-9.21412
▁en	-9.21442
ခဲ့တဲ့	-9.21504
▁bi	-9.21518
▁တွေး	-9.21559
▁လူတိုင်း	-9.21573
▁force	-9.21588
▁almost	-9.21646
▁Ch	-9.21653
မှန်း	-9.2171
ens	-9.21815
ler	-9.21928
▁able	-9.2197
ious	-9.21985
▁try	-9.22016
▁asked	-9.22107
လိုချင်	-9.22136
ဇာ	-9.22155
▁road	-9.22224
▁7	-9.22271
▁company	-9.22275
F	-9.22319
▁ဒုတိယ	-9.22351
ဘူးလို့	-9.22411
▁လေး	-9.22482
▁ကျွန်ုပ်	-9.22486
▁va	-9.2262
မောင်း	-9.22737
▁whole	-9.228
▁post	-9.22812
▁ဦး	-9.23005
▁audit	-9.23039
▁ရှ	-9.23104
▁says	-9.23104
ထိန်းသိမ်း	-9.2317
ပြည်ထောင်စု	-9.23225
ကတော့	-9.23255
▁ဤနေရာတွင်	-9.23331
အေး	-9.23368
▁everyone	-9.23448
▁building	-9.23556
ပဲ။	-9.2375
▁An	-9.23801
▁အနည်းဆုံး	-9.23923
”	-9.23993
men	-9.24013
ber	-9.24039
ကြတယ်။	-9.24042
▁pe	-9.24068
▁pu	-9.24088
▁မဟုတ်ဘူး	-9.24101
cc	-9.24136
ize	-9.24142
▁မင်းသိတယ်	-9.24183
▁ခံစား	-9.24268
နိုင်ပါသည်။	-9.2433
▁nice	-9.24334
နစ်	-9.24336
▁miss	-9.24339
lor	-9.24349
▁saw	-9.24367
unt	-9.24407
▁mr	-9.24418
▁ဆေး	-9.24459
▁quite	-9.24491
L	-9.24512
ible	-9.24537
ထဲ	-9.24554
▁congress	-9.24565
▁become	-9.24568
▁ဘာမှ	-9.24602
ဖြစ်သည်	-9.24665
▁half	-9.24685
▁ja	-9.24859
▁qu	-9.24892
ပျ	-9.24894
▁ဆက်	-9.24974
lay	-9.25032
▁ju	-9.25034
အခြေအနေ	-9.2504
▁ရုပ်ရှင်	-9.25089
ထဲက	-9.25101
▁ဘယ်တော့မှ	-9.25134
▁ပိုကောင်း	-9.25226
cent	-9.25311
▁မရှိပါ။	-9.25323
▁line	-9.2538
ဗဟို	-9.2539
လှမ်း	-9.25408
▁story	-9.25477
ကတည်းက	-9.2554
နက်	-9.25603
မြတ်	-9.25614
▁risk	-9.25617
▁ဒီလို	-9.25661
များထဲမှ	-9.25677
▁food	-9.25696
▁available	-9.25745
▁Ba	-9.25769
▁sc	-9.25829
▁product	-9.25842
ကြည့်ရှု	-9.25848
တင်း	-9.25887
▁ကျော်	-9.25983
dic	-9.26023
ဖြစ်သော	-9.26038
ဝေ	-9.26189
ဝန်ဆောင်မှု	-9.26203
▁wall	-9.26211
▁among	-9.26402
▁short	-9.26466
ခါ	-9.26599
▁ရန်	-9.26698
pr	-9.26738
ဆု	-9.26749
▁တရားဝင်	-9.26827
▁history	-9.26851
မဆို	-9.26928
ကိုယ်	-9.26935
▁အောက်	-9.26966
▁effect	-9.26995
▁ခေါ်	-9.27071
▁top	-9.27078
▁Al	-9.27166
▁organization	-9.27169
သူငယ်ချင်း	-9.27241
▁actually	-9.27294
▁တရား	-9.27353
▁yet	-9.27374
▁consider	-9.27464
▁imp	-9.27505
▁အခွန်	-9.27526
▁low	-9.27549
▁looked	-9.27613
▁else	-9.27678
▁allow	-9.27694
မှုတွင်	-9.27716
▁model	-9.27876
▁individual	-9.27905
vis	-9.27937
ိန်း	-9.2801
▁analysis	-9.28027
ပီ	-9.28142
▁ဟာ	-9.28149
ဆိုလို	-9.28196
▁ကျောင်း	-9.28255
အခွင့်အရေး	-9.2827
ress	-9.28324
▁question	-9.28442
ဖြ	-9.28458
ick	-9.28469
▁whether	-9.28483
claim	-9.28517
out	-9.28527
နိုင်သည်	-9.28567
ork	-9.28575
ထိုင်	-9.28589
▁မင်းက	-9.28592
အောက်တွင်	-9.28639
ကောင်းမွန်	-9.28669
▁bit	-9.28758
▁fla	-9.28865
val	-9.28917
one	-9.28997
ပြည်	-9.29025
တော	-9.29122
rc	-9.29165
▁research	-9.29218
▁rest	-9.29237
▁ပါ	-9.29254
သည်မှာ	-9.29302
ခဲ့သည့်	-9.29445
own	-9.29505
▁mon	-9.29533
▁အမ်	-9.29552
▁နည်းပညာ	-9.29678
▁watch	-9.29736
▁full	-9.29739
▁နေထိုင်	-9.29761
▁အခြေအနေ	-9.29768
▁social	-9.29836
▁ဒါကြောင့်	-9.29845
▁တွေ့	-9.29879
▁အရက်	-9.29935
ဖြစ်ကြောင်း	-9.29944
ွတ်	-9.29998
▁making	-9.30126
လူမျိုး	-9.30171
ိုင်	-9.30173
▁ကျွန်တော့်	-9.30191
ade	-9.30279
ries	-9.30288
▁Co	-9.30293
စုံ	-9.30343
▁isn	-9.30477
▁ယူ	-9.30482
▁In	-9.30493
▁including	-9.30548
တစ်လျှောက်	-9.30596
▁department	-9.3061
နေရ	-9.30611
ea	-9.30613
ကုန်ကျစရိတ်	-9.30624
▁tr	-9.30768
သုံးစွဲ	-9.30821
▁အထူးသဖြင့်	-9.30835
▁rather	-9.30858
▁Bo	-9.30907
sta	-9.30917
လာသည်။	-9.30992
cra	-9.31003
ကြပြီး	-9.31073
ဘီ	-9.31099
▁hotel	-9.31123
လွန်	-9.31133
50	-9.31191
ဆီသို့	-9.31276
▁trying	-9.3133
▁wasn	-9.31335
▁result	-9.31363
တယ်ဆိုတာ	-9.31413
▁ဝန်ဆောင်မှု	-9.3143
ပေါ့	-9.31487
▁tuppence	-9.31581
nes	-9.31609
ခက်	-9.31624
▁computer	-9.31707
ကွင်း	-9.31733
ja	-9.31817
ခတ်	-9.31836
▁garden	-9.31928
ps	-9.3195
▁figure	-9.32054
▁tommy	-9.32055
▁group	-9.32109
အမြင်	-9.32199
▁၁၉	-9.32218
ဉာဏ်	-9.32244
▁အခန်း	-9.3227
▁နည်းလမ်း	-9.32282
fe	-9.32377
ral	-9.32429
▁stand	-9.32445
လွတ်	-9.32463
▁အဆင့်	-9.32469
နိုင်သည့်	-9.32494
▁effective	-9.32497
ညီ	-9.32509
နေပြီး	-9.32525
row	-9.32551
▁Sa	-9.32563
▁travel	-9.32593
▁team	-9.326
ထောင်	-9.32747
▁v	-9.32754
▁within	-9.32831
mission	-9.3285
ဖော်ပြ	-9.32882
▁ပုံ	-9.32903
▁၃	-9.32934
▁non	-9.3294
▁working	-9.3297
▁trans	-9.32979
▁changes	-9.32997
▁west	-9.33064
▁Lo	-9.3308
▁maybe	-9.33203
▁သူတို့ကို	-9.33261
▁private	-9.33262
▁later	-9.33265
▁pass	-9.3333
▁sea	-9.33341
▁increase	-9.33352
▁final	-9.33354
ten	-9.33357
▁true	-9.33436
rose	-9.33445
▁အလုပ်လုပ်	-9.33509
▁တော်တော်	-9.3351
ခြင်း၏	-9.33524
▁early	-9.33529
▁total	-9.33543
▁Tuppence	-9.33551
▁step	-9.3357
▁fine	-9.33752
▁york	-9.33818
▁သတိ	-9.3384
▁due	-9.33875
ကလေး	-9.33892
သွားသည်။	-9.34092
ah	-9.34166
ပြိုင်	-9.3419
တည်း	-9.34303
cle	-9.34363
▁အားလုံး	-9.34431
▁future	-9.34486
▁အမြဲတမ်း	-9.34494
▁sha	-9.34501
▁ဂ	-9.34507
ကြေး	-9.34605
တချို့	-9.34648
ချက်များကို	-9.34664
▁ရန်ပုံငွေ	-9.34718
nu	-9.34741
▁u	-9.34766
▁San	-9.34903
▁မြို့တော်	-9.34918
ee	-9.34955
▁စာရင်းစစ်	-9.3507
၃	-9.35076
နေသည့်	-9.351
မသိဘူး	-9.352
▁hold	-9.35255
▁sound	-9.35293
▁human	-9.35299
▁clear	-9.35367
▁benefits	-9.35486
ခဲ့ရ	-9.35563
▁according	-9.35659
▁near	-9.35677
amp	-9.35685
cing	-9.35696
▁outside	-9.35718
အများစုသည်	-9.35726
▁news	-9.35741
▁someone	-9.35797
▁လက်ခံ	-9.35837
▁မြေ	-9.3594
▁either	-9.35987
▁needed	-9.3601
ay	-9.36087
စဉ်းစား	-9.36104
▁technology	-9.36118
အစိုးရ	-9.36176
▁sun	-9.36176
ခေါင်းဆောင်	-9.36186
ပြုလုပ်	-9.36191
▁late	-9.36233
ရောင်း	-9.36322
ရစ်	-9.36343
▁ho	-9.36405
ကြိုးစား	-9.36533
ability	-9.3654
အစီအစဉ်	-9.36547
▁access	-9.3658
▁Ha	-9.36603
▁okay	-9.36614
▁ကျန်	-9.36646
century	-9.36659
▁door	-9.36709
ကစား	-9.36752
ချောင်း	-9.3676
ပေးသည်။	-9.36776
▁music	-9.3679
ယို	-9.36817
▁2000	-9.36882
▁issue	-9.37114
▁bl	-9.37128
▁Le	-9.37253
ff	-9.37264
လွန်း	-9.37334
▁roman	-9.37398
▁char	-9.37469
▁happen	-9.37472
▁inter	-9.37523
▁game	-9.37622
▁decision	-9.37644
▁action	-9.37652
တည်ဆောက်	-9.37658
▁ကောင်းကောင်း	-9.37666
▁ad	-9.37677
ban	-9.37696
▁makes	-9.37759
အာဏာ	-9.3781
▁ထောက်ပံ့	-9.37814
▁piece	-9.37879
▁ခွဲခြမ်းစိတ်ဖြာ	-9.37932
ပတ်ဝန်းကျင်	-9.37944
ရု	-9.3808
▁method	-9.38114
လင်း	-9.38132
ရှင်း	-9.38145
▁သတင်းအချက်အလက်	-9.38232
▁heard	-9.383
▁across	-9.38349
ft	-9.38439
ဒ်	-9.38558
များရှိသည်။	-9.38582
▁experience	-9.38619
use	-9.38747
▁special	-9.38828
▁usually	-9.38855
ကွဲ	-9.38946
▁stuff	-9.39049
▁east	-9.39054
▁တစ်ခုတည်းသော	-9.39135
၀င်	-9.39167
မဖြစ်	-9.39198
ain	-9.39198
▁ဆက်လက်	-9.39213
ရှိနေ	-9.39285
▁lu	-9.3949
▁miles	-9.3949
▁30	-9.39539
▁L	-9.39567
▁ပုံမှန်	-9.39651
▁Tommy	-9.39705
▁remember	-9.39773
▁မျှော်လင့်	-9.39822
▁death	-9.39842
▁given	-9.39852
▁using	-9.39865
ju	-9.39876
ome	-9.40075
▁စာအုပ်	-9.40086
▁organizations	-9.40094
လိ	-9.4014
▁tourist	-9.40215
van	-9.40232
ified	-9.40284
▁issues	-9.40401
မှုအတွက်	-9.40456
▁cha	-9.40467
▁amount	-9.40493
ြ	-9.40499
▁တို့သည်	-9.40515
ear	-9.40619
မှု၏	-9.40667
▁dec	-9.40706
▁j	-9.40753
fully	-9.40762
▁red	-9.4078
စွမ်း	-9.40786
ဧရိယာ	-9.40837
▁စွမ်းဆောင်ရည်	-9.40952
▁executive	-9.41052
သွားခဲ့သည်။	-9.41066
မြစ်	-9.41104
ပါသလား။	-9.41105
▁poor	-9.41167
မရှိပါဘူး။	-9.41167
▁အကဲဖြတ်	-9.41176
▁အသံ	-9.41198
▁ငွေကြေး	-9.41233
မသိ	-9.41269
▁vote	-9.41278
▁ကျွန်ုပ်၏	-9.41294
▁ကူညီပေး	-9.41349
▁concern	-9.41356
▁ဒီမှာ	-9.41398
▁possible	-9.41426
▁bill	-9.41442
သွေး	-9.41461
▁အစီရင်ခံစာ	-9.41474
▁hill	-9.41482
▁မကြာခဏ	-9.41495
▁တရားရုံး	-9.41498
ace	-9.41506
ဖြစ်သည့်	-9.41544
▁hundred	-9.41564
ထိန်း	-9.41604
ကူညီ	-9.41615
ကပ်	-9.41725
▁postal	-9.41762
▁အစိတ်အပိုင်း	-9.41796
လျှောက်	-9.41891
နီးပါး	-9.41892
ration	-9.41969
ဝန်ဆောင်မှုများ	-9.41972
▁De	-9.4199
ina	-9.42012
▁fire	-9.42018
▁တိုးလာ	-9.4207
▁village	-9.421
▁ပံ့ပိုးပေး	-9.42105
▁နိုင်ငံတော်	-9.42154
fu	-9.42169
▁seems	-9.42197
▁ပိုက်ဆံ	-9.42207
qu	-9.42312
ko	-9.42402
▁leave	-9.42403
▁learn	-9.42404
▁ယင်း	-9.42406
▁drug	-9.42447
▁staff	-9.42579
▁held	-9.42629
▁ပိတ်	-9.42657
▁rate	-9.42683
light	-9.42698
လိုက်တာ	-9.42711
▁app	-9.42715
▁8	-9.4274
▁address	-9.42792
▁အတွင်း	-9.42829
wood	-9.42904
▁ဒီဇိုင်း	-9.43066
▁record	-9.43177
▁collection	-9.43187
▁ဗ	-9.43259
▁results	-9.43352
▁coast	-9.43428
မယ့်	-9.43461
ပြည့်	-9.43482
▁လျှော့ချ	-9.43517
ပါက၊	-9.43592
▁14	-9.4369
▁မကြာသေးမီက	-9.43751
▁talking	-9.43755
ရသည်။	-9.4376
▁ကွဲပြား	-9.43799
တွေး	-9.43806
▁Mar	-9.43835
▁interesting	-9.43864
သမျှ	-9.43905
သိမ်း	-9.43944
old	-9.43946
▁ပြတိုက်	-9.43949
ney	-9.43987
လွှာ	-9.44028
▁certain	-9.44039
လိုင်း	-9.44046
▁already	-9.44064
▁tour	-9.44091
▁တုံ့ပြန်	-9.44121
▁personal	-9.44179
▁US	-9.44212
မပေး	-9.44287
▁ပါဝင်သည်။	-9.44425
ကြိုး	-9.44509
▁အနည်းငယ်	-9.4463
တို့သည်	-9.44633
▁suggest	-9.44636
တစ်ခုလုံး	-9.44681
▁modern	-9.44708
▁wi	-9.44756
▁ကန့်သတ်	-9.44851
ana	-9.44902
ထု	-9.44942
▁bring	-9.44988
▁camp	-9.45025
▁des	-9.4503
▁star	-9.45083
▁fo	-9.45133
ဝိုင်း	-9.45182
ple	-9.45207
▁current	-9.45261
tle	-9.45305
▁bra	-9.4531
▁အာ	-9.45404
▁easy	-9.45428
ou	-9.4544
▁rock	-9.45498
လွယ်	-9.45566
လောင်း	-9.45569
စည်းကမ်း	-9.45586
▁hope	-9.45613
ပံ့ပိုး	-9.45625
လိမ့်မည်။	-9.45644
▁fun	-9.45656
ွမ်း	-9.4569
▁200	-9.45784
▁del	-9.45822
vent	-9.45835
ition	-9.45865
ble	-9.45914
တို့၏	-9.46012
▁king	-9.46028
▁”	-9.46028
ore	-9.46156
▁worth	-9.46168
မဲ့	-9.4621
▁policy	-9.46226
တစ်ခုစီ	-9.46275
▁ဖက်ဒရယ်	-9.46313
ထည်	-9.46371
▁period	-9.46372
သူတို့	-9.46464
▁speak	-9.46481
▁မိုင်	-9.46496
ခဲ့တယ်	-9.46496
ကုမ္ပဏီ	-9.46526
သူများကို	-9.46605
စမ်း	-9.46605
▁taken	-9.46659
နာရီ	-9.46665
ned	-9.46684
▁မထင်	-9.46689
▁sign	-9.46706
တောက်	-9.46868
▁bus	-9.4695
▁account	-9.46953
nic	-9.46973
ခံစားရ	-9.46978
နိုင်ပါတယ်။	-9.46999
▁started	-9.47001
nc	-9.47067
ကြိမ်	-9.4707
▁standards	-9.47097
စည်းမျဉ်း	-9.47145
N	-9.47273
▁cover	-9.47304
တွေရဲ့	-9.47306
လျ	-9.47389
လိုအပ်ချက်များ	-9.47416
cover	-9.4744
ight	-9.47458
▁လူတွေက	-9.47553
▁လမ်းလျှောက်	-9.47558
ကျင်းပ	-9.47563
▁jo	-9.47626
▁ဘယ်သူ	-9.47661
တည်ရှိ	-9.47707
lar	-9.47738
မြှင့်တင်	-9.47945
ယုံကြည်	-9.4796
▁political	-9.48064
မိုက်	-9.48098
▁knew	-9.48101
ခြင်းဆိုင်ရာ	-9.48113
အမျိုးအစား	-9.48172
▁U	-9.48172
▁return	-9.48212
လင်	-9.4824
▁together	-9.4825
▁quality	-9.48324
ကွက်	-9.48342
▁ပင်လယ်	-9.48378
ake	-9.48408
(	-9.48492
▁french	-9.4851
▁girl	-9.4851
▁nation	-9.48521
သတင်း	-9.48585
▁မေး	-9.48617
▁summer	-9.48627
စကား	-9.48651
အိတ်	-9.48717
▁သူတို့မှာ	-9.48762
▁ဆုံးဖြတ်ချက်	-9.48781
▁အောင်မြင်	-9.48828
▁sl	-9.48836
spect	-9.48837
▁difficult	-9.48846
မဟုတ်ပါ။	-9.48887
အပိုင်း	-9.48888
တဲ့အတွက်	-9.48914
H	-9.48944
ဘော	-9.48987
▁although	-9.48995
များထက်	-9.49159
ပြေ	-9.49168
wi	-9.49184
▁section	-9.49285
▁စနစ်	-9.49323
ကျန်	-9.49399
ခဲ့ပါ။	-9.49444
ဆယ်	-9.49448
▁significant	-9.49483
ရှေ့	-9.49549
ထည့်	-9.49561
▁sometimes	-9.49598
▁fall	-9.49625
ded	-9.49668
▁remain	-9.49696
cho	-9.49748
▁stop	-9.49817
▁၎င်းတို့ကို	-9.4985
မလုပ်	-9.49859
▁sort	-9.4986
▁စစ်ဆေး	-9.49965
ရောဂါ	-9.49981
မှုဆိုင်ရာ	-9.50058
ရှာဖွေ	-9.50083
ဆဲ	-9.50142
▁fight	-9.50176
တစ်ဖက်	-9.50208
▁cap	-9.50274
▁systems	-9.50275
မြန်	-9.50312
▁ခန့်မှန်း	-9.50325
▁ထို့ကြောင့်	-9.50353
ya	-9.50416
အကြိမ်	-9.50462
တိတ်	-9.50557
အစောပိုင်း	-9.50619
▁cur	-9.5067
▁seven	-9.50679
oc	-9.50742
by	-9.50766
▁su	-9.5083
fl	-9.50847
▁wait	-9.50855
▁အနောက်	-9.50888
lon	-9.50967
ပေါ်မှာ	-9.50992
▁met	-9.50994
▁commission	-9.51001
▁based	-9.5101
မှုတစ်ခု	-9.51027
ဆောင်း	-9.5111
ချိုး	-9.51168
▁အစီရင်ခံ	-9.51202
▁plant	-9.51227
▁ဆန့်ကျင်	-9.51258
▁ground	-9.51334
▁lake	-9.51353
ိုက်	-9.51442
အချို့ကို	-9.5147
ထံ	-9.51492
ကီ	-9.51492
ပေးသည့်	-9.51495
▁needs	-9.5165
ဖောက်	-9.51757
day	-9.51817
လိမ့်မည်	-9.51921
ထိန်းချုပ်မှု	-9.52004
ါ	-9.5202
▁eight	-9.52038
ches	-9.52048
ဝေဖန်	-9.52121
စာအုပ်	-9.52132
ပြေး	-9.52146
ged	-9.52154
ဆိတ်	-9.52162
▁che	-9.52224
▁13	-9.52246
▁John	-9.52269
20	-9.52315
▁months	-9.52324
▁အတည်ပြု	-9.52346
den	-9.52428
အများကြီး	-9.52477
log	-9.52675
ရမယ်။	-9.52806
ပြည်နယ်	-9.5281
▁အလုပ်သမား	-9.52846
စည်း	-9.52907
ပြောဆို	-9.52929
တောင်း	-9.52986
ust	-9.53009
▁river	-9.53022
တွေ့ရှိ	-9.53045
သတ်မှတ်	-9.53089
▁win	-9.53125
▁ယနေ့	-9.53156
rd	-9.5316
နည်းပညာ	-9.53207
▁အပြစ်	-9.53241
မတ်	-9.53271
သည်၊	-9.53283
time	-9.53329
မရှိဘူး။	-9.53362
▁hours	-9.53376
ထဲသို့	-9.53406
▁region	-9.53437
▁je	-9.53521
▁တံခါး	-9.53536
des	-9.53579
ဘုရား	-9.53693
ထိခိုက်	-9.53708
▁couple	-9.53789
▁tri	-9.53807
▁သင်သည်	-9.53869
za	-9.5387
လွယ်ကူ	-9.53875
▁works	-9.53973
if	-9.54005
▁လိုအပ်ပါသည်။	-9.54014
har	-9.54038
ထံမှ	-9.54064
သင်္ဘော	-9.54104
let	-9.54135
▁grand	-9.54154
▁တရုတ်	-9.5417
▁ငါ့မှာ	-9.54206
ကောင်းသော	-9.54252
▁စကားပြော	-9.54255
▁ပြောပါတယ်။	-9.54353
chi	-9.54356
▁looking	-9.54425
▁contain	-9.5446
ပေါ်ရှိ	-9.54481
▁require	-9.54659
▁Do	-9.54665
▁focus	-9.54697
နည်းပါး	-9.54728
အော်	-9.54743
ထိပ်	-9.54772
▁တိုက်ခိုက်	-9.5487
ဖြေရှင်း	-9.54889
အစား	-9.54921
တူညီ	-9.54958
▁ask	-9.55057
▁woman	-9.55215
▁couldn	-9.55334
▁himself	-9.55453
▁Be	-9.55461
▁ka	-9.55462
ကမ်းရိုးတန်း	-9.55493
စီးပွားရေး	-9.55593
▁others	-9.55611
ဟမ်	-9.55669
▁board	-9.55672
တစ်ခုတွင်	-9.55735
lit	-9.55748
တ္တ	-9.55788
▁drew	-9.55803
▁measure	-9.55813
လိမ့်မယ်	-9.55818
လှေ	-9.55867
အဖွဲ့အစည်း	-9.55871
▁boy	-9.55894
▁$1	-9.55967
▁approach	-9.55974
စျေးနှုန်း	-9.55974
လေ့ကျင့်	-9.56093
ဖုန်း	-9.56094
▁ထောက်ခံ	-9.56098
▁ကြား	-9.56179
▁Ra	-9.5621
▁ဆုံးရှုံး	-9.56223
▁နားလည်	-9.56247
▁development	-9.56289
▁civil	-9.56295
▁behind	-9.56295
▁ကျွန်မ	-9.56319
နေတယ်	-9.56431
▁light	-9.56501
များ။	-9.56519
ရှိတယ်	-9.56544
fer	-9.56562
▁drive	-9.56572
▁lead	-9.56609
▁ပေါင်းစပ်	-9.56741
အသက်	-9.56743
▁မည်သို့	-9.56788
▁super	-9.56879
▁စပိန်	-9.56901
▁friend	-9.56911
▁god	-9.56931
▁save	-9.56956
▁toward	-9.57006
အရေအတွက်	-9.57079
ောက်	-9.57081
မျက်	-9.57106
▁(1	-9.57145
ဂူ	-9.57167
tri	-9.57191
▁ကျန်းမာရေး	-9.57267
air	-9.57304
အနေဖြင့်	-9.5736
▁lost	-9.57389
ပိုင်	-9.57461
▁mind	-9.57462
အခြေခံ	-9.57469
ချမ်းသာ	-9.57484
▁Mi	-9.57512
▁single	-9.57523
▁J	-9.57543
▁husband	-9.57552
▁thousand	-9.57593
▁ရွှေ	-9.57633
▁ယခုအခါ	-9.57639
▁ဟုတ်ပါတယ်	-9.57703
▁ချစ်	-9.57705
▁စိတ်ဝင်စား	-9.57715
တစ်ခုရှိသည်။	-9.57747
လော	-9.57849
ik	-9.57896
လွှတ်	-9.57896
▁အပိုင်း	-9.57914
cal	-9.57948
▁pen	-9.58096
မျက်လုံး	-9.58123
▁strong	-9.58167
▁Ar	-9.58191
fr	-9.58236
ရာသီ	-9.58264
ဆောင်ရွက်	-9.58272
ဏ်	-9.58295
▁Po	-9.5831
▁dollars	-9.58373
မှုများသည်	-9.58392
လက်မှတ်	-9.58417
▁appear	-9.58464
▁justice	-9.58493
တု	-9.58522
အချက်အလက်များကို	-9.58584
▁age	-9.58664
လမ်းကြောင်း	-9.58682
▁guy	-9.5871
▁Me	-9.58842
▁members	-9.58973
ရောက်ရှိ	-9.58983
ists	-9.59004
▁တာဝန်	-9.59055
ians	-9.59058
ji	-9.5907
▁အရှေ့	-9.59078
G	-9.59091
ဖွံ့ဖြိုးတိုးတက်	-9.59093
▁companies	-9.59114
▁required	-9.59188
နိုင်တယ်။	-9.5925
▁studies	-9.59405
▁became	-9.59405
▁ob	-9.59471
လဲဆိုတာ	-9.59472
သောအခါတွင်	-9.59481
ဥပမာ	-9.59487
▁ဇာတ်လမ်း	-9.5951
မှတ်တမ်း	-9.59592
ဖြူ	-9.5962
▁answer	-9.59821
မရှိသော	-9.59877
30	-9.59998
▁ဒါဟာ	-9.60001
စာရွက်	-9.60009
kin	-9.6004
▁အရေးကြီး	-9.60061
▁သက်ဆိုင်	-9.60141
▁cat	-9.60151
▁price	-9.60193
လစာ	-9.60194
▁british	-9.60197
mu	-9.6022
▁လာ	-9.60226
ပြင်း	-9.60237
နှိပ်	-9.60239
ခဏ	-9.60265
▁နှစ်စဉ်	-9.60332
▁considered	-9.6035
▁anyone	-9.60514
▁arm	-9.60527
▁community	-9.60617
▁shows	-9.60694
▁beautiful	-9.60701
▁population	-9.60703
အကြီးဆုံး	-9.60715
▁Pe	-9.60728
▁မပြော	-9.60774
ဗေဒ	-9.60786
ပြသ	-9.60883
▁အမျိုးအစား	-9.60915
ကြုံ	-9.60991
လစ်	-9.61016
▁impact	-9.61053
ative	-9.61131
အဆင်ပြေ	-9.61208
ding	-9.61244
uch	-9.61262
▁Ja	-9.61279
▁နည်းနည်း	-9.61322
▁statement	-9.61386
▁planning	-9.61404
▁အသိအမှတ်ပြု	-9.61405
▁ခေါင်း	-9.61441
▁အမည်	-9.61454
serv	-9.61469
work	-9.61477
နီး	-9.61525
▁သံသယ	-9.61575
ဝက်	-9.61644
▁object	-9.61678
▁notice	-9.61716
ရွာ	-9.61736
▁ရှေ့	-9.61754
▁hu	-9.61788
▁factor	-9.61869
▁cannot	-9.61975
စတင်	-9.61989
▁ဂျပန်	-9.62095
▁income	-9.62096
▁hit	-9.62133
▁သဘာဝ	-9.62134
hy	-9.62141
ls	-9.62177
ယာဉ်	-9.624
တောင်ဘက်	-9.62406
▁mountain	-9.62446
ကမ္ဘာ	-9.62473
▁စုဆောင်း	-9.62477
bre	-9.62483
▁အိပ်	-9.62484
ကတ်	-9.62509
ပါ၊	-9.62529
▁areas	-9.62547
▁color	-9.62557
pro	-9.62637
▁sell	-9.62671
တစ်စိတ်တစ်ပိုင်း	-9.62699
▁လေ့လာ	-9.62738
▁အာမခံ	-9.62802
▁gave	-9.62814
▁reduce	-9.62818
▁workers	-9.62867
ပိတ်	-9.62911
▁similar	-9.63044
▁employees	-9.63082
▁requirements	-9.63171
အံ့သြ	-9.63188
▁demand	-9.63219
အသုံး	-9.63226
▁ပြေး	-9.63239
မေး	-9.63336
eg	-9.63384
မှု၊	-9.63442
zar	-9.63465
▁trade	-9.63514
▁Wa	-9.63521
▁document	-9.63562
▁port	-9.63566
▁အရေးကြီးသော	-9.63637
▁accept	-9.6365
အိမ်ထောင်	-9.63667
head	-9.63671
▁အနာဂတ်	-9.63677
▁table	-9.63701
▁pick	-9.63747
▁card	-9.63756
▁ထည့်သွင်း	-9.63797
▁aid	-9.63797
ဂိမ်း	-9.63822
ခိုင်း	-9.63884
▁har	-9.63888
စီမံခန့်ခွဲမှု	-9.63888
အားလုံးသည်	-9.63917
▁11	-9.63923
▁famous	-9.63953
▁texas	-9.6404
her	-9.64083
▁alcohol	-9.64127
ပြောင်	-9.64134
▁estimate	-9.64162
ကောက်	-9.64184
ကဏ္ဍ	-9.64281
▁investment	-9.64374
ရတဲ့	-9.64379
▁resources	-9.64385
lie	-9.64461
▁college	-9.64476
▁အိန္ဒိယ	-9.64492
ဂီတ	-9.64523
▁wouldn	-9.64733
▁သုတေသန	-9.6478
ဏ	-9.64782
ခြား	-9.64806
▁month	-9.64903
▁ပြောကြားခဲ့သည်။	-9.64934
▁morning	-9.64965
ထူးခြား	-9.64997
ကျွန်	-9.65017
ကင်	-9.65101
▁၂၀၀	-9.65109
▁ရှိသည်။	-9.65135
▁နိုင်ငံခြား	-9.65151
▁child	-9.65222
▁cases	-9.65241
▁ခေတ်မီ	-9.65246
▁author	-9.65271
▁အဆောက်အဦ	-9.65278
▁felt	-9.65313
နိုင်ပါ။	-9.65425
▁ထို့အပြင်	-9.65442
▁အခြားသော	-9.65462
ဗီ	-9.65487
ျ	-9.65525
အုပ်	-9.65581
ator	-9.65631
▁Bar	-9.65641
bel	-9.65646
▁ကိုယ်စားပြု	-9.65953
ခိုး	-9.65992
ကူ	-9.66007
▁cor	-9.66026
ထင်တယ်	-9.66053
▁key	-9.66068
နယ်ပယ်	-9.66112
art	-9.66176
ပစ္စည်းများ	-9.66225
စင်တာ	-9.66235
မို့	-9.66282
▁အများသူငှာ	-9.66285
ek	-9.66303
ခြောက်	-9.66343
▁မလုပ်	-9.66423
erry	-9.66445
▁မင်းသိတဲ့	-9.66533
▁delivery	-9.66537
ထုတ်ဝေ	-9.66549
die	-9.66596
▁ထပ်	-9.66668
နို	-9.66718
ပြီ။	-9.66818
▁သီးခြား	-9.66821
▁To	-9.6685
▁စီမံခန့်ခွဲမှု	-9.66886
▁အဆောက်အအုံ	-9.66896
▁တူညီသော	-9.66905
ပုဂ္ဂလိက	-9.66955
မုန်း	-9.67002
▁ပေးပို့	-9.67028
▁ထင်ရှား	-9.67097
▁expect	-9.67111
ထောင့်	-9.67335
လှုပ်ရှား	-9.67345
▁100	-9.67369
▁ဦးတည်	-9.67375
ကျွန်း	-9.67475
▁တွေ့ရှိ	-9.67486
ခဲ	-9.67538
▁သူတို့သည်	-9.6755
တစ်ခုအဖြစ်	-9.67563
လိပ်	-9.67569
▁ကိုယ်	-9.67609
အထောက်အထား	-9.67629
ပဲ၊	-9.67683
▁ရောမ	-9.67693
တစ်လုံး	-9.67762
▁share	-9.67805
▁အာရုံစိုက်	-9.67828
ရှုပ်ထွေး	-9.67857
▁ဘဏ္ဍာရေး	-9.67891
▁wrong	-9.679
▁entire	-9.679
ခြင်းမှ	-9.68001
▁လိုက်နာ	-9.68046
part	-9.68084
▁turned	-9.68086
▁subject	-9.68088
▁perform	-9.68118
▁involved	-9.68145
▁Li	-9.68189
ရေးသား	-9.68499
rank	-9.685
ကြောက်	-9.68515
ov	-9.68597
▁count	-9.68698
ide	-9.68723
ped	-9.68736
uck	-9.68804
တည်	-9.6895
ank	-9.69075
ကြီးမား	-9.6908
duc	-9.69113
ညွှန	-9.69129
ရန်နှင့်	-9.69264
▁self	-9.69271
▁wife	-9.69279
အရွယ်	-9.69284
▁par	-9.69288
▁ရဲ	-9.69388
▁america	-9.69423
ခဲ့သော်လည်း	-9.69427
▁began	-9.69447
▁haven	-9.69475
▁သံ	-9.69475
▁pri	-9.6948
သေချာ	-9.69521
zo	-9.69527
သူများအတွက်	-9.69527
▁အရည်အသွေး	-9.69554
ဥ	-9.69634
တာကြောင့်	-9.69668
▁seem	-9.69689
▁eyes	-9.697
▁ယဉ်ကျေးမှု	-9.69711
▁sir	-9.69733
▁palace	-9.69734
ပြတ်	-9.69759
▁သင်သိ	-9.69766
▁party	-9.69769
▁ကလေးတွေ	-9.69936
▁soon	-9.69947
▁activities	-9.69957
▁situation	-9.70003
▁စုစုပေါင်း	-9.70281
အပ်	-9.70321
▁reports	-9.70325
▁အကောင်အထည်ဖော်	-9.70331
▁restaurant	-9.7042
▁ဘတ်ဂျက်	-9.70434
▁ကာကွယ်	-9.70447
ငါ	-9.7046
ခရီးစဉ်	-9.70461
▁rules	-9.70462
▁attack	-9.70467
▁agree	-9.70523
hen	-9.70534
ဖြစ်ပွား	-9.70553
ကျင့်	-9.7056
ချစ်	-9.70585
▁meet	-9.70591
▁horse	-9.70611
for	-9.7065
▁ခြောက်	-9.70684
▁dead	-9.70842
▁နွေရာသီ	-9.7085
▁တန်ဖိုး	-9.70857
mar	-9.70864
မိန်းမ	-9.70865
▁tv	-9.70905
▁improve	-9.71028
▁Time	-9.7103
▁proposed	-9.7104
can	-9.71065
ခံစား	-9.71074
▁မူလ	-9.71149
qua	-9.71178
pla	-9.71186
တွန်း	-9.7121
▁rec	-9.71215
▁hot	-9.71249
စလုံး	-9.71263
▁taking	-9.71286
hu	-9.71361
ခဲ့ပါသည်။	-9.71387
တော့ဘူး။	-9.71392
ization	-9.71403
▁ပို၍	-9.71419
▁col	-9.71468
▁especially	-9.71492
▁longer	-9.71525
par	-9.71537
လွတ်လပ်	-9.71575
▁ကောင်းပြီ	-9.71591
▁eat	-9.71595
▁ဆိုသည်။	-9.71701
▁ထိန်းချုပ်	-9.71723
of	-9.71767
cul	-9.7179
pan	-9.71856
▁ဒေတာ	-9.71893
နှင့်ပတ်သက်၍	-9.71917
အထက်	-9.7199
▁goes	-9.71996
ဖျက်	-9.7208
ဘူးဆိုတာ	-9.7213
▁ထုတ်ကုန်	-9.72158
နိုင်တဲ့	-9.72197
အကျိုး	-9.72221
ရမည့်	-9.72239
▁further	-9.72246
အမည်	-9.72249
▁ပြောပြ	-9.72287
ကောင်းတဲ့	-9.7233
▁အန္တရာယ်	-9.72353
▁disc	-9.72358
▁ကမ်းခြေ	-9.72385
▁charge	-9.72401
90	-9.72458
▁station	-9.7247
▁likely	-9.72484
စိုက်	-9.72529
▁difference	-9.72533
မရှိဘူး	-9.7256
▁ထုတ်ပြန်	-9.72704
gan	-9.72734
ဘုရားကျောင်း	-9.72748
လုပ်ငန်းစဉ်	-9.7281
▁standard	-9.72859
မဟုတ်သော	-9.72889
▁evidence	-9.72957
▁themselves	-9.73004
ရာထူး	-9.73041
▁ဓား	-9.73086
▁source	-9.73148
▁ပြင်ဆင်	-9.73156
အနောက်ဘက်	-9.73223
အသေးစိတ်	-9.73342
ming	-9.73342
ရှင်းလင်း	-9.7335
ဘူး၊	-9.73488
▁သူမကို	-9.73491
▁produce	-9.73504
▁minutes	-9.73526
▁အစားထိုး	-9.7353
▁comments	-9.73545
▁cru	-9.73566
▁central	-9.73626
တံ	-9.73663
▁Car	-9.73667
hal	-9.73706
ရှိုး	-9.73711
▁Da	-9.73734
▁sense	-9.73763
ခြင်းကြောင့်	-9.73873
ရည်ရွယ်	-9.73885
လွှဲ	-9.73913
လယ်	-9.73957
▁adrin	-9.7401
▁move	-9.74015
▁ရလဒ်	-9.74039
▁middle	-9.74106
fin	-9.74118
▁Ho	-9.74133
▁depend	-9.74154
▁list	-9.74158
မှား	-9.74166
▁ပတ်သက်၍	-9.74178
▁instead	-9.74202
▁တိုက်ရိုက်	-9.74301
ric	-9.74313
▁education	-9.74404
▁ရင်းနှီး	-9.74412
▁parents	-9.74444
▁Se	-9.74529
▁shi	-9.74556
▁campaign	-9.74636
လှပ	-9.74676
▁check	-9.74702
▁provided	-9.7474
မဖြစ်နိုင်	-9.7474
ica	-9.74749
▁bank	-9.74771
▁Di	-9.74832
▁industry	-9.74879
▁green	-9.74907
နိုင်ငံ၏	-9.74933
organ	-9.75049
▁Adrin	-9.75073
ties	-9.75082
အတိုင်းအတာ	-9.75124
▁republican	-9.75137
သူများ၏	-9.75162
မရှိပေ။	-9.75191
ria	-9.75273
ခုန်	-9.75299
▁store	-9.75325
ants	-9.75349
▁coming	-9.75405
▁သိသိသာသာ	-9.75414
▁common	-9.75419
▁tu	-9.7544
▁beach	-9.75454
သဘော	-9.75473
doro	-9.75516
▁cause	-9.75535
▁အစ	-9.75556
▁ကျောက်	-9.75572
elect	-9.75591
အုပ်စု	-9.75619
▁exp	-9.75621
80	-9.75649
ရယူ	-9.75649
▁living	-9.75658
rian	-9.75729
▁mother	-9.7585
မေးခွန်း	-9.75854
▁request	-9.75855
▁drink	-9.75862
ောင့်	-9.75915
▁ဖြစ်နိုင်	-9.75932
▁france	-9.75959
မသိဘူး။	-9.75978
မြင့်မား	-9.75995
ဆက်ဆံ	-9.75998
70	-9.75998
▁leader	-9.76059
တကယ်	-9.76065
▁continue	-9.76083
တာလဲ။	-9.76115
▁huge	-9.76185
လမ်းညွှန်	-9.76189
▁ကူညီ	-9.76195
▁လျှို့ဝှက်	-9.76197
gen	-9.76224
▁position	-9.76255
▁contract	-9.76345
▁lower	-9.76433
▁draw	-9.76451
▁letter	-9.76469
▁def	-9.76474
▁လမ်းကြောင်း	-9.76476
pl	-9.76554
▁sold	-9.76569
istic	-9.7658
လာပြီး	-9.7658
သန်း	-9.76626
▁attorney	-9.7664
berg	-9.7672
nce	-9.76883
ထိရောက်	-9.76892
▁follow	-9.76906
▁ငါတို့မှာ	-9.76942
▁moment	-9.76989
▁ဥရောပ	-9.77021
▁annual	-9.77039
▁ကစား	-9.77098
▁အချို့	-9.7711
ပြိုင်ပွဲ	-9.77111
စ္စ	-9.77121
▁အို	-9.77125
မဟုတ်ဘူး	-9.77164
gent	-9.77173
▁range	-9.77173
ern	-9.7719
▁pal	-9.77199
▁visitors	-9.77217
▁protect	-9.77248
▁ဝယ်ယူ	-9.77261
ခွန်	-9.77391
▁manager	-9.77436
▁books	-9.77474
ပြတိုက်	-9.77485
▁received	-9.77494
ယုံ	-9.77518
▁reporting	-9.77564
▁saint	-9.77598
ရွက်	-9.77609
တစ်ခုသည်	-9.77623
▁လှုပ်ရှားမှု	-9.77626
▁bush	-9.77629
▁clo	-9.77782
▁လည်ပတ်	-9.77799
▁spend	-9.77803
ဖန်တီး	-9.77831
▁culture	-9.77832
ဖြစ်ရပ်	-9.77846
ory	-9.77877
▁hall	-9.77886
့်	-9.77899
▁ကော်မရှင်	-9.77917
များအပေါ်	-9.77918
▁foreign	-9.77983
house	-9.78001
ခင်ပွန်း	-9.78032
▁labor	-9.78033
ချို	-9.78051
▁Go	-9.7807
▁above	-9.78085
▁ပတ်သက်	-9.78121
▁comes	-9.78142
နန်းတော်	-9.78183
ably	-9.78218
▁သဘောကျ	-9.78336
▁chance	-9.78355
▁crime	-9.78384
▁front	-9.78405
▁ဘုရင်	-9.7842
ကျောက်	-9.78429
▁အီတလီ	-9.78434
ify	-9.78489
▁ခက်ခဲ	-9.78531
▁grow	-9.78532
ဘဏ္ဍာရေး	-9.78539
▁condition	-9.78585
ပြုပြင်ပြောင်းလဲ	-9.78628
သည့်အခါ	-9.78726
▁inside	-9.78772
▁ဖယ်ရှား	-9.78786
▁ရည်ရွယ်ချက်	-9.78794
▁square	-9.78837
▁အများအပြား	-9.78927
▁fair	-9.78929
လက္ခဏာ	-9.78937
▁grant	-9.78973
▁လုပ်ဆောင်ချက်	-9.79053
▁tried	-9.79089
▁ထို့နောက်	-9.79089
bert	-9.79155
▁detail	-9.79241
▁fra	-9.79288
▁worked	-9.79307
ကွာ	-9.79356
အဲဒီမှာ	-9.79373
▁အနုပညာ	-9.79422
▁ဆယ်	-9.79452
▁ပြန်လည်သုံးသပ်	-9.79557
▁base	-9.79572
▁film	-9.79617
ထည့်သွင်းစဉ်းစား	-9.7972
ado	-9.79738
ကယ်	-9.79752
များအတွင်း	-9.79776
▁anti	-9.79789
▁ဤနေရာ	-9.79793
▁intervention	-9.798
▁ကြော်ငြာ	-9.79803
▁develop	-9.79846
▁brought	-9.79851
▁military	-9.79851
▁recommend	-9.79902
▁critic	-9.79948
ငှား	-9.79953
▁reported	-9.79965
▁meeting	-9.79986
▁economy	-9.80004
▁လေ့လာမှု	-9.80034
မေ့	-9.80046
လျော့	-9.80053
ဖန်	-9.80108
▁recent	-9.80122
▁သိပ်	-9.80127
▁တစ်နှစ်	-9.80147
▁poirot	-9.80362
ook	-9.80421
▁လိုအပ်သော	-9.8044
▁မြင်ကွင်း	-9.80462
▁spoke	-9.80516
▁expected	-9.80542
vel	-9.80582
ရှိခဲ့သည်။	-9.80583
တွေဟာ	-9.80743
▁credit	-9.80877
ပမာဏ	-9.80891
▁saying	-9.80892
▁enter	-9.80986
မျက်နှာ	-9.81084
စံနှုန်းများ	-9.81121
▁operation	-9.81141
▁pat	-9.81228
▁ဝင်ရောက်	-9.81234
▁လုပ်ငန်းစဉ်	-9.81246
▁အနီး	-9.81279
▁နောက်ဆုံးတွင်	-9.81352
အမျိုးမျိုး	-9.81378
▁farm	-9.8139
လောင်	-9.81416
သွားပြီး	-9.81447
ရူး	-9.81496
put	-9.81548
▁လက်တွေ့	-9.81639
▁heart	-9.81726
▁Poirot	-9.81807
▁houses	-9.81853
▁explain	-9.81859
▁တည်ထောင်	-9.8191
ency	-9.81913
▁ခန့်	-9.81951
တစ်ခု၏	-9.8198
ခန့်မှန်းချက်	-9.81996
▁စိတ်ကူး	-9.82007
▁expensive	-9.82015
lies	-9.82062
▁twenty	-9.82068
ရိ	-9.82093
hor	-9.82099
▁trip	-9.82121
▁စစ်ပွဲ	-9.82125
▁hear	-9.82178
▁50	-9.82412
ရှိတယ်၊	-9.82449
ino	-9.82461
▁success	-9.82465
သမီး	-9.8247
မန်နေဂျာ	-9.82485
▁တကယ်ကို	-9.82486
တွေအတွက်	-9.82526
pres	-9.82545
▁2001	-9.82576
spite	-9.82602
ခရိုင်	-9.82652
ခဲ့ပေ။	-9.82653
ပေးပါသည်။	-9.82715
ification	-9.82832
▁fan	-9.82863
▁နှိုင်းယှဉ်	-9.82905
ကိုလည်း	-9.82947
▁lawyers	-9.82972
အစ	-9.83065
rant	-9.83142
▁role	-9.83213
▁mis	-9.8323
clu	-9.83259
▁60	-9.83283
▁ဆန္ဒ	-9.83301
▁cl	-9.83322
▁page	-9.83355
အမှုဆောင်	-9.83363
ib	-9.83377
▁ခေတ်	-9.83444
ari	-9.83509
▁9	-9.83509
မန်	-9.83582
▁field	-9.83591
▁မလို	-9.83615
▁district	-9.83697
▁route	-9.83722
နိုင်ပြီး	-9.83727
င်္	-9.83744
ကြောင်	-9.83747
▁အားကစား	-9.83759
ခေါင်း	-9.83795
ပါရှိသည်။	-9.83819
▁စကား	-9.83819
ဖွဲ့စည်းပုံ	-9.83889
အကျိုးခံစားခွင့်	-9.83909
နံရံ	-9.83912
-2	-9.83913
▁peace	-9.83926
မူဝါဒ	-9.83937
ဆိုးရွား	-9.83939
see	-9.84054
▁stone	-9.84074
▁Ka	-9.84136
ပုံရသည်။	-9.84141
▁paint	-9.84174
▁weather	-9.84228
▁avoid	-9.84282
▁ယောက်ျား	-9.84326
စေ့	-9.84339
▁တိုက်ပွဲ	-9.84343
▁questions	-9.84354
▁funding	-9.84398
▁exactly	-9.84441
▁မြစ်	-9.84504
▁အဓိပ္ပါယ်	-9.8458
ကွယ်	-9.84587
ဆိပ်ကမ်း	-9.84601
▁following	-9.84605
တွက်	-9.84713
vin	-9.84741
▁original	-9.84976
▁မဟုတ်ဘူး။	-9.84984
ဆိုင်း	-9.85042
ging	-9.85043
မည်မဟုတ်ပါ။	-9.85079
▁achieve	-9.85084
▁ancient	-9.85084
ကိုက်ညီ	-9.85085
▁feature	-9.85137
▁မစ္စတာ	-9.85138
▁valley	-9.85192
▁စားသောက်ဆိုင်	-9.85226
▁happened	-9.85362
zi	-9.85371
▁allowed	-9.85388
▁guide	-9.85437
▁ပျက်စီး	-9.85438
ပြောင်းလဲ	-9.85513
သလောက်	-9.85516
▁director	-9.85531
▁မေးခွန်း	-9.85646
▁break	-9.85678
▁japan	-9.85682
▁မက်	-9.85708
▁wide	-9.85726
▁တကယ့်	-9.8573
▁အတူတူ	-9.85731
▁မြောက်ဘက်	-9.85736
ခဲ့ဖူး	-9.85759
▁ငြင်းဆို	-9.85786
▁changed	-9.85789
▁fish	-9.85837
မေ	-9.85895
▁ထွက်သွား	-9.85968
▁လူသား	-9.86088
▁မင်းမှာ	-9.86155
စာမျက်နှာ	-9.86157
▁Con	-9.86181
စာတမ်း	-9.86213
▁equal	-9.86219
လံ	-9.86229
အို	-9.8623
▁1996	-9.86286
ရရှိရန်	-9.86372
နည်းနည်း	-9.86397
▁addition	-9.86466
▁third	-9.86491
ဖွဲ့စည်း	-9.8652
▁trust	-9.86525
▁completely	-9.86534
▁unit	-9.8655
▁serve	-9.86553
ဆရာဝန်	-9.86617
ခွင်	-9.86655
ရှိတဲ့	-9.86717
ရွေးချယ်မှု	-9.86898
▁international	-9.86927
▁sit	-9.86961
တက္ကသိုလ်	-9.86982
▁အတိအကျ	-9.87037
▁စျေး	-9.87058
နံပါတ်	-9.87091
မေးလ်	-9.87096
အနိုင်ရ	-9.87104
▁မဟုတ်ဘူး၊	-9.87105
သိတယ်	-9.87115
ခဲ့ကြောင်း	-9.87118
wo	-9.87136
ချော	-9.87138
အသုံးစရိတ်	-9.8715
ကျေနပ်	-9.87256
▁located	-9.87256
▁reform	-9.87275
off	-9.87293
▁အတွေ့အကြုံ	-9.87343
▁israel	-9.8737
သူသည်	-9.87385
▁စိုးရိမ်	-9.87431
▁express	-9.87432
▁hour	-9.87444
▁သူ့ကိုယ်သူ	-9.87476
နှစ်သက်	-9.87493
တာဝန်	-9.87514
အမေရိက	-9.87538
နယ်မြေ	-9.87551
ပန်	-9.87557
▁အကြံပြု	-9.87615
▁perhaps	-9.87641
ချေ	-9.87646
▁happy	-9.87751
▁မျက်နှာ	-9.87764
▁gone	-9.87764
ထိုက်	-9.87809
▁traditional	-9.87914
▁ကြိုးပမ်း	-9.87939
ပေးခဲ့သည်။	-9.87978
အခန်း	-9.88091
form	-9.88103
raft	-9.88103
▁ဥပဒေရေးရာ	-9.88194
မယ်ထင်တယ်။	-9.88194
ology	-9.88195
ထဲကို	-9.88247
နိုင်ငံသား	-9.88263
▁နာမည်	-9.88281
▁gate	-9.88321
rate	-9.88383
▁kept	-9.88416
▁ရွာ	-9.8843
များသို့	-9.88431
ခရစ်ယာန်	-9.88471
အာရုံ	-9.88515
ဆက်စပ်	-9.88539
မှုကြောင့်	-9.8857
▁chinese	-9.88582
▁ကွန်ဂရက်	-9.88592
▁ran	-9.88624
▁natural	-9.88638
▁para	-9.8865
ox	-9.88662
▁decided	-9.88696
▁အမှန်	-9.88701
▁thank	-9.88752
▁ဖောက်သည်	-9.88799
▁picture	-9.88805
▁တစ်ခါမှ	-9.88811
သိတယ်။	-9.88815
▁recently	-9.88859
▁mrs	-9.88891
▁ပတ်သက်ပြီး	-9.889
လုပ်ဖို့	-9.88925
ဝါဒ	-9.88933
▁attention	-9.89028
▁Na	-9.89044
တစ်ခုရှိ	-9.89078
များပေါ်တွင်	-9.89089
ဆွဲဆောင်မှု	-9.89103
▁kill	-9.89115
သူ၏	-9.89137
▁countries	-9.89207
▁judge	-9.89262
▁ပါတီ	-9.89264
W	-9.89306
မူတည်	-9.89325
▁itself	-9.89364
▁james	-9.89366
▁wear	-9.89371
▁exist	-9.89402
ရမှာ	-9.89416
▁perfect	-9.89421
ဘာလုပ်	-9.89465
▁scr	-9.89494
▁မှတ်ချက်	-9.89517
▁structure	-9.89532
တော်တော်များများ	-9.89546
▁Ri	-9.89547
ဒေါ်လာ	-9.89551
▁ကောင်းမွန်သော	-9.8956
▁sent	-9.89561
▁ထောင်	-9.8958
ထုတ်လွှတ်မှု	-9.89646
▁ဘယ်သူမှ	-9.89651
တစ်ကောင်	-9.89691
▁ရထား	-9.89757
▁၁၀	-9.89785
တိကျ	-9.89817
du	-9.89834
သီ	-9.89896
▁wonder	-9.89897
▁wish	-9.89904
▁arch	-9.89912
သင်္ချိုင်း	-9.89926
▁Ga	-9.89967
room	-9.9004
အစားအစာ	-9.90046
▁created	-9.9006
▁wind	-9.90063
▁aren	-9.90115
wan	-9.90147
▁ထုတ်လုပ်	-9.90157
▁friends	-9.90196
ရွေးကောက်ပွဲ	-9.90265
ဆက်ဆံရေး	-9.90268
မီး	-9.9029
အပါအဝင်	-9.90346
▁choice	-9.90379
▁german	-9.9044
tive	-9.90574
▁resort	-9.90606
▁prefer	-9.90636
ခြင်း။	-9.90647
၀တ်	-9.90679
▁Vi	-9.90681
ခြင်းဖြစ်သည်။	-9.90689
▁စီစဉ်	-9.90719
လာခဲ့သည်။	-9.90719
▁higher	-9.9075
▁lived	-9.90759
ကော်မတီ	-9.90776
နာမည်	-9.90821
▁julius	-9.9089
သလိုပဲ	-9.90891
၀၀၀	-9.90954
▁benefit	-9.90962
ita	-9.90965
▁represent	-9.90975
ရပ်ကွက်	-9.90984
bit	-9.90994
▁အရည်အချင်း	-9.91044
ရှုပ်	-9.9105
ရန်ပုံငွေ	-9.91052
▁စျေးကွက်	-9.91072
▁display	-9.91175
▁rates	-9.91198
တစ်ဝှမ်း	-9.91232
ker	-9.91234
▁indian	-9.91265
▁တီထွင်	-9.91292
ဖူးဘူး။	-9.9131
ole	-9.91445
▁prior	-9.91509
▁မတူညီသော	-9.91516
ထုံး	-9.91518
12	-9.91538
▁police	-9.91577
▁train	-9.91584
▁style	-9.91612
အက်ဥပဒေ	-9.91618
22	-9.91652
▁died	-9.91699
▁boat	-9.91771
bra	-9.91829
▁necessary	-9.91862
▁words	-9.91871
▁ဒါကို	-9.91877
poli	-9.91897
▁ဆန့်ကျင်ဘက်	-9.91904
▁အများကြီးရှိ	-9.91934
ရမည်ဖြစ်သည်။	-9.91944
itz	-9.91982
▁clean	-9.91984
မည်ကို	-9.91993
▁painting	-9.92005
app	-9.92005
▁knowledge	-9.92035
စခန်း	-9.9206
▁paid	-9.92066
▁EPA	-9.92092
စမ်းသပ်မှု	-9.92093
သော်လည်း၊	-9.92108
▁လှပသော	-9.92227
lock	-9.92265
မရှိဘဲ	-9.92285
▁ဦးဆောင်	-9.92285
ette	-9.92326
fo	-9.92361
▁mark	-9.92403
▁reach	-9.9243
▁plans	-9.92501
သလား	-9.92528
သမိုင်း	-9.92555
များအဖြစ်	-9.92615
ထုတ်လုပ်	-9.92658
▁serious	-9.92679
▁designed	-9.92684
ပွ	-9.92732
အီဂျစ်	-9.92786
▁ရာသီဥတု	-9.92804
အင်ဂျင်	-9.92902
▁royal	-9.92962
▁voice	-9.92962
မိသားစု	-9.92994
လန်	-9.93056
▁season	-9.9307
အပြောင်းအလဲ	-9.93071
လေ့လာမှု	-9.93075
▁သက်သေ	-9.93088
▁မူဝါဒ	-9.93118
▁nine	-9.93139
▁ငါ့ကို	-9.93164
▁moved	-9.93165
▁မိနစ်	-9.93194
ငွေပေးချေမှု	-9.93273
▁ဆောင်ရွက်	-9.93286
000	-9.93291
ဖော်ပြထား	-9.93295
▁အလားတူ	-9.9331
က်စ်	-9.93348
▁respect	-9.93366
▁nor	-9.9337
▁resident	-9.93426
ဖယ်	-9.93522
ခြင်းမပြု	-9.93527
▁ပြည်တွင်း	-9.93544
▁slow	-9.93636
▁rev	-9.93652
▁lack	-9.93727
လျှော့	-9.93777
▁trouble	-9.93777
အောင်မြင်မှု	-9.93866
▁ကောက်	-9.93888
▁rep	-9.93907
နံ	-9.93914
▁buildings	-9.9393
▁ပမာဏ	-9.93995
သဖြင့်	-9.94002
▁သမိုင်း	-9.94005
▁leg	-9.94013
ရှေ့နေ	-9.94071
▁firm	-9.94072
▁tower	-9.94112
▁သူ့ရဲ့	-9.94172
တစ်ခုက	-9.94174
▁former	-9.94182
မဟုတ်ပေ။	-9.94191
▁tend	-9.94285
▁ဝင်ငွေ	-9.94299
▁သက်သေပြ	-9.94343
▁လူမှုဖူလုံရေး	-9.94365
▁additional	-9.94397
▁committee	-9.94483
▁join	-9.94493
▁ဥပမာအားဖြင့်	-9.94543
ရှိသော်လည်း	-9.94558
▁english	-9.94601
▁epa	-9.94635
ပါရှိသော	-9.9467
▁ရှင်းပြ	-9.94719
▁dog	-9.94757
ဘာသာစကား	-9.94782
▁listen	-9.94826
▁purpose	-9.94838
ကောင်းတယ်။	-9.94846
ပါပြီ။	-9.94862
ကျသော	-9.94868
▁အပါအဝင်	-9.94871
ဝန်ထမ်းများ	-9.94903
▁ကမ္ဘာ့	-9.95019
ပိုင်ခွင့်	-9.95069
▁university	-9.95075
▁foot	-9.95166
ဆန်း	-9.95234
▁specific	-9.95264
my	-9.95274
▁(2	-9.95309
▁washington	-9.95313
▁အဆုံး	-9.95323
▁ပရောဂျက်	-9.95372
ခွဲခြား	-9.95385
▁သင့်အား	-9.95468
well	-9.95492
▁ဖော်ထုတ်	-9.95495
ဖြစ်သောကြောင့်	-9.95511
ကြမ်း	-9.95516
ဟူသော	-9.95538
ွန်ဂရက်လွှတ်တော်	-9.95543
▁rich	-9.95704
▁ရပ်တန့်	-9.9573
▁related	-9.95744
▁challenge	-9.9579
▁လုံလောက်	-9.95793
ose	-9.95807
▁trees	-9.95823
မော်ဒယ်	-9.9591
▁groups	-9.95926
▁china	-9.95959
▁funds	-9.95977
လေ့ရှိ	-9.95977
▁စမ်းသပ်	-9.95984
မဟုတ်ဘဲ	-9.95999
▁complex	-9.96089
▁gun	-9.96144
▁အကျိုးသက်ရောက်	-9.96169
ဝန်	-9.96259
▁taxes	-9.96273
▁ben	-9.96301
▁အရေးပေါ်	-9.96331
uff	-9.96347
များအကြောင်း	-9.96443
▁အရေးပါ	-9.96454
အကောင်းဆုံး	-9.9655
နိုင်သော်လည်း	-9.96556
ဆင့်	-9.96581
ville	-9.96582
▁ကြောက်စရာကောင်း	-9.9663
▁ကီလိုမီတာ	-9.96631
▁အရမ်းကောင်း	-9.96636
▁လွှမ်းမိုး	-9.96642
ပြောတာ	-9.96671
az	-9.96723
right	-9.96728
▁word	-9.96745
15	-9.96845
ဂါ	-9.96849
▁spending	-9.96872
သည့်အရာ	-9.96993
▁seemed	-9.97016
များကြားတွင်	-9.97069
▁body	-9.97082
မလား	-9.97191
▁father	-9.97263
▁battle	-9.97296
ဆုံးဖြတ်	-9.97345
▁function	-9.97374
▁ထိုနေရာ	-9.97475
▁ရာဇ၀တ်မှု	-9.97494
▁included	-9.97499
▁spent	-9.97504
လေ့လာ	-9.97512
▁ရောင်းချ	-9.97574
▁ကျောက်တုံး	-9.97667
ရွေ့	-9.97672
ပြင်ဆင်	-9.97686
▁25	-9.97702
▁ဥယျာဉ်	-9.97715
▁response	-9.97722
အရေးကြီး	-9.97774
ပျောက်	-9.97797
▁ကျောင်းသား	-9.978
အများဆုံး	-9.97867
ပါမည်။	-9.97876
ရမည်	-9.97936
▁sim	-9.97947
▁အစ္စရေး	-9.97966
yn	-9.97997
ထောက်ပံ့	-9.98007
▁whatever	-9.98028
▁limit	-9.98044
ရုပ်တု	-9.9805
▁လိုအပ်သည်။	-9.98072
▁သေနတ်	-9.98086
▁ဟိုတယ်	-9.981
▁gain	-9.98113
ef	-9.98149
ky	-9.98169
သက်တမ်း	-9.98231
တွေ့ဆုံ	-9.98232
▁ခွင့်ပြု	-9.98303
▁deep	-9.98316
▁လုံခြုံရေး	-9.98335
▁successful	-9.98357
▁တိုးတက်	-9.98364
▁window	-9.98409
ဘုရင်	-9.98411
အတန်း	-9.98444
ပြုံး	-9.98518
အုတ်	-9.98523
သီချင်း	-9.98524
ထားပါသည်။	-9.98555
itch	-9.98592
▁stock	-9.98641
ေ့	-9.98657
င့်	-9.98658
▁ပျော်ရွှင်	-9.9866
▁fast	-9.98703
▁comment	-9.98727
ium	-9.98737
burg	-9.98758
ကျေးဇူး	-9.98761
▁western	-9.98778
▁practices	-9.98788
mini	-9.98811
▁rid	-9.98827
eo	-9.98838
▁လူဦးရေ	-9.98887
▁ထိပ်တန်း	-9.98888
▁ဘယ်လောက်	-9.98923
▁chi	-9.98948
▁conduct	-9.98951
မှူး	-9.98961
▁တင်ပြ	-9.9902
များစွာရှိသည်။	-9.99061
▁Ru	-9.9908
▁အကြောင်းအရာ	-9.99108
▁Pro	-9.99113
▁သက်ရောက်မှု	-9.99191
▁training	-9.99194
▁paris	-9.99214
ကြားတွင်	-9.99248
▁article	-9.9932
▁ရှစ်	-9.99343
ရိပ်	-9.99413
▁reduction	-9.99567
ရမယ်	-9.99571
▁မူးယစ်ဆေးဝါး	-9.9963
နားလည်	-9.99659
▁Drew	-9.99692
▁ချမှတ်	-9.9972
းးးးးးးးးးးးးးးး	-9.99722
လု	-9.99749
▁refer	-9.99796
မယ်ဆိုတာ	-9.99826
▁finally	-9.99837
▁rain	-9.9984
▁စီမံခန့်ခွဲ	-9.99897
▁press	-9.99916
▁သိမ်းပိုက်	-9.99941
လှူ	-9.99959
▁comm	-9.9996
ဇယား	-9.99981
▁growth	-10.0005
အိုင်	-10.0006
▁statue	-10.0007
အစီရင်ခံစာ	-10.0007
လျင်	-10.0012
ဖျော်ဖြေ	-10.0017
▁fell	-10.0017
▁influence	-10.0019
လုံ	-10.0022
▁flo	-10.0023
ဇာတ်ကား	-10.0025
▁ကောင်းကင်	-10.0026
ark	-10.0026
▁ထိန်းသိမ်းထား	-10.0026
စေခဲ့သည်။	-10.0029
▁ခွေး	-10.0031
▁attempt	-10.0032
▁efforts	-10.0032
မျှသာ	-10.0032
▁floor	-10.0034
▁ယခင်က	-10.0035
▁sat	-10.0041
ရွေးချယ်	-10.0042
▁ရေကန်	-10.0044
▁date	-10.0046
▁volume	-10.0063
ဟန်	-10.0065
သွားပြီ	-10.0066
▁official	-10.0066
▁40	-10.0075
စိတ်အားထက်သန်	-10.0075
▁တစ်စုံတစ်ယောက်	-10.0075
▁critical	-10.0076
စေပါသည်။	-10.0076
▁bay	-10.0084
▁အင်္ဂလိပ်	-10.0094
စစ်တပ်	-10.0099
▁သဘောတူ	-10.0102
ပေါင်	-10.0103
▁ယခင်	-10.0104
▁စာတိုက်	-10.0104
▁ဂရုမစိုက်	-10.0105
ဆွ	-10.0108
တောင်းဆို	-10.0112
ဂုဏ်	-10.0113
ညှိနှိုင်း	-10.0119
ဇာတ်လမ်း	-10.0125
▁internet	-10.0126
▁throughout	-10.0131
▁clients	-10.0132
▁net	-10.0134
ပါတယ်၊	-10.0134
ada	-10.0138
အရင်းအနှီး	-10.0138
▁သေးငယ်သော	-10.0143
▁cold	-10.0156
▁sky	-10.0159
▁ခုနစ်	-10.016
10	-10.0164
▁officials	-10.0167
အစီအစဥ်	-10.017
▁anyway	-10.0184
▁assistance	-10.0184
▁1999	-10.0185
▁doctor	-10.0186
izing	-10.0186
အခကြေးငွေ	-10.0189
မြင်ဖူး	-10.0191
yo	-10.0198
ခြင်းမရှိ	-10.0201
သယ်	-10.0202
▁shops	-10.0203
ဓ	-10.0206
▁animal	-10.0208
ရယ်	-10.021
အေ	-10.0214
▁appropriate	-10.0215
▁တိုးတက်မှု	-10.0216
▁လက်နက်	-10.0221
▁scar	-10.0227
ရသေး	-10.0228
▁တစ်ချိန်က	-10.0229
▁household	-10.0229
အနည်းငယ်သာ	-10.0232
▁Ne	-10.0232
▁လူနာ	-10.0233
▁mine	-10.0233
pur	-10.0235
ille	-10.0238
▁supposed	-10.0239
▁စာချုပ်	-10.0243
အဖွဲ့အစည်းများ	-10.0245
▁direct	-10.0245
တောက်ပ	-10.0252
▁christian	-10.0262
ကွန်ပြူတာ	-10.0266
▁ကြိုတင်	-10.0266
▁implement	-10.0267
ese	-10.0267
▁except	-10.0267
▁link	-10.0271
▁တွန်းအားပေး	-10.0272
ကုန်း	-10.0275
တစ်ခုတည်း	-10.0276
▁regulation	-10.0279
▁ဒေသခံ	-10.0279
▁ဆွဲဆောင်	-10.0282
▁increased	-10.0286
▁သူ့မှာ	-10.0292
ပေးဆောင်	-10.0298
တိရစ္ဆာန်	-10.0298
▁Man	-10.0304
car	-10.0306
▁တပ်ဆင်	-10.0311
wide	-10.0312
အခန်းကဏ္ဍ	-10.0314
ဖြစ်သော်လည်း	-10.0314
နိမ့်	-10.0323
အရာရှိ	-10.0324
▁practice	-10.0334
ဖီ	-10.0336
▁killed	-10.0339
▁အက်	-10.0342
▁whi	-10.0343
နှင်း	-10.0349
ပတ်သက်	-10.0352
▁sand	-10.0361
▁cook	-10.0364
ပြင်းထန်	-10.0367
တစ်ဦးသည်	-10.0369
နိုင်မည်ဖြစ်သည်။	-10.037
လေးစား	-10.0373
နှံ	-10.0378
ကမ်းလှမ်း	-10.0382
ခံခဲ့ရ	-10.0383
ခဲ့ပါဘူး။	-10.0389
▁spot	-10.0389
သဘောတူညီချက်	-10.0393
အပန်းဖြေစခန်း	-10.0395
▁revenue	-10.0395
▁beyond	-10.0395
▁ပြုပြင်	-10.0396
၀၀	-10.0397
og	-10.0398
▁တိုင်းတာ	-10.0399
ပါဘူး	-10.0404
ထဲမှ	-10.0408
▁treat	-10.0413
▁fill	-10.0413
ဆုတ်	-10.0414
lica	-10.0418
▁mary	-10.0418
▁artist	-10.0422
mark	-10.0426
ဒေါ	-10.0432
▁auditors	-10.0437
ဗာ	-10.0439
တုံး	-10.044
ကြပါတယ်။	-10.044
▁Julius	-10.044
▁space	-10.044
unk	-10.0441
မြင်ရ	-10.0449
▁ဂရိ	-10.0451
V	-10.0452
▁correct	-10.0454
အခွန်	-10.0456
▁သတင်းစာ	-10.0466
▁various	-10.0466
▁မတူ	-10.0467
▁II	-10.0468
စစ်ဆေး	-10.0476
▁cross	-10.0486
တဲ့အရာ	-10.0492
▁လိုက်လျောညီထွေ	-10.0492
▁ကောလိပ်	-10.0493
low	-10.0494
▁prices	-10.05
ကျွမ်းကျင်	-10.0502
▁hospital	-10.0506
▁လေယာဉ်	-10.0508
တစ်ခါ	-10.051
night	-10.0511
▁society	-10.0519
back	-10.0522
point	-10.0527
ဇနီး	-10.0527
လေးတွေ	-10.0535
ကြို	-10.0543
▁inglethorp	-10.0545
လတ်	-10.0545
▁material	-10.0552
ini	-10.0563
▁exhibit	-10.0565
▁invest	-10.0568
ပါသည်	-10.0569
▁establish	-10.057
▁Street	-10.0571
▁ကျော်ကြား	-10.0577
▁မတွေ့	-10.0577
▁none	-10.0581
ဂျာ	-10.0589
အမိန့်	-10.0589
ကစားသမား	-10.0594
▁အကြောင်းရင်း	-10.0597
ညစ်ညမ်း	-10.0598
ဂေါ	-10.0604
▁maintain	-10.0604
over	-10.0616
ack	-10.0618
သူများနှင့်	-10.0624
▁တီဗီ	-10.0624
▁ven	-10.0627
▁size	-10.0628
▁ရှုခင်း	-10.0644
▁စောင့်ကြည့်	-10.0647
▁ball	-10.065
lip	-10.0653
▁safe	-10.0656
▁crowd	-10.0658
▁တားမြစ်	-10.0664
tel	-10.0664
war	-10.0666
atory	-10.0669
75	-10.067
▁equipment	-10.0671
▁cheap	-10.0674
▁construction	-10.0678
▁pet	-10.0679
▁ရှေးဟောင်း	-10.068
ပိုမိုကောင်းမွန်	-10.0682
▁တစ်ပတ်	-10.0688
▁bri	-10.0694
▁ဧည့်သည်	-10.0695
ပေးတယ်။	-10.0698
ဟုတ်	-10.0702
လိုက်ပြီး	-10.0712
▁Saint	-10.0719
ငှက်	-10.0724
လျစ်လျူရှု	-10.0731
ient	-10.0737
အစည်းအဝေး	-10.074
▁older	-10.074
အဲဒါ	-10.0742
▁fund	-10.0742
born	-10.0745
▁ကျဆင်း	-10.0746
ယူနစ်	-10.075
ီးယား	-10.0763
▁emergency	-10.0765
စစ်ပွဲ	-10.0767
မိနစ်	-10.0767
▁previous	-10.0771
မိန်းကလေး	-10.0779
▁begin	-10.0784
bar	-10.0788
ရိုင်း	-10.0794
ဆောက်	-10.0797
အသွင်	-10.0798
mber	-10.0805
ကွာခြား	-10.0806
▁ရိုးရာ	-10.0807
ဝင်ရောက်	-10.0807
▁professional	-10.0808
စီမံကိန်း	-10.0812
အချက်အလက်	-10.0816
▁determine	-10.082
▁blue	-10.0821
ford	-10.0824
▁1998	-10.0828
နိုင်သည်ဟု	-10.0835
▁For	-10.0838
like	-10.0838
ပြတင်းပေါက်	-10.0846
▁nobody	-10.0846
▁လွန်ခဲ့သော	-10.0846
အလုပ်လုပ်	-10.0851
▁reflect	-10.0853
ခ်	-10.0856
ကိရိယာ	-10.0858
▁remains	-10.0862
▁senior	-10.0866
▁emissions	-10.0866
▁published	-10.0873
▁dark	-10.0875
▁alternative	-10.088
မော	-10.0882
▁မင်းသိလား	-10.0891
east	-10.0892
၏။	-10.0896
▁သီးသန့်	-10.09
▁အကယ်၍	-10.09
▁threat	-10.09
ကွေး	-10.0901
ဝန်ကြီး	-10.0901
အလားအလာ	-10.0907
ကြိုက်တယ်	-10.0907
▁စာတိုက်ဝန်ဆောင်	-10.0907
မှုများနှင့်	-10.091
▁election	-10.0916
▁Pi	-10.0918
▁hate	-10.0922
မနေ	-10.0932
▁blood	-10.0934
ကြပ်	-10.0937
ပစ္စည်းများကို	-10.0939
ဗျာ	-10.0941
▁ပေါင်းစည်း	-10.0942
jo	-10.0944
▁running	-10.0945
သွားတာ	-10.0949
စံနှုန်း	-10.0951
အလယ်	-10.0961
gon	-10.0964
▁below	-10.0973
▁broke	-10.0976
▁collect	-10.098
ခြမ်း	-10.0982
လောက်အောင်	-10.0983
▁bal	-10.0986
year	-10.0987
ရံ	-10.0988
ဗျူဟာ	-10.0989
▁prove	-10.0991
▁master	-10.0992
ပွား	-10.0992
နိုင်စွမ်း	-10.0994
မှုဖြင့်	-10.0995
တမ်း	-10.0999
▁receive	-10.1002
▁earn	-10.1002
ခဲ့ရသည်။	-10.1007
▁km	-10.101
▁dallas	-10.101
▁quickly	-10.1014
▁1990	-10.1023
ez	-10.1024
▁ensure	-10.1025
▁တည်ရှိသည်။	-10.1026
နေသေး	-10.103
▁upon	-10.1031
ဥယျာဉ်	-10.1032
▁write	-10.1032
▁myself	-10.1038
ဖွယ်ကောင်းသော	-10.1038
ပြန်လည်	-10.1038
▁တရားသူကြီး	-10.1045
▁affect	-10.1046
အန္တရာယ်	-10.1047
ရှား	-10.1047
ဂဏန်း	-10.1051
▁ရှေး	-10.1053
▁ယနေ့ခေတ်	-10.1053
လိုက်ပါ။	-10.1056
▁ရုရှား	-10.1058
လမ်းညွှန်ချက်	-10.106
▁TI	-10.1061
တူး	-10.1061
စိတ်ဝင်စား	-10.1062
▁နိုင်ငံတကာ	-10.1065
▁average	-10.1072
ရာစု	-10.1078
တရားဝင်	-10.1078
▁ထိရောက်မှု	-10.1085
▁japanese	-10.1087
dge	-10.1089
▁tomb	-10.1091
ရီးယား	-10.1092
▁အပူ	-10.1093
▁character	-10.1099
▁written	-10.11
လွဲ	-10.1105
ဆိုတဲ့	-10.1108
▁environment	-10.1108
အာ	-10.111
▁spanish	-10.1114
▁separate	-10.1114
▁အခြားသူများ	-10.1116
▁favorite	-10.1122
▁ပြင်းထန်သော	-10.1123
▁slate	-10.1128
▁wild	-10.1129
▁setting	-10.1131
မြှုပ်နှံမှု	-10.1133
အဆုံးသတ်	-10.1134
▁particular	-10.1136
ရိတ်	-10.1139
▁တစ်ဦးချင်း	-10.1143
အချက်အလက်များ	-10.1147
▁ကိုင်တွယ်	-10.1152
hel	-10.1158
▁scene	-10.1164
▁မြင့်မားသော	-10.1165
▁မကြိုက်	-10.1167
▁brown	-10.1177
မှလွဲ၍	-10.1184
ထွက်ခွာ	-10.119
▁definitely	-10.1191
ပြောင်းလဲမှု	-10.1192
▁patients	-10.1192
aries	-10.1198
▁club	-10.1202
▁interested	-10.1207
▁shopping	-10.1212
အသိပညာ	-10.1213
တစ်ဝက်	-10.1213
▁victor	-10.1213
ique	-10.1214
ဝမ်း	-10.1219
▁administration	-10.1219
ပိုင်ရှင်	-10.1223
▁prevent	-10.1223
▁finish	-10.1226
▁wealth	-10.1227
▁ပြီးပြည့်စုံ	-10.1228
ဖြစ်သည်ဟု	-10.1228
win	-10.1233
stitute	-10.1233
▁everybody	-10.1233
▁developed	-10.1235
▁ကောင်းတယ်	-10.1236
လက်ရာ	-10.1243
▁auto	-10.1244
60	-10.1247
▁အဘယ်ကြောင့်	-10.1247
ဒို	-10.1253
စောင့်ရှောက်မှု	-10.1254
▁increasing	-10.1254
အများအပြား	-10.1259
▁fee	-10.1262
ရောက်လာ	-10.1262
▁largest	-10.1267
▁ထူးထူးခြားခြား	-10.1269
▁leading	-10.1269
▁အဖွဲ့ဝင်	-10.1272
ပွင့်	-10.1273
▁မဟုတ်ပါဘူး။	-10.1284
▁prison	-10.1287
စွမ်းရည်	-10.1292
▁အမြန်	-10.1295
▁21	-10.13
ဘတ်	-10.1303
▁potential	-10.1304
▁အကျိုးကျေးဇူး	-10.1304
▁entities	-10.1305
ကိုယ်စားလှယ်	-10.1305
▁pop	-10.1307
▁fix	-10.1309
ဝါး	-10.131
▁sec	-10.1311
▁media	-10.1315
▁goals	-10.1316
payment	-10.1321
▁option	-10.1326
ဘွဲ့	-10.134
စုဆောင်းမှု	-10.1344
▁pull	-10.1345
▁လွန်ခဲ့သည့်	-10.1347
▁လူသိများ	-10.1347
ရပါမည်။	-10.135
လက်ခံ	-10.1353
ကြွယ်ဝ	-10.1354
▁ဘာမှမ	-10.1356
▁deliver	-10.1357
ဆန္ဒ	-10.1357
အစီအစဉ်များ	-10.1358
ပါစေ	-10.1359
သန့်ရှင်း	-10.1359
သင်တန်း	-10.136
▁လွန်ခဲ့တဲ့	-10.1361
ဆောင်ရွက်မှု	-10.1365
▁carry	-10.1365
▁ဘာကြောင့်	-10.1367
lam	-10.1386
များကဲ့သို့	-10.1391
hold	-10.1395
စာရေးဆရာ	-10.1397
တစ်ခုဖြစ်ပြီး	-10.14
▁insurance	-10.1404
ကြာအောင်	-10.1405
ဂျီ	-10.1408
▁named	-10.1409
ကိုယ်ရေးကိုယ်တာ	-10.1418
မေးမြန်း	-10.1426
ခွဲဝေ	-10.143
▁nature	-10.1433
တစ်မျိုး	-10.144
ရေးမှူး	-10.1441
▁El	-10.1442
▁အစားအသောက်	-10.1447
▁opinion	-10.1454
▁internal	-10.1455
▁web	-10.1455
▁complete	-10.1456
▁winter	-10.1457
▁mid	-10.1457
▁accounting	-10.1461
ထူး	-10.1461
▁phone	-10.1462
▁alone	-10.1474
▁language	-10.1476
▁medical	-10.1476
▁quiet	-10.1477
ရုပ်ရှင်	-10.1478
▁covered	-10.1481
SA	-10.1483
▁george	-10.1483
နမူနာ	-10.1483
▁အပြင်ထွက်	-10.1484
rug	-10.1484
▁ဂျွန်	-10.149
စီမံ	-10.1491
▁ပညာရေး	-10.1492
▁မနက်	-10.1496
ကွဲပြား	-10.1496
ထားသော်လည်း	-10.1497
▁regulatory	-10.1498
▁ချက်ချင်း	-10.1499
ulation	-10.1511
pm	-10.1517
▁အဖြေ	-10.1523
အရွယ်အစား	-10.1528
သမ္မတ	-10.1531
ခွက်	-10.1534
▁ser	-10.1537
ဒါရိုက်တာ	-10.1539
အယူအဆ	-10.1541
▁စာပို့	-10.1543
▁simple	-10.1557
▁ဒေါသ	-10.1558
▁မပါဝင်	-10.1563
နေခဲ့သည်။	-10.1573
▁certainly	-10.1575
▁loan	-10.1579
▁authority	-10.1584
နွယ်	-10.1585
လုံခြုံ	-10.1589
▁murder	-10.1593
နုတ်	-10.1594
ယှက်	-10.1596
▁generally	-10.16
ချေးငွေ	-10.1602
လေထု	-10.1605
အေဂျင်စီ	-10.1608
▁billion	-10.1611
rou	-10.1611
▁စကားလုံး	-10.1613
▁ထူးဆန်း	-10.1614
▁students	-10.1619
နောက်ဆုံး	-10.162
▁ပြင်ပ	-10.1623
ဖုံး	-10.1628
▁အဆိုပြုထားသော	-10.1632
လျက်	-10.1634
တင်ပြ	-10.1635
but	-10.1637
ject	-10.1641
အင်အား	-10.1643
ယုံကြည်စိတ်ချရ	-10.1644
▁bought	-10.1644
်း	-10.1647
▁ဇာတ်	-10.1649
▁လွတ်မြောက်	-10.1659
စည်းမျဥ်း	-10.1666
▁normal	-10.1666
▁india	-10.1667
ခြင်းမရှိပါ။	-10.1673
▁တစ်နေ့	-10.1676
မျှော်လင့်ထား	-10.1682
▁electronic	-10.1688
▁families	-10.1688
▁lawyer	-10.1693
▁surprise	-10.1695
▁basis	-10.1695
▁ဖြတ်တောက်	-10.1696
▁Cha	-10.1699
▁ဘောလုံး	-10.171
gal	-10.1711
ရအောင်	-10.1712
လုံခြုံရေး	-10.1728
နားမလည်	-10.1732
▁စိတ်ကူးယဉ်	-10.1733
▁production	-10.1738
▁generation	-10.1739
မီဒီယာ	-10.174
▁ကိုးကား	-10.174
▁Dallas	-10.1747
▁events	-10.1748
▁အင်တာနက်	-10.1755
နေရာဖြစ်သည်။	-10.1763
▁oil	-10.1764
လှုပ်	-10.1769
▁weapon	-10.1769
▁Du	-10.1772
ခွင့်ပြု	-10.1773
▁တကယ်တော့	-10.1773
graph	-10.1774
ira	-10.1775
▁Inglethorp	-10.1777
ချည်	-10.1785
▁အများအားဖြင့်	-10.1785
သိပ်မ	-10.1785
▁established	-10.1786
ute	-10.179
▁မစ္စစ်	-10.1792
ဖျား	-10.1801
ပိုး	-10.1803
ရမ်	-10.1804
ယံ	-10.1804
▁spring	-10.1806
▁ပျမ်းမျှ	-10.1807
▁sight	-10.1812
▁independent	-10.1814
ရင့်	-10.1814
▁ဂျူး	-10.1823
bell	-10.1829
▁Jo	-10.1831
▁No	-10.1831
▁dress	-10.1835
hop	-10.1835
▁hunt	-10.1839
rick	-10.1844
ကျက်	-10.1851
မုန့်	-10.1852
▁relationship	-10.1852
▁ရှိပါသည်။	-10.1854
ဆန်သော	-10.1856
▁nearly	-10.1861
▁Col	-10.1862
အရာတွေကို	-10.1868
အရမ်း	-10.1879
အင်္ကျီ	-10.1882
မှောင်	-10.1882
▁ပန်းချီ	-10.1882
nia	-10.1886
လပ်	-10.1888
▁extra	-10.189
အနေနဲ့	-10.1891
▁hat	-10.1891
ထားသည့်အတိုင်း	-10.1893
ဆပ်	-10.1894
ထားတာ	-10.1898
▁စုစည်း	-10.1898
▁ထောက်ပံ့ကြေး	-10.1899
စို	-10.19
လူ့အဖွဲ့အစည်း	-10.1901
▁wrote	-10.1904
▁afford	-10.1904
မည်ဖြစ်ပြီး	-10.1906
လာရောက်လည်ပတ်	-10.1912
နီးကပ်	-10.1922
▁schedule	-10.1927
ရပ်တည်	-10.1928
နိုး	-10.193
▁quarter	-10.1942
▁greek	-10.1942
uk	-10.1947
▁release	-10.195
ပွဲတော်	-10.1955
တစ်ဝိုက်	-10.1957
▁emb	-10.1958
▁ထုတ်ဖော်	-10.1961
ခက်ခဲ	-10.1965
ဖွင့်လှစ်	-10.1965
▁ငါဆိုလိုတာက	-10.1965
owl	-10.1968
ကြေငြာ	-10.1972
▁အရှေ့ဘက်	-10.1977
▁အိမ်မှာ	-10.1979
▁suit	-10.1979
cott	-10.1979
▁cathedral	-10.198
▁location	-10.198
မှုအပေါ်	-10.1987
▁send	-10.1992
▁မလိုအပ်	-10.1996
ကမ်းခြေ	-10.2003
gli	-10.2004
▁သို့သော်လည်း	-10.2007
▁monument	-10.201
▁race	-10.2016
တရားမျှတမှု	-10.2022
▁relative	-10.2026
ဝတ္ထု	-10.2033
ရေပန်းစား	-10.2033
40	-10.2039
သက်ဆိုင်	-10.2039
▁၂၀	-10.2039
ရရှိနိုင်	-10.204
pping	-10.2053
▁၎င်းတို့အား	-10.2056
▁gold	-10.2057
▁mention	-10.2059
▁added	-10.2062
▁တတိယ	-10.2064
ပရိသတ်	-10.2064
တံခါး	-10.2067
▁spec	-10.2071
တပ်ဖွဲ့	-10.2083
▁initial	-10.2087
ender	-10.2088
mont	-10.2088
တစ်ခုမှ	-10.2092
▁terrible	-10.2095
ano	-10.21
ဆံပင်	-10.2102
ကောင်းမွန်သော	-10.2111
▁beaches	-10.2112
▁integr	-10.2118
▁northern	-10.2128
▁member	-10.2129
သင့်လျော်	-10.213
▁kid	-10.2142
▁အီ	-10.2145
လုပ်ဆောင်ရန်	-10.2148
▁feet	-10.2148
▁machine	-10.2149
မတိုင်မီ	-10.2149
္ဌ	-10.2154
▁easily	-10.2164
▁respond	-10.2164
ဉ်	-10.2173
▁ကြက်	-10.2174
ပရိုဂရမ်	-10.2178
▁ride	-10.2188
▁italian	-10.2189
ဆူ	-10.2191
lia	-10.2194
▁host	-10.2195
တက်ကြွ	-10.2195
▁european	-10.2201
▁broad	-10.2203
K	-10.2205
များကြောင့်	-10.2205
oon	-10.2206
▁အသုံးချ	-10.2211
ထမ်း	-10.2213
▁ဖြစ်ပေါ်လာ	-10.2214
ဒေတာ	-10.2215
ခေါင်	-10.2216
▁mc	-10.2219
တည်ငြိမ်	-10.2227
ရောင်းချ	-10.2236
▁ချိတ်ဆက်	-10.225
af	-10.226
▁He	-10.226
စေရန်အတွက်	-10.226
▁association	-10.2265
▁Lu	-10.227
ပြခန်း	-10.2278
▁shot	-10.2279
အနုပညာ	-10.2288
▁သင်၏	-10.2293
▁သင်ယူ	-10.2295
များနှင့်အတူ	-10.2296
နောက်ပိုင်း	-10.2296
ဖူးတယ်။	-10.2299
▁create	-10.2301
▁watching	-10.2304
အမေ	-10.2304
တိုးတက်မှု	-10.2305
▁Har	-10.2309
အထင်	-10.231
▁regular	-10.2312
▁နောက်ပိုင်းတွင်	-10.2315
▁arrive	-10.232
ဆိုရင်	-10.2335
▁effort	-10.2335
▁sn	-10.2337
▁ရေရှည်	-10.2338
▁beat	-10.234
▁whose	-10.234
▁procedure	-10.2352
▁မည်မျှ	-10.2352
▁shop	-10.2353
▁decade	-10.2355
ဝင်ငွေ	-10.2355
ယုံကြည်မှု	-10.2358
▁ဓာတ်ငွေ့	-10.236
▁owner	-10.2369
▁david	-10.2375
▁ဘီစီ	-10.2376
q	-10.2386
အကွာ	-10.2389
ဲလ်	-10.2391
ပုံသဏ္ဍာန်	-10.2392
▁cities	-10.2393
rust	-10.2402
ကဲ့သို့ပင်	-10.2403
▁union	-10.2403
သီအိုရီ	-10.2407
ctor	-10.2413
▁particularly	-10.2414
ဟူး	-10.242
▁growing	-10.2422
▁closed	-10.2423
▁feeling	-10.2426
ထူ	-10.243
▁replace	-10.243
ဗြိတိသျှ	-10.2432
▁ဘာသာရေး	-10.2441
▁1997	-10.2442
▁castle	-10.2443
▁$2	-10.2444
ရှုံး	-10.2445
စွန်း	-10.2448
▁ငါတကယ်	-10.2455
▁debt	-10.2456
▁currently	-10.246
▁ရလဒ်များ	-10.246
ကျိုး	-10.2465
ထားသောကြောင့်	-10.2466
▁ကျွန်ုပ်သည်	-10.2466
▁band	-10.2476
▁secret	-10.2477
▁တစ်ချို့	-10.2479
နွား	-10.2479
▁Ta	-10.2482
စီရင်	-10.2487
သန်	-10.2488
▁europe	-10.2489
▁တာဝန်ရှိ	-10.249
မဟုတ်ဘူး။	-10.249
▁stra	-10.2492
▁burn	-10.2494
အင်ပါယာ	-10.2495
နိုင်စေရန်	-10.2496
▁အပို	-10.2501
▁seat	-10.2508
ကံကောင်း	-10.2509
သစ္စာ	-10.2511
ကျွေး	-10.2511
▁sector	-10.2514
အားလပ်ရက်	-10.2519
▁စခန်းချ	-10.2519
ချပ်	-10.2519
မွန်	-10.2522
လိမ်	-10.2523
▁luck	-10.2528
ဖြစ်ခဲ့သည်။	-10.2529
နင်း	-10.2531
ထိတ်လန့်	-10.2535
င်းရှင်းလင်းလင်း	-10.2535
▁aware	-10.2538
▁တိုးမြှင့်	-10.2543
▁retirement	-10.2545
ulat	-10.2554
▁ရာစုနှစ်	-10.2558
▁simply	-10.2559
သင့်တယ်။	-10.2559
ense	-10.256
cher	-10.2567
▁interview	-10.2568
▁assume	-10.2569
▁ကောင်လေး	-10.257
▁rent	-10.2573
▁သရုပ်ဖော်	-10.2575
▁louis	-10.2575
▁assessment	-10.2578
▁မလိုအပ်ပါ။	-10.2578
▁bono	-10.2578
အကျိုးသက်ရောက်	-10.2584
အရောင်	-10.2589
ငယ်လေး	-10.2596
▁ဟိုမှာ	-10.2596
ကြမ်းတမ်း	-10.26
▁ရည်မှန်းချက်	-10.26
အကောင့်	-10.2601
▁sad	-10.2605
ရိုးရှင်း	-10.2606
ဆွေးနွေး	-10.2607
▁အခွင့်အလမ်း	-10.2607
▁ဘုတ်အဖွဲ့	-10.2615
ဖျ	-10.2621
ola	-10.2623
အစွန်း	-10.2626
▁somebody	-10.2632
▁glass	-10.2632
▁stood	-10.2632
gin	-10.2635
pper	-10.2637
▁1995	-10.2643
▁eye	-10.2644
အရသာ	-10.2647
▁brother	-10.2648
)(	-10.2659
▁စိတ်ဝင်စားစရာ	-10.2668
▁ဆေးရုံ	-10.2672
▁dave	-10.2677
92	-10.2684
▁ပြည်သူ့	-10.2685
▁လူငယ်	-10.2687
ဂရုစိုက်	-10.2689
▁involve	-10.2694
ဘာလို့	-10.2695
▁teach	-10.2696
ခံယူ	-10.2697
▁slave	-10.2697
▁customer	-10.2702
▁အခမဲ့	-10.2705
▁expert	-10.2705
▁believed	-10.2712
▁path	-10.2721
▁Texas	-10.2721
▁ကျေးဇူးတင်	-10.2722
▁sex	-10.2725
ဒီမှာ	-10.2728
▁army	-10.2733
▁အနက်ရောင်	-10.2738
▁mor	-10.2741
ump	-10.2741
▁bomb	-10.2745
လေ့ရှိသည်။	-10.2746
▁မိဘ	-10.2749
▁environmental	-10.2753
▁policies	-10.2754
▁payments	-10.2754
▁doubt	-10.2755
▁ဒီနေ့	-10.2755
အသံ	-10.2758
▁ပေးအပ်	-10.2758
▁column	-10.2762
အဓိပ္ပာယ်	-10.2771
ခန်းမ	-10.2776
▁ထုတ်လုပ်မှု	-10.2781
▁tea	-10.2782
ဆယ့်ငါး	-10.2787
ပါတီ	-10.2792
ခဲ့တယ်၊	-10.2795
▁သင့်လျော်သော	-10.2807
ရင်းနှီးမြုပ်နှံ	-10.2812
တိုင်းတွင်	-10.2819
ကြီးကြီးမားမား	-10.282
တံတား	-10.282
▁Ben	-10.2822
▁ဝန်ခံ	-10.2823
01	-10.2823
▁ကောင်းစွာ	-10.2825
များထံ	-10.283
မည်မဟုတ်ပေ။	-10.2831
▁degree	-10.2835
အမှား	-10.2836
ဝင်လာ	-10.2838
▁trial	-10.2838
gate	-10.2841
▁thirty	-10.2845
▁ဂုဏ်ပြု	-10.2845
▁ဖြတ်သန်း	-10.2853
▁religious	-10.2862
▁ဗြိတိန်	-10.2862
▁network	-10.2862
▁beginning	-10.2863
▁seek	-10.2866
အဖေ	-10.2867
အာမခံ	-10.2868
▁ဒီလိုမျိုး	-10.287
နှောင်းပိုင်း	-10.287
သုံးခု	-10.287
▁ကျွန်တော့်ကို	-10.2872
▁encourage	-10.2878
▁စာရွက်စာတမ်း	-10.2878
▁bur	-10.2879
▁southern	-10.2881
စိမ်း	-10.2887
အောင်မြင်	-10.2887
ically	-10.2891
လုပ်ထုံးလုပ်နည်း	-10.2895
ဖာ	-10.2899
▁ဖြစ်ပျက်	-10.29
▁obtain	-10.2903
posed	-10.2913
သလား။	-10.2916
▁identify	-10.292
ခံခဲ့ရသည်။	-10.2924
ရမယ့်	-10.2924
▁passed	-10.2926
▁smaller	-10.293
▁Ju	-10.2932
ထွန်း	-10.2945
ဆုံးရှုံး	-10.2945
▁damage	-10.2945
စေမည့်	-10.2945
▁discuss	-10.2948
asse	-10.295
အနက်	-10.2951
▁block	-10.2952
▁အမှိုက်	-10.2953
▁sports	-10.2955
ဟော	-10.2962
▁lose	-10.2963
▁ကိုယ့်	-10.297
▁fly	-10.2971
▁သဘောထား	-10.2972
အလိုက်	-10.2975
▁cave	-10.2977
▁ဖျက်ဆီး	-10.2978
▁excellent	-10.2978
▁spa	-10.298
လက်ထပ်	-10.2986
ဆယ်စုနှစ်	-10.2987
▁ပေါ်လာ	-10.2988
အများအပြားသည်	-10.2989
ပန်းတိုင်	-10.2998
▁ဤသည်မှာ	-10.2999
▁newspaper	-10.3004
▁profit	-10.3004
ရမည်။	-10.3004
တွေထဲက	-10.3009
▁treatment	-10.3009
▁box	-10.3011
class	-10.3012
▁kong	-10.3012
▁alien	-10.3016
တစ်ခုခု	-10.3017
ပြောနေတာ	-10.3017
▁items	-10.3017
▁limited	-10.3018
▁ရည်ညွှန်း	-10.3021
ဘ်	-10.303
▁chair	-10.303
ung	-10.303
▁realize	-10.3031
▁ပြောသည်။	-10.3032
▁ပုံဖော်	-10.3035
▁jewish	-10.3037
▁နားထောင်	-10.3038
▁bridge	-10.3041
31	-10.3047
နေခဲ့တယ်။	-10.3048
ဘောင်	-10.3051
ဖူးတဲ့	-10.3054
▁ညွှန်ပြ	-10.3054
26	-10.3056
▁ကယ်တင်	-10.3063
▁nearby	-10.3065
▁တစ်ကြိမ်	-10.3072
အလယ်ပိုင်း	-10.3075
▁လုံလောက်သော	-10.3078
▁initiative	-10.308
▁decline	-10.3084
အကျဉ်း	-10.3089
▁သူ့လက်	-10.3092
လန်း	-10.3095
▁wine	-10.3095
▁magazine	-10.3097
▁မည်သူမျှ	-10.31
▁hong	-10.3102
အသိုင်းအဝိုင်း	-10.3105
မြူ	-10.3106
▁theater	-10.3109
water	-10.3111
▁series	-10.3112
▁obvious	-10.3114
▁အနီရောင်	-10.3122
ခံတပ်	-10.3123
▁ကြီးကြပ်	-10.3124
▁daughter	-10.3131
▁James	-10.3131
အရှိဆုံး	-10.3132
▁fear	-10.3134
ခေါ်ဆို	-10.3135
မင်	-10.3136
▁သိသာထင်ရှားသော	-10.3139
ရလဒ်များ	-10.3143
▁ကျယ်ပြန့်သော	-10.3149
▁jerusalem	-10.3156
ပယ်	-10.3163
35	-10.3168
ix	-10.3173
position	-10.3179
တိုက်ခိုက်	-10.3179
ချဉ်းကပ်မှု	-10.3179
▁ဝါရှင်တန်	-10.3182
ကော်ပိုရေးရှင်း	-10.3182
▁responsible	-10.3182
ကုသ	-10.3199
▁principle	-10.3199
▁science	-10.3199
▁robert	-10.3202
ရှက်	-10.321
▁Bu	-10.3214
▁Slate	-10.3217
▁မည်သူ	-10.3225
▁county	-10.3225
▁participants	-10.3225
▁hurt	-10.3226
place	-10.3226
▁evaluation	-10.3227
▁warm	-10.323
စော	-10.3231
ခို	-10.3232
အကဲဖြတ်	-10.3233
▁fiscal	-10.3234
▁refuse	-10.3243
▁mix	-10.3247
▁ဝမ်းနည်း	-10.3251
▁track	-10.3253
တယ်ထင်တယ်	-10.3262
▁Act	-10.3269
stream	-10.3269
▁Miss	-10.3276
▁truth	-10.3277
▁playing	-10.3277
89	-10.328
▁လက်ခံရရှိ	-10.3281
▁centuries	-10.3286
▁မှတ်ချက်များ	-10.3294
▁served	-10.3296
အကြောင်းအရာ	-10.3296
အပတ်	-10.3297
▁Je	-10.3297
စောင်	-10.3299
မဂ္ဂဇင်း	-10.3303
▁စွန့်စား	-10.3303
ခွဲခြမ်းစိတ်ဖြာ	-10.3306
ပြာ	-10.3309
▁candidate	-10.3312
မလဲ။	-10.3314
▁ပုဒ်မ	-10.3314
ware	-10.332
▁commercial	-10.332
ဇီ	-10.332
ဖွဲ့	-10.333
▁ဒီမိုကရက်	-10.3338
▁barr	-10.3341
သွယ်	-10.3345
▁giving	-10.3346
▁basic	-10.3354
ဘယ်လို	-10.3354
ကြေညာ	-10.3355
စက်မှုလုပ်ငန်း	-10.3355
▁ဟုတ်ကဲ့	-10.3364
mbo	-10.3364
ami	-10.3369
▁entrance	-10.3373
▁sword	-10.3373
▁ငြင်းခုံ	-10.3373
လူမျိုးများသည်	-10.3379
based	-10.3381
နှစ်ဦး	-10.3381
တွေရှိတယ်။	-10.3381
▁appeal	-10.3381
ဝင်ပေါက်	-10.3381
▁swi	-10.3392
16	-10.3397
loo	-10.3398
▁purchase	-10.3399
▁property	-10.3401
သာမက	-10.3403
▁ဒါဆို	-10.3405
▁associated	-10.3409
dding	-10.3416
▁worse	-10.3416
45	-10.3421
▁smile	-10.3421
▁typical	-10.3425
▁adopt	-10.3426
▁empire	-10.3434
▁hair	-10.3434
▁ငါ့အတွက်	-10.3437
နေသော်လည်း	-10.3438
▁သစ်သား	-10.3445
▁ready	-10.345
▁handle	-10.345
▁finance	-10.3452
law	-10.3452
iff	-10.3452
hon	-10.3453
▁raised	-10.3463
ငြင်း	-10.3469
▁california	-10.3469
▁constant	-10.3469
ဖြေရှင်းရန်	-10.3477
▁improvement	-10.3477
ဝှက်	-10.3478
▁discount	-10.3478
မှတစ်ဆင့်	-10.3478
▁အရင်က	-10.3484
▁Mc	-10.3487
▁yourself	-10.3496
▁စိန့်	-10.3496
▁Ke	-10.35
သဘောတူ	-10.3504
တံဆိပ်	-10.3505
▁Legal	-10.3506
ello	-10.3508
ကြည့်ပါ။	-10.351
စွမ်းအင်	-10.3513
▁anymore	-10.3513
▁မြို့၏	-10.3515
ရမယ်ဆိုတာ	-10.3516
▁ဟို	-10.3517
▁progress	-10.3522
▁attraction	-10.3524
▁သူတို့ဟာ	-10.353
ဖိနပ်	-10.3531
▁flower	-10.3532
ကြီးမားသော	-10.354
▁weekend	-10.3544
တနင်္ဂနွေ	-10.3549
▁discussion	-10.3549
အများအပြားကို	-10.3551
▁topic	-10.3552
▁cafe	-10.3557
နှစ်ခုလုံး	-10.3557
▁strange	-10.3559
မြို့တော်	-10.3564
အငြင်းပွား	-10.3567
ပြုလုပ်ရန်	-10.3567
▁roll	-10.3571
▁citizen	-10.3576
▁ရေကူး	-10.3578
▁ရာစုတွင်	-10.3579
▁မီတာ	-10.358
လက်ရာများ	-10.3581
▁domestic	-10.3584
▁explore	-10.3586
နေဆဲဖြစ်သည်။	-10.3586
ပေမဲ့	-10.3588
▁defend	-10.3589
ထီး	-10.3592
တာထက်	-10.3596
တဲ့သူတွေ	-10.3596
စည်	-10.3599
သူဖြစ်သည်။	-10.3603
▁temp	-10.3606
သြ	-10.3606
မခံ	-10.3606
ကာကွယ်	-10.3616
ငွေ့	-10.3617
▁agreed	-10.3618
▁push	-10.3621
▁reading	-10.3622
▁engine	-10.3629
▁narrow	-10.3629
▁add	-10.3631
▁conference	-10.3638
▁england	-10.3638
▁editor	-10.3638
▁chief	-10.3639
▁catch	-10.3648
▁စိတ်လှုပ်ရှား	-10.3651
▁heavy	-10.3656
▁ဆောင်းရာသီ	-10.3656
ပျံ	-10.3657
▁pool	-10.3658
စိုက်ပျိုး	-10.3665
▁criminal	-10.3665
သတိရ	-10.3666
နှစ်ဆယ်	-10.3673
ဒုက္ခ	-10.3674
ဆန်းသစ်	-10.3677
နိုင်ဘူး။	-10.3677
▁earlier	-10.3683
သည်ဖြစ်စေ	-10.3686
▁video	-10.3692
▁continued	-10.3695
▁We	-10.3697
အိုး	-10.3699
▁frequent	-10.3701
▁multiple	-10.3702
▁absolutely	-10.3714
▁forward	-10.3716
▁march	-10.3724
▁kal	-10.3725
စုဆောင်း	-10.3727
▁element	-10.3728
▁အရောင်း	-10.3729
▁ဟုခေါ်သော	-10.3731
▁match	-10.3734
▁admit	-10.3737
▁မြှင့်တင်ရန်	-10.3741
သုံးသပ်	-10.3742
▁အရှိန်	-10.3747
ဘူတာ	-10.3756
▁ဖော်ပြသည်။	-10.3758
ပြောပြ	-10.3762
▁larger	-10.3762
ရင်ဆိုင်	-10.3765
ကြည်	-10.3773
▁survey	-10.3774
▁stories	-10.3783
▁restrict	-10.3784
ဖြစ်အောင်	-10.3788
အစိတ်အပိုင်း	-10.3804
▁expand	-10.3805
▁ပြောခဲ့သည်	-10.3806
▁ငါထင်တယ်	-10.381
နှုတ်	-10.381
▁အကြီးတန်း	-10.381
bound	-10.3812
▁jack	-10.3813
မျှော်လင့်ချက်	-10.382
ပိုက်	-10.382
▁print	-10.3833
▁advance	-10.3837
▁application	-10.3837
နေကြသည်။	-10.3839
သခင်	-10.3842
ရာခိုင်နှုန်း	-10.3842
▁Dave	-10.3844
▁corporation	-10.3847
တစ်ဦးဖြစ်သည်။	-10.3855
▁bull	-10.3862
▁married	-10.3865
▁၄င်း	-10.3866
▁useful	-10.3866
▁သိရှိ	-10.3867
ကြိုးပမ်းမှု	-10.3868
state	-10.387
ရှိမရှိ	-10.3873
▁daily	-10.3874
▁stopped	-10.3876
▁wonderful	-10.3876
▁rise	-10.3876
ငြိမ်	-10.3881
ပုံတစ်ပုံ	-10.3884
ပါဘူး၊	-10.3886
▁eastern	-10.3894
cious	-10.3896
▁မည်သည့်အရာ	-10.3897
▁cash	-10.3899
eff	-10.39
▁Com	-10.39
▁အထွေထွေ	-10.3902
အခါ	-10.3903
▁watched	-10.3905
▁ဆက်သွယ်	-10.3906
28	-10.3907
▁ပင်မ	-10.3908
▁proper	-10.3909
▁2002	-10.3916
▁ဟောင်ကောင်	-10.392
ကြည့်ရှုရန်	-10.3923
▁multi	-10.3933
ဆန့်ကျင်	-10.3934
▁agreement	-10.3938
▁ငှားရမ်း	-10.3939
▁ထွက်ပေါ်လာ	-10.3948
▁အသက်ရှင်	-10.3952
လည်ပတ်မှု	-10.3955
load	-10.3957
▁target	-10.3957
ဖိအား	-10.3958
နေပုံရ	-10.3959
ကျင်း	-10.396
matic	-10.3964
▁favor	-10.3965
အဝတ်အစား	-10.3967
▁protest	-10.3967
အဆောက်အအုံ	-10.3969
▁လူကြိုက်များ	-10.3976
▁Or	-10.3978
25	-10.3978
▁bag	-10.3983
▁အဖြစ်အပျက်	-10.3985
အကြာတွင်	-10.3987
▁majority	-10.3989
▁drop	-10.3999
ခွင့်မပြု	-10.4001
▁tur	-10.4002
▁communication	-10.4004
▁ဂျာမန်	-10.4004
သနည်း။	-10.4004
▁file	-10.4005
▁estimated	-10.4005
▁phil	-10.4008
▁egypt	-10.4013
▁variety	-10.4013
▁ကယ်လီဖိုးနီးယား	-10.4013
▁suffer	-10.4013
▁foundation	-10.4015
ေးကွက်	-10.4019
▁ငါ့ရဲ့	-10.4019
▁ပြီးမြောက်	-10.4021
ရှင်သန်	-10.4021
▁therefore	-10.4022
▁attend	-10.4023
ဝယ်ယူ	-10.4024
စင်း	-10.4026
▁ကြီးကျယ်ခမ်းနား	-10.4032
▁CIO	-10.4032
▁opportunity	-10.4032
29	-10.4037
cept	-10.4038
▁politics	-10.4041
သြဇာ	-10.4042
▁followed	-10.4046
▁greater	-10.4047
လုပ်ချင်	-10.4048
▁destroyed	-10.4051
▁directly	-10.4062
23	-10.4067
▁choose	-10.4069
cker	-10.4071
နေစဉ်	-10.4073
rated	-10.4074
construct	-10.4078
ပေါ်မှ	-10.4082
အလေ့အကျင့်	-10.4082
17	-10.4084
▁occur	-10.4086
▁တစ်ခါတစ်ရံ	-10.4088
▁remark	-10.4089
▁spain	-10.4096
▁ပြည်သူ	-10.41
ကြည့်ရတာ	-10.4101
▁တစ်နာရီ	-10.4107
▁လာမည့်	-10.4111
ဖြည့်	-10.4114
▁festival	-10.4116
▁providing	-10.4116
ကျူးလွန်	-10.4116
▁မှားယွင်း	-10.4116
▁corner	-10.4119
19	-10.4119
▁historical	-10.412
▁လူမည်း	-10.4125
▁မိုက်မဲ	-10.4126
မ္မ	-10.4126
မို	-10.4126
▁နာမည်ကြီး	-10.4131
သမိုင်းကြောင်း	-10.4133
▁activity	-10.4135
▁software	-10.4135
ယဉ်ကျေးမှု	-10.4136
▁occasion	-10.4144
ပြဇာတ်	-10.4156
▁argue	-10.4164
▁defense	-10.4173
နွေး	-10.4182
ဆစ်	-10.4183
သတိပေးချက်	-10.4184
မြင်ကွင်း	-10.4184
ခုံ	-10.4188
▁Gi	-10.4188
▁sleep	-10.4192
အမေရိကန်	-10.4194
▁balance	-10.4195
▁search	-10.4202
▁apartment	-10.4211
အမျိုးသမီး	-10.4216
vy	-10.422
▁hanson	-10.4221
ဂျူ	-10.4223
aging	-10.4224
▁conservative	-10.423
▁strategic	-10.423
▁sudden	-10.423
လူမျိုးများ	-10.4237
အနေအထား	-10.4239
▁လူ့	-10.4246
▁တော်ဝင်	-10.4247
▁တွေ့ရ	-10.4249
▁အဆိပ်	-10.4257
▁officer	-10.4259
▁ကြိုးစားနေ	-10.4262
ux	-10.4265
▁yard	-10.4266
▁caught	-10.4268
▁ဘီလီယံ	-10.4268
▁television	-10.4277
how	-10.4278
▁rue	-10.4281
ချဲ့ထွင်	-10.4287
▁adjust	-10.4287
▁minister	-10.4287
ဘေ	-10.429
mate	-10.4294
▁အော်ဟစ်	-10.4296
ပြင်းပြင်းထန်ထန်	-10.4296
▁brief	-10.4297
95	-10.4301
▁ရယ်စရာကောင်း	-10.4304
ပုဂ္ဂိုလ်	-10.4305
5,000	-10.4307
▁သေးငယ်	-10.4309
ကျယ်ပြန့်	-10.4314
▁energy	-10.4316
▁တုန်လှုပ်	-10.4317
အများကြီးရှိတယ်။	-10.4318
ကလပ်	-10.4318
script	-10.4326
ပင်လယ်	-10.4326
ဝတ်စုံ	-10.4329
ညှိ	-10.4333
နှင့်ပတ်သက်သည့်	-10.4336
ယောင်	-10.434
ိုင်တွယ်ဖြေရှင်း	-10.4341
ological	-10.4341
ဖြစ်သူ	-10.4347
တုံ့ပြန်	-10.4348
အနုပညာရှင်	-10.4349
▁Federal	-10.4354
style	-10.4354
▁fishing	-10.4358
▁(19	-10.4359
▁ဤအရာ	-10.4362
▁council	-10.4364
▁minor	-10.4368
ထက်ပို	-10.437
ဝီ	-10.437
clock	-10.4373
စစ်ဆေးမှု	-10.4379
▁မဟာဗျူဟာ	-10.4383
ထွင်း	-10.4383
▁affected	-10.4391
▁အထိမ်းအမှတ်	-10.4393
ညာ	-10.4397
▁throw	-10.4399
စွမ်းဆောင်ရည်	-10.4399
▁please	-10.4403
▁အပြောင်းအလဲများ	-10.4403
ular	-10.4404
▁ရွှေ့ပြောင်း	-10.4412
▁ကျိုးကြောင်း	-10.4412
တဲ့လူတွေ	-10.4422
တွေအကြောင်း	-10.4423
ရမလဲ	-10.443
▁ပြသထားသည်။	-10.443
▁ယေဘုယျအားဖြင့်	-10.4432
▁ဝန်ဆောင်မှုပေး	-10.4433
▁Robert	-10.4434
မိုင်	-10.4435
J	-10.4435
▁ဟုတ်လား	-10.4436
▁arab	-10.4441
▁ပိုဆိုး	-10.4444
▁moral	-10.4446
▁fit	-10.445
▁ပြောင်းရွှေ့	-10.4451
ခွံ	-10.4451
▁ကုန်သွယ်မှု	-10.4461
▁flu	-10.4461
▁abuse	-10.4465
▁stage	-10.4471
▁မသေချာ	-10.4477
▁စိတ်ပျက်	-10.448
▁proposal	-10.448
▁representation	-10.4484
သုံးသပ်ချက်	-10.4489
▁လူမှုရေး	-10.449
စွမ်းအား	-10.4493
▁hang	-10.4494
▁အလုပ်အကိုင်	-10.45
▁instance	-10.45
▁predict	-10.45
စတာ	-10.4509
onald	-10.4517
ပိုမို	-10.4523
ရာနေရာ	-10.4525
▁ပျက်ကွက်	-10.4529
မား	-10.4533
လျက်ရှိသည်။	-10.4533
ပုံး	-10.4534
ချမှတ်	-10.4535
▁protection	-10.4536
မဟုတ်ဘူးလို့	-10.4542
ဆီလျော်	-10.4549
▁ထိခိုက်စေ	-10.4549
▁reached	-10.4551
ဝါဒီ	-10.4558
▁exchange	-10.4559
▁sculpture	-10.4559
▁straight	-10.4559
ချိတ်	-10.456
gger	-10.456
▁fashion	-10.4577
▁rural	-10.4579
လုပ်ရတာ	-10.4581
▁funny	-10.4582
▁discussed	-10.4585
ဘတ်ဂျက်	-10.4585
▁၁၅	-10.4587
အေဂျင်စီများ	-10.4591
▁assist	-10.4592
▁ထပ်မံ	-10.4598
စတိုးဆိုင်	-10.4598
▁apply	-10.4598
▁dance	-10.46
mail	-10.4602
▁democrat	-10.4603
▁outcome	-10.4609
▁လူတွေကို	-10.4617
ဧကရာဇ်	-10.4618
ယက်	-10.462
နောက်ကျ	-10.4623
U	-10.4627
▁interior	-10.4628
စရိတ်	-10.4629
ဖွယ်ကောင်း	-10.4633
▁အဖြူရောင်	-10.4638
အလေးချိန်	-10.4638
▁ကျဆင်းသွား	-10.4639
▁caused	-10.4641
▁iii	-10.4643
▁prop	-10.4644
▁thus	-10.4647
▁violence	-10.4647
▁လှည့်ပတ်	-10.4648
▁အသက်ကြီး	-10.4648
ဖ်	-10.4649
သိပ္ပံ	-10.4652
မရှိခဲ့ပါ။	-10.4662
▁existing	-10.4669
▁career	-10.4677
သတိထား	-10.4683
11	-10.4683
▁affair	-10.4687
▁worry	-10.4687
91	-10.4688
သိမ်းဆည်း	-10.4695
▁အကျုံးဝင်	-10.4697
▁permit	-10.4697
▁representative	-10.4698
▁ဒေသဆိုင်ရာ	-10.4699
▁unless	-10.47
▁entity	-10.47
အရာများကို	-10.4705
▁border	-10.4707
စောင်း	-10.4712
▁eventually	-10.4717
▁နံနက်	-10.4717
▁baby	-10.4718
▁image	-10.472
သလိုမျိုး	-10.4722
▁Ex	-10.4726
ဘတ်စ်ကား	-10.4727
▁mount	-10.4736
▁ရှောင်ရှား	-10.4737
ဧည့်	-10.4745
▁ပြန်လာ	-10.4752
▁hire	-10.4774
stein	-10.4779
gree	-10.4782
hood	-10.4785
▁hearing	-10.4785
▁version	-10.4788
သင့်တယ်လို့	-10.4792
အနီးတွင်	-10.4795
သရုပ်ဆောင်	-10.4798
မွေးဖွား	-10.4798
▁ပါဝင်ပါသည်။	-10.4804
ဟိုတယ်	-10.4817
ဒဏ္ဍာရီ	-10.4818
မျှော်စင်	-10.4818
▁မကြာမီ	-10.4818
စျေးကြီး	-10.482
တစ်ရပ်	-10.4824
▁လုံးဝမ	-10.4824
ဘုန်း	-10.4827
▁OMB	-10.4828
▁စကော့တလန်	-10.4828
▁bird	-10.4831
▁၁၂	-10.4833
▁အခိုင်အမာ	-10.4835
နေတုန်း	-10.4836
အိပ်	-10.4838
▁Tu	-10.4839
▁Shi	-10.4841
ထုတ်ပြန်ချက်	-10.4842
နိုင်ပေမယ့်	-10.4845
▁sum	-10.4862
▁provision	-10.4868
▁Mont	-10.4875
လွှမ်းမိုး	-10.4876
ဆိပ်	-10.4879
ဖြစ်လာခဲ့သည်။	-10.4893
မိခင်	-10.4896
မှတဆင့်	-10.4899
ဂို	-10.4899
▁coffee	-10.4909
▁နာကျင်	-10.4909
▁ဝမ်းသာ	-10.4909
▁ကြိုက်တယ်။	-10.4913
▁parties	-10.4914
88	-10.4915
55	-10.4918
▁ယူဆောင်လာ	-10.4919
စျေးဝယ်	-10.4922
▁1980	-10.4927
ကော်လံ	-10.493
မျှတ	-10.493
▁failed	-10.4932
▁compared	-10.4937
အကွာအဝေး	-10.494
▁fresh	-10.494
ကွေ့	-10.494
▁မည်ကဲ့သို့	-10.4942
front	-10.4947
လျှံ	-10.495
▁positive	-10.495
▁အိုင်ယာလန်	-10.496
ကြော	-10.4965
▁အလွယ်တကူ	-10.497
▁တောင်ကုန်း	-10.4973
ခေါက်	-10.498
လေးခု	-10.4981
▁regarding	-10.4988
▁ဆိုလိုတာက	-10.499
▁အတွင်းပိုင်း	-10.499
▁ငါသိတယ်။	-10.499
14	-10.4997
▁jamaica	-10.5001
obb	-10.5001
ချင်ဘူး။	-10.5003
▁စစ်တမ်း	-10.5003
▁partner	-10.5004
▁shown	-10.501
▁Kal	-10.5015
dom	-10.5021
▁လျင်မြန်စွာ	-10.5022
ရင်းနှီး	-10.5029
▁ကောင်းပြီ၊	-10.5029
အကျိုးစီးပွား	-10.5032
▁အငြိမ်းစားယူ	-10.5032
ရွှေ	-10.5032
▁task	-10.5033
ထင်ရှား	-10.5038
▁အုပ်ချုပ်	-10.5038
အုပ်ချုပ်မှု	-10.5041
▁တရားရေးဆိုင်ရာ	-10.5042
စဥ်	-10.5042
ounce	-10.5044
▁poll	-10.5051
▁impossible	-10.5053
▁examine	-10.5053
▁double	-10.5053
ကောင်စီ	-10.5054
▁အိမ်ပြန်	-10.5054
▁ခေါင်းစဉ်	-10.5057
life	-10.5057
▁cultural	-10.5063
ကြမ်းပြင်	-10.5066
ဟင့်အင်း	-10.5073
▁သက်ကြီးရွယ်အို	-10.5073
▁divers	-10.5076
▁contribution	-10.5084
▁Lake	-10.5084
▁Par	-10.5084
▁မှတ်တမ်းတင်	-10.5084
အကြိုက်ဆုံး	-10.5084
▁italy	-10.5085
တရားရုံး	-10.5086
▁clearly	-10.5086
အချိန်ဇယား	-10.5087
▁အဲဒီ့	-10.5089
မျှော်လင့်	-10.5093
▁ပြုတ်ကျ	-10.5094
illa	-10.51
္ဌာန်း	-10.5103
▁သေချာပါတယ်။	-10.5104
▁technical	-10.5104
ပေမည်။	-10.5104
▁immediately	-10.5111
▁efficient	-10.5115
▁spirit	-10.5115
လို့ရတယ်။	-10.5122
▁exercise	-10.5125
▁africa	-10.5125
▁victim	-10.5136
▁အပြည့်အဝ	-10.5146
▁Louis	-10.5146
ထုပ်	-10.515
▁ထားရှိ	-10.5154
▁grew	-10.5157
▁honor	-10.5158
hole	-10.5158
▁ကာကွယ်ရေး	-10.5159
▁cast	-10.5161
▁bru	-10.5163
ကွန်ရက်	-10.5164
▁ငါသိတယ်	-10.5166
▁vegas	-10.5167
▁သက်ရောက်မှုရှိ	-10.5167
▁trail	-10.5169
▁indicate	-10.5172
▁တခါတရံ	-10.5177
▁ရိုးရိုး	-10.5178
လျှော့ချ	-10.5178
▁observe	-10.518
▁sunday	-10.518
▁သမိုင်းဝင်	-10.5181
မရရှိ	-10.5182
တွေ့ခဲ့ရ	-10.5186
▁ဖြစ်ရပ်လေ့လာမှု	-10.5188
အများပြည်သူ	-10.5188
▁မီးခိုး	-10.5191
▁ထိုသို့သော	-10.5199
65	-10.52
ipped	-10.5203
writer	-10.5208
NT	-10.5209
ချိုင့်ဝှမ်း	-10.5209
▁assumption	-10.5209
ကန့်ကွက်	-10.5209
သဘောပေါက်	-10.5212
တုန်	-10.5218
▁လူအများ	-10.522
အလှ	-10.5223
ကောက်ခံ	-10.5225
ဖြစ်ပေါ်	-10.5228
▁acquisition	-10.523
▁august	-10.523
▁newsweek	-10.523
ကျန်းမာရေး	-10.5234
▁မြေပြင်	-10.5235
▁originally	-10.5239
▁တက္ကဆက်	-10.524
▁imagine	-10.524
▁jesus	-10.5241
▁Mr	-10.5249
ကျူးကျော်	-10.5249
▁သယ်ဆောင်	-10.5251
တိရိစ္ဆာန်	-10.5261
▁weight	-10.5266
▁sitting	-10.5267
ချ်	-10.5272
ဝါသနာ	-10.5272
▁ဖြတ်ကျော်	-10.5273
ာ့ခ်	-10.5273
▁အုပ်ချုပ်ရေး	-10.5275
▁jury	-10.5275
▁emperor	-10.5283
▁identified	-10.5283
▁ticket	-10.5283
▁speech	-10.5283
▁လျှော့ချရန်	-10.5288
▁shrine	-10.5293
▁stick	-10.5297
▁အပြင်မှာ	-10.5298
ယူဆချက်	-10.5298
မှာမဟုတ်ဘူး။	-10.5306
ဘဏ္ဍာ	-10.5315
▁earth	-10.5316
ရည်ရွယ်ချက်	-10.5319
ပျက်စီး	-10.532
▁burden	-10.5326
18	-10.5329
တုတ်	-10.5333
▁architecture	-10.5337
▁ဆွဲဆောင်မှုရှိ	-10.5339
▁၀င်ငွေ	-10.5347
▁july	-10.5348
▁mass	-10.5356
▁behavior	-10.5357
▁prince	-10.5358
ကုသမှု	-10.5362
အကန့်အသတ်	-10.5368
▁Hanson	-10.5368
▁accus	-10.5369
ဘုတ်	-10.5385
▁မြို့တွင်း	-10.5387
▁ကျွန်တော်ထင်ပါ	-10.5401
▁ဖြစ်ပေါ်စေ	-10.5404
စွန့်	-10.541
▁surplus	-10.5421
▁bath	-10.5421
▁တခြားသူတွေ	-10.5425
ထွေး	-10.5431
▁jane	-10.5433
▁သိလား	-10.5438
ယ်စားလှယ်လောင်း	-10.5441
စကားပြော	-10.5442
▁regard	-10.5445
အလေ့အကျင့်များ	-10.5449
48	-10.5456
▁teacher	-10.546
ဝန်ထုပ်ဝန်ပိုး	-10.5464
ဖြစ်ကောင်းဖြစ်	-10.5465
တစ်ချက်	-10.5467
▁comfort	-10.5475
▁pack	-10.5475
▁အရာအားလုံးကို	-10.5476
အရာရှိများ	-10.5478
▁cool	-10.5479
▁တရားမျှတ	-10.5481
▁moving	-10.5497
▁birth	-10.5507
▁တိုင်းပြည်	-10.5508
တေး	-10.5512
▁ရဲတိုက်	-10.5514
▁physical	-10.5519
funded	-10.552
▁via	-10.552
မည်ဖြစ်ပါသည်။	-10.5521
▁ကျော်လွန်	-10.5522
97	-10.5527
▁dinner	-10.5529
▁raise	-10.5529
သကဲ့သို့	-10.5529
▁corp	-10.5532
▁ဒီလောက်	-10.5537
▁completed	-10.554
ချဉ်းကပ်	-10.5544
ရှည်လျား	-10.5551
▁golf	-10.5551
▁desert	-10.5552
▁ruin	-10.5553
▁အားပေး	-10.5554
အကြံပြုချက်	-10.5556
▁ဖြစ်နိုင်တယ်။	-10.556
▁easier	-10.5561
▁virgin	-10.5561
▁writing	-10.5561
▁ကနဦး	-10.5561
▁mill	-10.5563
ပါလိမ့်မယ်။	-10.5565
အရပ်	-10.5566
▁ignore	-10.5574
▁shall	-10.5577
အရည်အသွေး	-10.558
▁accident	-10.5583
▁advantage	-10.5583
▁500	-10.5584
ကိရိယာများ	-10.5586
▁responsibility	-10.5594
▁survive	-10.5594
ဗုံး	-10.5594
▁snow	-10.5596
▁title	-10.5604
ကိစ္စရပ်များ	-10.5604
▁intended	-10.5605
psych	-10.5608
▁consistent	-10.5608
မစ်ရှင်	-10.5617
ရှိတယ်ဆိုတာ	-10.562
▁centre	-10.5621
▁အသုံးပြု၍	-10.5632
▁ပြစ်ဒဏ်	-10.5638
မုန်တိုင်း	-10.5638
▁expense	-10.5639
▁transfer	-10.564
▁screening	-10.5645
▁mosque	-10.5649
ease	-10.5654
▁taste	-10.5658
▁michael	-10.566
▁employee	-10.5661
မှုများကြောင့်	-10.5681
▁message	-10.5682
▁contact	-10.5682
စေချင်	-10.5683
▁ဒါပဲ	-10.5684
▁ရီပတ်ဘလီကန်	-10.5684
▁screen	-10.5686
ဉ	-10.5691
နတ်ဘုရား	-10.5693
လုပ်ခဲ့တာ	-10.5693
▁content	-10.5693
▁ဒီဇိုင်းထုတ်ထား	-10.57
ပေါ်သို့	-10.5705
▁prepared	-10.5713
▁technique	-10.5715
ဧ	-10.5715
▁biggest	-10.5715
▁ငါမင်းကို	-10.5715
▁steel	-10.5716
▁mag	-10.5725
▁adult	-10.5727
▁Mary	-10.5728
ဖွယ်ရာ	-10.5728
▁fail	-10.5733
▁implementation	-10.5736
▁competition	-10.5737
ဖောင်း	-10.5737
ဆဲဖြစ်သည်။	-10.5739
▁starr	-10.5739
▁attract	-10.5742
ဖောက်သည်များ	-10.5743
ဇ်	-10.5746
▁argument	-10.5748
▁အပြန်အလှန်	-10.5748
▁ဖြစ်နိုင်ခြေ	-10.5755
ပျော်စရာကောင်း	-10.5758
▁တင်သွင်း	-10.576
▁draft	-10.5774
မျိုးစုံ	-10.5774
▁အခြေခံ၍	-10.5781
▁senate	-10.5781
မှာရှိတဲ့	-10.5783
နိုင်ခြေ	-10.5786
▁extremely	-10.5791
▁oldest	-10.5791
ဝန်း	-10.5791
▁traffic	-10.5792
▁breath	-10.5793
ပါနဲ့။	-10.5793
▁russian	-10.5801
▁holy	-10.5803
သွားရောက်လည်ပတ်	-10.5804
mouth	-10.5816
အပြည့်	-10.5823
▁relax	-10.5826
▁describe	-10.5828
လျား	-10.5829
▁tall	-10.5829
ဆော့ဖ်ဝဲ	-10.5837
အပြုအမူ	-10.5837
▁neighborhood	-10.5837
ခြင်းမရှိပေ။	-10.584
အစ်ကို	-10.5843
▁ရောက်ရှိလာ	-10.5844
အကျိုးအမြတ်	-10.5848
▁shoot	-10.5859
▁william	-10.586
▁pressure	-10.5863
▁thorn	-10.5872
ကိုလိုနီ	-10.5872
အစီရင်ခံ	-10.5873
▁သေချာစေရန်	-10.5874
▁တတ်နိုင်	-10.5876
▁brand	-10.5879
ခန္ဓာကိုယ်	-10.5882
ချာ	-10.5892
မွေးဝမ်းကြောင်း	-10.5893
▁landscape	-10.5893
▁microsoft	-10.5893
▁စွန့်လွှတ်	-10.5893
သားသမီး	-10.5895
▁prime	-10.5901
▁ထိန်းထား	-10.591
▁overall	-10.5914
တစ်စီး	-10.5919
▁conversation	-10.5927
▁စွန့်ပစ်	-10.5927
▁အောင်ပွဲ	-10.5929
▁movement	-10.5937
▁compliance	-10.5938
လျှို	-10.5938
▁မအောင်မြင်	-10.5941
အခြား	-10.5946
▁radio	-10.5949
▁dollar	-10.5949
ပျော့ပျောင်း	-10.595
▁chapel	-10.595
▁counsel	-10.5961
လာသည်နှင့်အမျှ	-10.5982
▁industrial	-10.5983
▁စိန်ခေါ်မှု	-10.5983
▁plain	-10.5985
▁gather	-10.599
▁fifty	-10.5995
▁susan	-10.5995
▁client	-10.5997
▁2010	-10.5998
▁described	-10.6009
▁Bush	-10.6011
▁ဆောက်လုပ်ရေး	-10.6015
ရှာတွေ့	-10.6018
▁spread	-10.6018
▁grass	-10.6019
စာရင်းစစ်များသည်	-10.602
သင့်သည်ဟု	-10.6023
ဖော်ပြချက်	-10.6028
▁actual	-10.6029
▁revolution	-10.6029
▁flexibility	-10.604
▁confirm	-10.604
▁direction	-10.6041
▁opera	-10.6042
stand	-10.6046
▁ပါရီ	-10.6049
▁chose	-10.605
▁cup	-10.605
သတ္တု	-10.6052
▁complain	-10.6052
▁လျော့နည်း	-10.6052
▁နင်	-10.6058
မီးဖို	-10.6066
ဦးခေါင်း	-10.6069
▁mistake	-10.6075
▁lunch	-10.6075
▁အဆိုပြုချက်	-10.6075
34	-10.6077
▁june	-10.6086
▁ဘုရားသခင်	-10.6086
▁unlike	-10.6094
▁Newsweek	-10.6098
▁စူးစမ်းလေ့လာ	-10.6098
▁ဂုဏ်ယူ	-10.6098
ထိုင်ခုံ	-10.6099
▁ku	-10.6101
လုပ်နေတာ	-10.6107
▁muslim	-10.6109
▁ရနိုင်	-10.6112
66	-10.6112
scale	-10.6113
▁ပြန်သွား	-10.6117
▁generat	-10.6122
ဦးထုပ်	-10.6124
ပါပဲ၊	-10.6126
ခွာ	-10.6129
▁powerful	-10.6131
▁tape	-10.6131
▁ပုံမှန်အားဖြင့်	-10.6136
နှုန်းထားများ	-10.6137
ဗားရှင်း	-10.6144
ပြိုကျ	-10.6155
စီစဉ်	-10.6162
▁consumer	-10.6167
▁ဘယ်သောအခါမှ	-10.6167
သဘောမတူ	-10.6167
▁novel	-10.6168
▁၅၀	-10.6181
▁David	-10.619
▁clothes	-10.619
▁အဆိုပြု	-10.6195
▁ချီးကျူး	-10.6201
တေ	-10.6207
လှိုင်း	-10.6222
ဆန်းကြယ်	-10.6225
စတိုင်	-10.6233
▁တွေ့ရှိခဲ့သည်။	-10.6235
▁shift	-10.6239
ဇာတ်ကောင်	-10.6248
▁capture	-10.6248
86	-10.6248
▁ပန်းပု	-10.6249
သုတ်	-10.6249
▁ထင်မြင်	-10.625
▁ကုန်ပစ္စည်း	-10.6252
နှင့်ပတ်သက်သော	-10.6253
▁ကောင်မလေး	-10.626
▁depict	-10.6261
စိုးရိမ်	-10.6269
▁ကော်ဖီဆိုင်	-10.6271
ဆော့	-10.6271
▁ဖက်ဒရယ်အစိုးရ	-10.6274
ဥာဏ်	-10.6283
▁အရေးမကြီး	-10.6283
▁importance	-10.6284
စာရင်းစစ်	-10.6287
▁hung	-10.6292
မရှိဘူးလို့	-10.6306
မတတ်နိုင်	-10.6306
▁symbol	-10.6306
ကိုဖြတ်၍	-10.6308
ဟူ	-10.6311
98	-10.633
ibility	-10.633
▁pollution	-10.633
▁grantees	-10.633
စည်ကား	-10.6332
68	-10.6337
▁martin	-10.6344
▁ပေးချေ	-10.6345
မယ်ထင်တယ်	-10.635
▁incentive	-10.6353
▁promise	-10.6354
လုနီးပါး	-10.6355
▁တစ်နှစ်လျှင်	-10.6358
ရယူရန်	-10.636
▁legislation	-10.6365
ခမ်းနား	-10.6376
▁ခံစားရတယ်။	-10.6379
known	-10.6383
မကြိုက်ဘူး။	-10.6385
▁capacity	-10.6389
▁investigation	-10.6389
▁manufacturing	-10.6389
▁otherwise	-10.6389
▁wage	-10.639
ငြိမ်သက်	-10.6391
87	-10.6395
ခြိမ်းခြောက်	-10.6396
▁စစ်မှန်သော	-10.6398
32	-10.6399
www	-10.6401
▁decide	-10.6402
▁ရီပတ်ဘလစ်ကန်	-10.6412
▁iraq	-10.6412
▁သေချာပေါက်	-10.6421
ဖွား	-10.6423
▁ဘယ်တုန်းကမှ	-10.6424
▁unique	-10.6432
ငါ့	-10.6432
ဆက်သွယ်ရေး	-10.6435
▁golden	-10.6436
▁anywhere	-10.6436
▁monitor	-10.6436
ပြည့်စုံ	-10.6441
▁ထုတ်ပေး	-10.6443
နု	-10.6446
အခက်အခဲ	-10.6448
့စ်	-10.6455
▁recognized	-10.6455
▁အီရတ်	-10.646
02	-10.646
▁လေ့ကျင့်ခန်း	-10.646
၃၀	-10.6462
▁debate	-10.6462
လွှင့်	-10.6469
ဓာတု	-10.6472
အင်တာဗျူး	-10.6472
▁gift	-10.6472
board	-10.6474
▁roof	-10.6476
▁assess	-10.6481
▁ဗီဒီယို	-10.6484
ကျမ်း	-10.6487
▁concept	-10.6489
လွှမ်းခြုံ	-10.6496
99	-10.6496
▁greatest	-10.6504
ခြယ်	-10.6507
အာရုံစူးစိုက်မှု	-10.6507
▁advice	-10.6507
▁ဘေးကင်း	-10.6508
▁Grand	-10.6508
▁defeat	-10.6509
▁register	-10.6519
▁pursu	-10.652
▁journal	-10.6523
▁စတင်ခဲ့	-10.6524
သင်္ကေတ	-10.6531
▁ပြိုင်ဆိုင်မှု	-10.6531
သုံးဆယ်	-10.6535
မွမ်းမံ	-10.6543
▁welfare	-10.6543
▁ရုတ်တရက်	-10.6543
▁climb	-10.6543
▁ဟေး	-10.6552
▁စိုက်ကြည့်	-10.6556
▁conflict	-10.6567
▁ပရော်ဖက်ရှင်နယ်	-10.6567
33	-10.657
▁student	-10.6572
▁1994	-10.6579
▁rulemaking	-10.6579
ညံ့ဖျင်း	-10.6592
မှီခို	-10.6592
▁မြို့ပြ	-10.6598
▁australia	-10.6604
▁repeat	-10.6606
▁မီးလောင်	-10.6612
▁lady	-10.6613
▁အင်္ဂလန်	-10.6616
▁အံ့အားသင့်	-10.6616
▁housing	-10.6616
▁magic	-10.662
ခြေထောက်	-10.6625
▁surrounding	-10.6628
▁ခေါင်းညိတ်	-10.6628
▁smoke	-10.6628
▁ဆွဲထုတ်	-10.6629
▁တိုက်ခန်း	-10.6629
ငြီးငွေ့	-10.664
▁တိုးချဲ့	-10.664
▁worst	-10.664
မပါဘဲ	-10.6641
သွန်	-10.6647
▁london	-10.6652
▁remove	-10.6652
▁ပြန်လည်ပြင်ဆင်	-10.6656
▁congressional	-10.6664
▁laugh	-10.6669
LS	-10.6676
▁Port	-10.6681
လှေကား	-10.6681
▁ညနေ	-10.6684
အကြမ်းဖက်မှု	-10.6687
တီထွင်	-10.6688
ဟေ	-10.6692
▁tree	-10.6698
▁Service	-10.6701
▁vehicle	-10.6701
▁Starr	-10.6701
▁ယောက်ျားလေး	-10.6707
67	-10.6711
▁institution	-10.6713
▁marriage	-10.6713
▁အသားတင်	-10.6713
lope	-10.6715
▁command	-10.6717
အမျိုးသား	-10.6724
လုပ်ဖော်ကိုင်ဖက်	-10.6725
▁Vegas	-10.6725
▁ဖုံးအုပ်	-10.6725
▁ဝေးကွာ	-10.6725
▁leaving	-10.6726
▁vice	-10.6729
င်းနှီးမြှုပ်နှံ	-10.6737
▁players	-10.6741
ယ်ကျယ်ပြန့်ပြန့်	-10.6749
▁စွပ်စွဲ	-10.6755
▁celebrate	-10.6762
▁religion	-10.6762
▁dramatic	-10.6774
▁ချိန်ညှိ	-10.6774
stone	-10.6775
▁Park	-10.6776
စရာကောင်းတဲ့	-10.6779
▁တောင်တက်	-10.678
▁medieval	-10.6786
▁female	-10.6786
▁status	-10.6786
▁အလှဆင်ထား	-10.6788
▁queen	-10.6791
အန္တရာယ်များ	-10.6799
▁leadership	-10.6801
▁ရေခဲ	-10.6807
▁conclusion	-10.6811
▁football	-10.6811
▁unfortunate	-10.6811
▁dream	-10.6811
နယူး	-10.6811
▁ကျဉ်းမြောင်း	-10.6823
▁angeles	-10.6823
▁ထိတွေ့	-10.6824
▁အာရှ	-10.683
▁gene	-10.683
▁governor	-10.6836
▁solution	-10.6836
▁လျှော့စျေး	-10.6838
▁trend	-10.684
▁sister	-10.6849
နေတယ်ဆိုတာ	-10.685
▁သု	-10.6853
ဒီမိုကရေစီ	-10.686
အမှတ်တရ	-10.686
▁Post	-10.6862
▁mur	-10.6868
အသက်အရွယ်	-10.6871
▁plenty	-10.6873
▁strength	-10.6873
▁များသောအားဖြင့်	-10.6873
▁၁၄	-10.688
ပြောင်းလဲမှုများ	-10.6881
BA	-10.6881
တင်းကျပ်	-10.6885
အကျော်ကြားဆုံး	-10.6885
▁photograph	-10.6885
မမှတ်မိ	-10.689
▁guarantee	-10.6898
▁mortality	-10.6898
▁လျှပ်စစ်	-10.6898
▁changing	-10.6898
▁negative	-10.691
deem	-10.691
▁တက်လာ	-10.6911
book	-10.6913
တိမ်	-10.6914
▁massive	-10.6914
အဓိက	-10.6919
▁အံ့သြစရာကောင်း	-10.6919
▁planned	-10.6928
အိပ်မက်	-10.6935
▁ကျွန်တော့်ရဲ့	-10.6938
▁ဝင်ငွေနည်း	-10.6946
▁connection	-10.6946
▁ဆိုပါတယ်။	-10.6948
▁အိမ်တွင်း	-10.6948
▁sentence	-10.6951
▁ပြုလုပ်ခဲ့	-10.6957
ယှဉ်	-10.6959
▁afraid	-10.696
metric	-10.6962
ယဉ်	-10.6963
▁package	-10.6963
ရှားပါး	-10.6964
ဗိသုကာလက်ရာ	-10.6965
36	-10.6968
▁suppose	-10.6974
▁neighbor	-10.6985
▁ဒေသတွင်း	-10.6985
မူကြမ်း	-10.6988
သတ်မှတ်ထား	-10.699
ရှ်	-10.6994
▁familiar	-10.6997
ဝဘ်ဆိုက်	-10.6997
▁tradition	-10.6998
Martin	-10.7
ခွင့်ပြုချက်	-10.7004
ဝန်းကျင်	-10.7008
▁santa	-10.7009
▁၄၀	-10.7013
▁extend	-10.7023
▁copy	-10.7023
▁မေးခွန်းထုတ်	-10.703
▁decrease	-10.7035
▁reveal	-10.7036
နေချိန်တွင်	-10.7038
ရုံးခန်း	-10.704
▁shut	-10.7046
▁manner	-10.7047
▁အထက်တန်းကျောင်း	-10.7049
ဓား	-10.705
▁အကဲဖြတ်ခြင်း	-10.7051
အုပ်ချုပ်ရေးမှူး	-10.7052
▁highest	-10.7059
income	-10.7065
ခဲ့ပါသည်	-10.7068
▁အချိန်အတော်ကြာ	-10.7073
▁အကြီးမားဆုံး	-10.7073
▁အလယ်ခေတ်	-10.7073
▁harm	-10.7073
အနှံ့	-10.7073
ခရက်ဒစ်	-10.7086
ဒီဇိုင်း	-10.7092
ကတိကဝတ်	-10.7098
▁အထောက်အကူဖြစ်စေ	-10.7111
တစ်ခုဖြစ်သည့်	-10.7114
ရုပ်ပုံ	-10.7123
မြှောက်	-10.7124
▁chapter	-10.7124
▁ထိရောက်သော	-10.713
▁illegal	-10.7137
▁မှတ်ချက်ပေး	-10.7137
ကွပ်	-10.7137
▁လှည့်စား	-10.7138
ရက်သတ္တပတ်	-10.7149
းးးးးးးးးးးးးးး	-10.715
▁ဂျပန်နိုင်ငံ	-10.7151
▁လိုလား	-10.7152
▁facilities	-10.7162
▁opposite	-10.7162
▁ငြိမ်းချမ်းရေး	-10.7162
▁entertainment	-10.7164
ရှူ	-10.7166
မျက်နှာစာ	-10.7167
▁vacation	-10.7175
▁ကွယ်လွန်	-10.7175
ကိုးကွယ်	-10.7175
စေချင်တယ်။	-10.7181
▁pattern	-10.7188
▁ထူထောင်	-10.7188
ရတနာ	-10.7188
▁ရှည်လျားသော	-10.7189
▁ရှုမြင်	-10.719
▁pleasant	-10.72
sufficient	-10.72
▁twice	-10.72
▁ဆား	-10.7204
▁ultimate	-10.7213
▁gotten	-10.7213
ဆိုဒ်	-10.7216
၏တောင်ဘက်	-10.723
▁safety	-10.7231
▁စီမံခန့်ခွဲရေး	-10.7235
▁peak	-10.7237
▁အသုံးမပြု	-10.7239
▁အခွင့်အာဏာ	-10.7239
▁တာဝန်ခံမှု	-10.7239
▁smart	-10.7241
38	-10.7244
လာစေရန်	-10.7244
37	-10.725
အငြိမ်းစား	-10.7252
▁distinct	-10.7252
ငါတို့	-10.7253
▁စုံစမ်းစစ်ဆေး	-10.7264
▁interpret	-10.7265
▁ဘာပဲဖြစ်ဖြစ်	-10.7266
ထည့်ထား	-10.7273
▁relevant	-10.7278
နေတာကြောင့်	-10.7279
▁quick	-10.7282
▁edge	-10.7284
▁မှန်ကန်သော	-10.7286
▁install	-10.7288
▁scenario	-10.729
▁phase	-10.7291
ridge	-10.7292
ရည်မှန်းချက်များ	-10.7302
▁ပေါက်ကွဲ	-10.7304
▁irish	-10.7306
▁rough	-10.7313
▁အကြံပြုချက်များ	-10.7319
▁Jane	-10.7321
▁essential	-10.7329
▁text	-10.7329
▁dangerous	-10.7331
ပေးချေမှု	-10.7342
▁Microsoft	-10.7342
တော်လှန်ရေး	-10.7342
▁လူမျိုးရေး	-10.7345
▁တည်ရှိနေ	-10.7348
▁arrest	-10.7355
▁reference	-10.7359
▁richard	-10.7374
▁၁၁	-10.7377
▁အရေးကြီးပါသည်။	-10.7379
▁neither	-10.7381
▁အီလက်ထရွန်းနစ်	-10.7381
မယ်ဆိုရင်	-10.7382
ographic	-10.7384
▁supply	-10.7394
နွေဦး	-10.7394
▁amazing	-10.7394
▁သာမန်	-10.7395
▁failure	-10.7396
▁cavendish	-10.7408
▁White	-10.7408
စာရင်းအင်း	-10.7408
▁harbor	-10.7408
▁minute	-10.7409
▁requirement	-10.7409
▁ရူးသွပ်	-10.7421
▁launch	-10.7421
▁မူရင်း	-10.7421
▁ထားခဲ့	-10.7424
▁သိပ္ပံပညာ	-10.7428
အပျက်အစီး	-10.7434
တာဝန်ယူ	-10.7442
▁enforce	-10.7447
▁corporate	-10.7447
▁gallery	-10.746
▁suspect	-10.7463
ပစ်လိုက်	-10.7468
▁ပြန်လည်တည်ဆောက်	-10.7468
မြောင်း	-10.7473
▁မော်တော်	-10.7473
72	-10.748
▁ကြီးထွားလာ	-10.7481
▁ပိုလန်	-10.7482
▁coverage	-10.7484
▁library	-10.7486
OP	-10.7487
မြည်	-10.7487
▁glad	-10.7488
▁စီရင်ချက်	-10.7488
ဆုံ	-10.7494
▁driver	-10.7494
နှင့်အညီ	-10.7495
အသိုက်အဝန်း	-10.75
▁consult	-10.75
▁မျိုးဆက်	-10.7501
ပုံရတယ်။	-10.7507
တံတိုင်း	-10.7513
ပခုံး	-10.7513
▁tiny	-10.7513
▁egyptian	-10.7513
▁flow	-10.7515
ပထမဆုံး	-10.7515
▁စိတ်ပူ	-10.7526
သေတ္တာ	-10.7526
▁yesterday	-10.7526
▁liberal	-10.7526
▁သဘာဝပတ်ဝန်းကျင်	-10.7529
▁shape	-10.753
ဘောင်းဘီ	-10.7539
▁numerous	-10.7539
▁primary	-10.7539
အခြေခံဥပဒေ	-10.7552
မျဉ်း	-10.7552
ဖျော့	-10.7553
▁ဟုတ်ပြီ	-10.7554
▁saturday	-10.7566
တရားစွဲဆို	-10.7566
ညီညွတ်	-10.7566
▁အနိုင်ယူ	-10.7566
▁forget	-10.7568
ပုံပြင်	-10.7571
▁employer	-10.7574
▁dublin	-10.7579
view	-10.7579
▁secretary	-10.7582
▁လူဖြူ	-10.7585
▁ဆက်စပ်မှု	-10.7588
▁appreciate	-10.7592
▁နယူးယောက်	-10.7592
▁အဆိုးဆုံး	-10.7592
▁နေ့တိုင်း	-10.7596
ပျင်း	-10.7603
▁website	-10.7606
under	-10.7608
▁madeira	-10.7613
▁ဆိုလိုတာ	-10.7618
▁faith	-10.7619
သူရဲကောင်း	-10.7619
▁ကျင့်သုံး	-10.7619
အဖွဲ့ဝင်များ	-10.7621
42	-10.763
ဖြန့်ဝေ	-10.7632
▁ရှေးခေတ်	-10.7634
▁arrange	-10.7646
▁escape	-10.7646
စာဖတ်သူ	-10.7652
▁အတော်လေး	-10.7659
▁အမှန်တရား	-10.7662
ologist	-10.7668
▁driving	-10.7673
ကော့	-10.7676
▁kingdom	-10.7687
ကြော်ငြာ	-10.7699
တစ်စုံတစ်ရာ	-10.77
ဖခင်	-10.77
▁dozen	-10.77
တောင်းခံ	-10.7706
▁paul	-10.7709
ခိုင်မာ	-10.7711
▁Madeira	-10.7713
▁hindu	-10.7713
ခုံး	-10.7714
▁accountability	-10.7716
▁လူတော်တော်များ	-10.7721
▁cuba	-10.7736
▁afternoon	-10.774
ကုဒ်	-10.774
▁professor	-10.7754
▁ဖုံးကွယ်ထား	-10.7754
▁error	-10.7754
▁opportunities	-10.7767
▁ဖြည့်ဆည်းပေး	-10.7771
▁သဘောတူညီ	-10.7772
▁လွတ်လပ်သော	-10.7772
▁ဆောက်လုပ်	-10.7774
လမ်းလျှောက်	-10.778
ဖြုတ်	-10.7781
▁accurate	-10.7781
▁component	-10.7781
▁ကျွမ်းကျင်မှု	-10.7783
▁ဆီး	-10.7787
▁accomplish	-10.7794
▁convert	-10.781
▁incident	-10.7821
▁အိုကေ	-10.7835
▁volunteer	-10.7835
သပ်ရပ်	-10.7835
▁vast	-10.7843
▁ပြီးခဲ့သည့်	-10.7847
စက္ကူ	-10.7849
▁storm	-10.785
▁လူသတ်မှု	-10.785
▁ယှဉ်ပြိုင်	-10.785
လျှော	-10.7857
ကမ္ဘာပေါ်တွင်	-10.7862
▁ငယ်ရွယ်	-10.7862
အလွန်အကျွံ	-10.7862
▁လစ်ဘရယ်	-10.7862
▁ညာဘက်	-10.7863
▁divide	-10.7863
▁မျက်နှာဖုံး	-10.7863
ရည်အချင်းပြည့်မီ	-10.7866
▁jewel	-10.7871
ပန်းချီကား	-10.7876
▁piazza	-10.7876
စွပ်	-10.7876
▁ဆက်စပ်နေ	-10.7877
စောင့်ရှောက်	-10.7886
မင်္ဂလာ	-10.789
▁ဟိန္ဒူ	-10.789
▁bureau	-10.789
▁အယ်လ်	-10.789
▁အန္တရာယ်ရှိ	-10.7895
▁ခန့်မှန်းခြေ	-10.7895
အဆင်သင့်ဖြစ်	-10.79
39	-10.7902
▁participate	-10.7904
▁ရယ်မော	-10.7904
▁engineering	-10.7904
အခြေစိုက်	-10.7904
▁တစ်ယောက်တည်း	-10.7904
ဝန်ထမ်း	-10.7906
85	-10.7912
related	-10.7915
▁မေလ	-10.7916
မဟာမိတ်	-10.7917
▁friday	-10.7917
▁stretch	-10.7917
▁russia	-10.792
လေးနက်	-10.7927
▁january	-10.7931
လေလံ	-10.7934
▁impressive	-10.7945
▁april	-10.7945
▁ကျွမ်းကျင်သူ	-10.7949
lift	-10.7951
▁$3	-10.7954
စျေးကွက်	-10.7959
▁Santa	-10.7964
▁အကြံပြုထားသည်။	-10.7971
▁ကြီးပြင်းလာ	-10.7972
▁fellow	-10.7976
▁jump	-10.7982
အနီးရှိ	-10.7984
ဂြိုလ်	-10.7986
▁George	-10.7986
▁edinburgh	-10.7986
▁sample	-10.7987
▁marble	-10.7992
▁finger	-10.7998
မြုပ်	-10.8
▁William	-10.8
▁audience	-10.8
▁အမိန့်ပေး	-10.8005
aux	-10.8012
ဥက္က	-10.8014
အခမ်းအနား	-10.8014
▁constitution	-10.8014
▁စက်တင်ဘာ	-10.8014
ဝိညာဉ်	-10.8014
၏မြောက်ဘက်	-10.8016
▁portion	-10.8018
▁advise	-10.8035
လက်နက်	-10.8039
▁facility	-10.8042
▁dedicated	-10.8042
▁အပြာရောင်	-10.8042
▁promote	-10.8043
▁ထိုင်နေ	-10.8045
49	-10.805
စျေး	-10.8052
▁ထောက်ပြ	-10.8053
▁အံ့သြစရာ	-10.8055
▁medicare	-10.8056
▁privacy	-10.8056
▁distance	-10.8056
▁အားနည်းချက်	-10.8056
▁bright	-10.8067
စတုရန်း	-10.807
▁ခြေရာခံ	-10.807
▁လန်ဒန်	-10.807
▁လှေကားထစ်	-10.807
▁နှုတ်ဆက်	-10.807
▁jews	-10.8071
▁guidance	-10.8084
▁vandemeyer	-10.8084
▁Susan	-10.8084
▁အကြမ်းဖက်	-10.8085
▁ဟာသ	-10.809
▁သာလွန်	-10.8095
responsibilities	-10.8098
▁အနီးနားရှိ	-10.8098
▁ခမ်းနားသော	-10.8099
▁အာဖရိက	-10.8112
ငါးဆယ်	-10.8114
▁ရိုးရှင်းသော	-10.8119
စုစည်းမှု	-10.8124
အစစ်အမှန်	-10.8126
▁productivity	-10.8126
▁restored	-10.8126
▁teen	-10.8129
▁အထက်လွှတ်တော်	-10.8131
▁native	-10.8133
▁recognize	-10.8135
မြှင့်	-10.8137
▁contribute	-10.814
အမှုဆောင်အရာရှိ	-10.8146
မဲဆန္ဒရှင်	-10.8154
▁dropped	-10.8155
▁ခေတ်သစ်	-10.8161
လွန်ကဲ	-10.8168
▁1960	-10.8176
▁tele	-10.8189
▁အလိုအလျောက်	-10.8197
▁အဆိုအရ	-10.8197
▁monday	-10.82
▁ideal	-10.8209
▁herself	-10.8211
▁permanent	-10.8211
▁ပေါ်တူဂီ	-10.8211
▁စုဆောင်းငွေ	-10.8218
▁politician	-10.8225
▁National	-10.8225
▁ခွဲခြားသတ်မှတ်	-10.8227
ပရောဂျက်	-10.8239
လူဦးရေ	-10.8239
ကြောက်ရွံ့	-10.8239
ညီလာခံ	-10.8239
▁ဆေးဘက်ဆိုင်ရာ	-10.8239
▁pray	-10.8239
စွက်ဖက်	-10.8244
▁ဆိုးရွားသော	-10.8245
▁အခြေခံအားဖြင့်	-10.8245
မွှေး	-10.8253
▁Medicare	-10.8253
▁Richard	-10.8253
84	-10.826
▁1993	-10.8268
▁gdp	-10.8268
ပရိုဂရမ်များ	-10.8273
▁အလွန်ကောင်းမွန်	-10.8274
တွေ့ရှိချက်များ	-10.8277
▁apparently	-10.8282
▁september	-10.8282
▁ဇွန်လ	-10.8282
▁silver	-10.8296
▁ပိုင်းခြား	-10.8297
▁blow	-10.8304
▁approved	-10.831
▁ဆင်တူ	-10.8311
ဝင်ရောက်စွက်ဖက်	-10.8316
▁substantial	-10.8325
▁consist	-10.8327
62	-10.8327
▁patient	-10.8338
▁instrument	-10.8339
▁settlement	-10.8339
▁မိမိကိုယ်ကို	-10.8339
▁indeed	-10.8344
သူများထံ	-10.8349
▁physi	-10.8353
ဂိုဏ်း	-10.8353
▁extent	-10.8354
ကလွဲလို့	-10.8355
▁sexual	-10.8355
2,000	-10.8358
▁အမျိုးမျိုးသော	-10.8358
▁1970	-10.8365
▁selection	-10.8368
မိဘတွေ	-10.8372
▁စုံစမ်း	-10.8377
စကျင်ကျောက်	-10.8382
▁အမြတ်အစွန်း	-10.8382
ဓလေ့	-10.8398
▁giant	-10.8399
အကျိုးဆက်	-10.8404
ချဲ့	-10.8411
▁magnificent	-10.8411
▁freedom	-10.8413
နီးစပ်	-10.8419
▁ဘုံ	-10.8422
▁retire	-10.8425
▁ပျံသန်း	-10.8426
▁chamber	-10.8427
▁မြေအောက်	-10.8434
အပြီးတွင်	-10.8437
▁FGD	-10.844
▁score	-10.8447
▁mosaic	-10.8455
▁ဖျက်သိမ်း	-10.8455
▁determin	-10.8468
ဆယ့်နှစ်	-10.8469
82	-10.8477
▁proceed	-10.8484
တစ်ဦးတည်း	-10.8497
▁somewhere	-10.8498
▁fgd	-10.8499
empt	-10.85
▁worried	-10.8513
field	-10.8513
အလင်းရောင်	-10.8513
အခြေချ	-10.8513
▁retain	-10.8513
▁becoming	-10.8514
▁panel	-10.8514
▁ကောင်းပါတယ်။	-10.8538
▁swimming	-10.8542
▁ယေရှု	-10.8542
▁တည်းခို	-10.8542
▁shock	-10.8542
ထုတ်လုပ်သူ	-10.8548
ဖွံ့ဖြိုး	-10.855
▁cete	-10.855
▁strip	-10.8556
ရလဒ်	-10.8561
▁ခြိမ်းခြောက်မှု	-10.8562
▁mandate	-10.8582
နဲ့တူတယ်	-10.8583
းးးးးးးးးးးးး	-10.8586
▁october	-10.8586
▁ရံဖန်ရံခါ	-10.8586
▁မြင်းစီး	-10.8586
▁democratic	-10.8594
မဲဆွယ်စည်းရုံး	-10.8601
စပျစ်	-10.8601
▁conclude	-10.8601
▁ဘုန်းကြီး	-10.8602
▁attractive	-10.8606
န္တ	-10.8613
တွယ်	-10.8615
▁ပျောက်ကွယ်သွား	-10.8616
▁ဝန်းရံ	-10.8616
▁sharp	-10.8617
▁carrier	-10.8617
▁ရုပ်ပိုင်း	-10.8617
ရှိသေးတယ်	-10.8617
▁awful	-10.8617
▁ကုန်ဆုံး	-10.8619
▁Cete	-10.8621
ရေတွက်	-10.8629
▁ကျူးဘား	-10.863
ကျင့်ဝတ်	-10.8634
အသုံးအနှုန်း	-10.8645
▁တတ်နိုင်သမျှ	-10.8646
▁speed	-10.8647
▁renaissance	-10.866
▁length	-10.866
▁ဟေ့	-10.8663
▁fraud	-10.8664
IV	-10.8673
▁announced	-10.8675
▁ဧပြီလ	-10.8675
▁installation	-10.8679
worth	-10.8684
အာရုံစိုက်	-10.8685
rving	-10.8692
တစ်လျှောက်လုံး	-10.8694
▁treasure	-10.8705
▁စက်ဘီး	-10.8705
▁အာရပ်	-10.8715
စက္ကန့်	-10.872
▁strategy	-10.872
▁carried	-10.872
▁league	-10.8734
▁ယေဘူယျအားဖြင့်	-10.8735
▁သန့်ရှင်းသော	-10.8738
▁deficit	-10.8749
▁ငြင်းပယ်	-10.8749
သေးသေးလေး	-10.8749
▁တိကျသော	-10.8754
ပြန်လည်သုံးသပ်	-10.8755
▁lincoln	-10.8764
အပြင်ဘက်တွင်	-10.8764
▁Dublin	-10.8779
▁Edinburgh	-10.8779
▁အာကာသ	-10.8779
▁witness	-10.8779
▁carved	-10.878
▁disease	-10.8783
▁ရောနှော	-10.8794
▁အလယ်အလတ်	-10.8794
▁welcome	-10.8794
▁စည်းရုံး	-10.8795
▁salt	-10.8795
ရှေးဟောင်းသုတေသန	-10.8799
▁လေထုညစ်ညမ်းမှု	-10.8809
▁calm	-10.8811
▁လွှဲပြောင်းပေး	-10.8825
▁subsid	-10.883
▁လွှတ်တော်	-10.8836
▁odd	-10.8838
▁ပြည့်လွန်နှစ်	-10.884
ပျံ့နှံ့	-10.884
▁surrounded	-10.884
▁ဟဲဟဲ	-10.884
▁စိမ်းလန်း	-10.884
စရာမလို	-10.8844
▁နှိမ့်ချ	-10.8855
▁supreme	-10.8855
▁ဂျမေကာ	-10.8855
ဗိုက်	-10.8869
ရုပ်ပွားတော်	-10.887
▁illustrat	-10.887
▁မင်းငါ့ကို	-10.887
လျော်ကြေး	-10.8871
▁ထပ်လောင်း	-10.8873
ဖိုင်	-10.8874
▁ရယ်စရာ	-10.8878
▁ကောက်ချက်ချ	-10.8885
ကြီးထွား	-10.8891
▁စည်းကမ်းချက်	-10.8894
▁execut	-10.8897
အတားအဆီး	-10.89
တို့ကိုယ်သူတို့	-10.8905
ပြဌာန်း	-10.8915
bbed	-10.8924
▁IRS	-10.8931
▁ကြည်နူး	-10.8931
▁basically	-10.8933
▁communities	-10.8946
တယ်ဆိုရင်	-10.8948
▁scotland	-10.8961
▁nodded	-10.8961
▁presence	-10.8962
▁တရုတ်နိုင်ငံ	-10.8966
▁neat	-10.8969
▁sorry	-10.8977
▁ကနေဒါ	-10.8977
▁ငို	-10.8981
ယောက်ျား	-10.8986
▁ကော်ပိုရိတ်	-10.8992
▁shadow	-10.8992
▁monica	-10.8995
▁villa	-10.9005
▁အဆက်မပြတ်	-10.9007
▁Gothic	-10.9007
▁worship	-10.9007
▁gothic	-10.9007
▁အရပ်ဘက်	-10.9007
▁shore	-10.9015
56	-10.9021
သိမ်မွေ့	-10.9022
▁ဂရုတစိုက်	-10.9022
▁ပြောကြားခဲ့သည်	-10.9026
နီးယား	-10.903
▁catholic	-10.9038
▁ရှုံးနိမ့်	-10.9038
▁ဆန်းစစ်	-10.9038
▁reserve	-10.9047
▁historic	-10.9047
▁loud	-10.905
▁ပါဝင်သူများ	-10.905
ကြွေးမြီ	-10.9053
▁poverty	-10.9053
▁စားသုံးသူ	-10.9053
▁operating	-10.9057
▁vision	-10.9059
▁ကျော	-10.9066
▁advertising	-10.9069
▁succeed	-10.9069
▁channel	-10.9084
ဗျူရို	-10.9084
သတိမထားမိ	-10.9084
အကျပ်အတည်း	-10.9084
▁amendment	-10.9084
▁House	-10.9087
▁မတ်လ	-10.9088
တစ်ပုဒ်	-10.9092
▁steve	-10.9094
▁crash	-10.91
▁publish	-10.9114
▁အိမ်ဖြူတော်	-10.9115
▁terror	-10.9115
▁ခိုင်မာသော	-10.9117
▁hide	-10.9128
ပါမောက္ခ	-10.9131
▁အကျဉ်းချုပ်	-10.9131
▁upset	-10.9136
မျှော်လင့်ပါတယ်။	-10.9137
▁detect	-10.9137
▁approximately	-10.9146
▁လိမ်လည်မှု	-10.9146
▁မကြာခင်	-10.9146
ထည့်သွင်း	-10.9153
မိန့်ခွန်း	-10.9162
▁မည်သည့်အခါမျှ	-10.9162
▁preserve	-10.9168
▁desire	-10.917
▁destination	-10.9177
▁introduce	-10.9177
လှုံ့ဆော်	-10.919
▁ဂျူးလူမျိုး	-10.9191
တည်နေရာ	-10.9192
ိပက္ခ	-10.9193
▁ဆက်လက်လုပ်ဆောင်	-10.92
▁လောင်းကစား	-10.9209
▁plus	-10.9211
▁electricity	-10.9212
▁hollywood	-10.9224
▁စေတနာ့ဝန်ထမ်း	-10.9224
▁leather	-10.9224
သူဌေး	-10.924
ကြီးကြပ်ရေး	-10.9255
▁manufacture	-10.9256
ကုပ်	-10.9256
ဖြောင့်	-10.9259
▁ခမ်းနားထည်ဝါသော	-10.9271
▁တစ်ချိန်လုံး	-10.9271
▁engagement	-10.9275
လုပ်သားများ	-10.9282
ဗိမာန်	-10.9287
▁ဖယ်ထုတ်	-10.9288
ပွင့်လင်း	-10.9289
ဘယ်တော့မှ	-10.9298
ကက်သလစ်	-10.9303
▁ပြည့်နှက်နေ	-10.9303
▁ဆင်းသက်လာ	-10.9303
▁မြို့လယ်	-10.9309
ုလိုက်အပြုံလိုက်	-10.9319
လိုင်စင်	-10.9319
မှစ၍	-10.9319
▁strict	-10.9319
▁၁၃	-10.9333
▁American	-10.9335
▁rennie	-10.9335
▁troops	-10.9335
▁ဟောပြော	-10.9335
▁specifically	-10.9338
လွှတ်တော်အမတ်	-10.934
96	-10.9348
▁holiday	-10.935
ထုတ်လွှင့်	-10.9354
အမြဲတမ်း	-10.9365
အမှတ်အသား	-10.9366
▁စိုက်ပျိုးရေး	-10.9367
▁ဖမ်းဆီး	-10.9382
▁guilty	-10.9382
▁အလုံးစုံ	-10.9382
မည်မဟုတ်ကြောင်း	-10.9382
▁တစ်စုံတစ်ခု	-10.9383
▁compete	-10.9386
▁journalist	-10.9394
အုပ်စိုး	-10.9398
▁struggle	-10.9398
▁strike	-10.9398
အဘိုး	-10.9399
မုတ်	-10.9399
ddle	-10.9404
▁operate	-10.9412
▁somewhat	-10.9414
မိတ္တူ	-10.9414
ဗိုလ်ချုပ်	-10.9416
▁ကားမောင်း	-10.9421
▁ဇူလိုင်လ	-10.9431
▁fuel	-10.9432
▁တက်ရောက်	-10.9442
▁preamble	-10.9446
လွဲမှား	-10.9448
ဖြစ်နိုင်ချေ	-10.9456
၎	-10.9462
ခိုင်ခံ့	-10.9462
အကြီးအကဲ	-10.9462
▁transaction	-10.9462
▁သတ်ဖြတ်	-10.9464
▁Rennie	-10.9478
▁approval	-10.9478
▁francis	-10.9478
▁စိစစ်	-10.9478
▁ဂျော့	-10.9479
▁ဖက်ရှင်	-10.9479
▁ဖျော်ဖြေရေး	-10.948
▁ကြိုဆို	-10.948
▁branch	-10.9481
အမွေအနှစ်	-10.9494
▁chicago	-10.9494
▁merchant	-10.9494
▁rapid	-10.9495
▁စမ်းကြည့်	-10.9499
▁christmas	-10.9511
ကင်းမဲ့	-10.9515
▁background	-10.9527
▁reliability	-10.9527
▁scandal	-10.9527
▁အခြေချနေထိုင်	-10.9527
▁ဖြစ်နိုင်ချေရှိ	-10.9534
ဇန်နဝါရီ	-10.9543
▁advocate	-10.9543
တွန့်	-10.9543
▁ဆေးဝါး	-10.9545
▁bottom	-10.9559
▁explanation	-10.9559
▁ရုန်းကန်	-10.9559
ဖွင့်ဆိုချက်	-10.9559
▁regardless	-10.9561
အလှဆင်	-10.9576
နဲ့အတူ	-10.9578
မျက်နှာပြင်	-10.9581
▁valid	-10.9597
▁facade	-10.9608
▁တစ်ယောက်ယောက်က	-10.9619
▁madrid	-10.9624
▁practical	-10.9624
▁ခံနိုင်ရည်	-10.9624
▁အကာအကွယ်ပေး	-10.9641
▁ဒီဇင်ဘာ	-10.9641
▁အီးမေးလ်	-10.9641
▁applied	-10.9641
▁impose	-10.9642
▁occurred	-10.9644
▁employment	-10.9661
▁photo	-10.9673
ကုန်ထုတ်စွမ်းအား	-10.9673
▁ought	-10.9673
▁reducing	-10.9673
ငြိမ်းချမ်း	-10.9689
▁Vandemeyer	-10.969
▁gonna	-10.9691
▁ထွက်ပြေး	-10.9691
▁shook	-10.9694
သက်ရောက်မှု	-10.97
▁atmosphere	-10.9706
▁demonstrate	-10.9706
▁definition	-10.9723
▁anybody	-10.9723
ဦးနှောက်	-10.9723
ဆိုသော်	-10.9725
▁blade	-10.9744
▁ယေဘူယျ	-10.9755
▁absorb	-10.9756
rink	-10.9756
oku	-10.977
▁ကြောက်မက်ဖွယ်	-10.9772
▁Howard	-10.9777
▁မကြာသေးမီ	-10.9785
▁acid	-10.9788
▁disagree	-10.9789
▁clinic	-10.9792
▁ထက်မြက်	-10.9805
ကွန်မြူနစ်	-10.9805
▁journey	-10.9805
ထုပ်ပိုး	-10.9806
ရက်စက်ကြမ်းကြုတ်	-10.9822
▁graduate	-10.9822
▁characteristic	-10.9824
makers	-10.9828
အတွေ့အကြုံ	-10.9829
တွေးခေါ်	-10.9837
▁britain	-10.9839
conscious	-10.9841
▁fascinating	-10.9855
▁strategies	-10.9855
▁ဒေါက်တာ	-10.9855
အခြားရွေးချယ်စရာ	-10.9856
▁ပန်းချီကားများ	-10.9856
▁belief	-10.9856
ဂြိုဟ်	-10.9872
▁peninsula	-10.9872
▁chateau	-10.9872
▁လယ်သမား	-10.9873
▁အမှတ်အသားပြု	-10.9889
▁hypo	-10.9889
▁poison	-10.9906
ရှင်းရှင်း	-10.9912
▁သေဆုံးသွား	-10.9915
▁economist	-10.9923
▁baseball	-10.9939
▁extensive	-10.9939
▁ocean	-10.9939
▁ပြည့်နေ	-10.994
▁thick	-10.9948
▁gentle	-10.9951
▁မြန်မြန်	-10.9956
1,000	-10.9957
▁urban	-10.9958
▁စံပြ	-10.9969
များအကြား	-10.9976
raising	-10.9977
▁ဆရာမ	-10.9989
▁malaysia	-10.999
▁attitude	-10.999
သင်ခန်းစာ	-10.999
▁architect	-11.0005
▁ဆုပ်ကိုင်ထား	-11.0007
▁parliament	-11.0024
▁contrast	-11.0024
▁sultan	-11.0024
▁honest	-11.0025
အင်္ဂါရပ်	-11.0026
တည်ထောင်	-11.0028
▁Michael	-11.0041
▁evaluate	-11.0041
နက်ရှိုင်း	-11.0041
aving	-11.0048
▁blame	-11.0048
▁christ	-11.005
လောက်ရှိပြီ	-11.0052
▁ကြယ်	-11.0056
▁မနှစ်က	-11.0058
▁criteria	-11.0058
▁mexico	-11.0058
▁SCR	-11.0058
▁ဒုက္ခရောက်	-11.0058
▁trading	-11.0058
▁fought	-11.0075
▁silent	-11.0075
▁ခြေလျင်	-11.0075
စွဲမက်ဖွယ်ကောင်း	-11.0092
▁enhance	-11.0092
▁plaza	-11.0092
မည့်အစား	-11.0108
▁consumption	-11.0109
▁technologies	-11.0109
▁ရေငုပ်	-11.0109
▁ထွင်းထုထား	-11.0109
▁solve	-11.0118
ယွင်း	-11.0126
▁global	-11.0126
▁medicine	-11.0126
▁ဖွဲ့စည်းထား	-11.0133
နက်နဲ	-11.0139
▁electric	-11.014
▁fifteen	-11.0144
▁ခေတ္တ	-11.0144
GDP	-11.0144
▁တစ်ခါတလေ	-11.0161
ဂုဏ်သိက္ခာ	-11.0161
အယ်ဒီတာ	-11.0161
▁independence	-11.0161
▁possibly	-11.0161
▁stewardship	-11.0161
နှင့်ပတ်သက်ပြီး	-11.0164
▁flood	-11.0164
ကိုယ်စားပြု	-11.0169
awn	-11.0175
▁dirt	-11.0176
ပရိဘောဂ	-11.0178
▁ဒေသန္တရ	-11.0178
▁မြင့်မြတ်သော	-11.0178
▁clothing	-11.0178
▁transform	-11.0181
နှောင့်နှေး	-11.0195
▁reputation	-11.0195
▁origin	-11.0198
ပိုက်ဆံ	-11.0205
ပျော့	-11.0213
▁cynthia	-11.0213
▁ceiling	-11.0213
▁buried	-11.0213
ပုံမပေါ်	-11.0213
▁ငါအဲဒါကို	-11.0213
▁flee	-11.0221
ပုဒ်	-11.0222
▁virtual	-11.023
▁commitment	-11.023
ဗိသုကာပညာရှင်	-11.0231
▁လှုံ့ဆော်ပေး	-11.0243
▁emotion	-11.0247
▁ပယ်ချ	-11.0248
▁ဆယ်ကျော်သက်	-11.0254
69	-11.0263
ကော်ဇော	-11.0265
▁concert	-11.0265
▁စကားမပြော	-11.0265
▁courtyard	-11.0265
▁quote	-11.0273
မြင်လိုက်ရ	-11.0278
▁ဆုတောင်း	-11.03
▁comprehensive	-11.0317
▁ဧရာမ	-11.0317
▁railway	-11.0317
▁scholar	-11.0317
▁chemical	-11.0317
▁DOD	-11.0335
▁ပြန်လည်ပြုပြင်	-11.0335
▁imperial	-11.0335
▁motivat	-11.0335
▁ခန့်အပ်	-11.0337
▁rush	-11.0337
ညနေခင်း	-11.0338
scribe	-11.0338
friend	-11.0352
▁နတ်ဆိုး	-11.0352
▁လူသိရှင်ကြား	-11.0352
▁သာမာန်	-11.0352
သေနတ်	-11.0353
လို့ရတယ်	-11.0362
▁coordinat	-11.037
▁random	-11.0371
▁empty	-11.0371
နောက်ကျော	-11.0372
▁လျှောက်သွား	-11.0384
ခွေး	-11.039
▁ထွက်ခွာသွား	-11.0397
▁Charles	-11.0405
▁fruit	-11.0405
▁talent	-11.0406
▁grave	-11.0418
▁spectacular	-11.0423
▁ခုခံကာကွယ်	-11.0423
▁unusual	-11.0423
▁beauty	-11.0423
▁ဗုဒ္ဓဘာသာ	-11.0423
လုပ်ငန်းဆောင်တာ	-11.0423
နှစ်လောက်က	-11.0425
▁december	-11.044
ကြိုးပမ်းအားထုတ်	-11.044
ရင်ဆိုင်နေရ	-11.0443
ဥရောပ	-11.0446
▁ပစ်ချ	-11.0458
▁description	-11.0458
▁သတ်ပစ်	-11.0459
▁repair	-11.046
▁committed	-11.0476
▁တယ်လီဖုန်း	-11.0476
▁ရှေးအကျဆုံး	-11.0476
▁subsequent	-11.0476
▁convince	-11.0476
▁ibiza	-11.0476
▁Brown	-11.0476
▁သိမ်းဆည်းထား	-11.0479
ဧည့်သည်များ	-11.0486
▁import	-11.0511
သဘောသဘာဝ	-11.0511
▁elegant	-11.0511
▁prosecut	-11.0511
▁မွေးမြူ	-11.0512
တေးဂီတ	-11.0513
▁severe	-11.0513
ကျွန်ုပ်တို့	-11.052
ဆူညံ	-11.0529
▁telephone	-11.0529
▁slightly	-11.0529
▁everywhere	-11.0547
▁penalty	-11.0547
▁elderly	-11.0547
▁လိမ်ညာ	-11.0547
▁surge	-11.0555
တောင်တန်းများ	-11.0562
drew	-11.0564
▁ကိုယ်ကျင့်တရား	-11.0565
▁decorated	-11.0565
▁disaster	-11.0565
ထူထပ်	-11.0568
itude	-11.0581
▁adequate	-11.0583
▁recipient	-11.0583
▁instruct	-11.0583
▁chronic	-11.0583
▁ဖက်ဒရယ်အေဂျင်စီ	-11.0583
▁consequence	-11.0601
▁twelve	-11.0601
▁လိင်တူချစ်သူ	-11.0601
▁လောလောဆယ်	-11.0601
trained	-11.0601
▁truly	-11.0619
အရှုပ်တော်ပုံ	-11.0637
▁napoleon	-11.0637
ပါလီမန်	-11.0637
▁မလေးရှား	-11.0637
▁truck	-11.0641
▁engage	-11.0651
▁bronze	-11.0655
▁mercury	-11.0655
▁ရပ်နေ	-11.0665
▁judgment	-11.0673
▁ပါလက်စတိုင်း	-11.0673
▁ဘေ့စ်ဘော	-11.0673
▁South	-11.0673
ကြားဝင်ဆောင်ရွက်	-11.0674
▁Old	-11.0674
▁primarily	-11.0691
▁ပုဂ္ဂိုလ်ရေး	-11.0692
▁horrible	-11.071
▁retrofit	-11.071
သမဂ္ဂ	-11.071
▁praise	-11.071
▁gross	-11.071
ခြင်	-11.0717
▁စီစဉ်ထား	-11.0722
▁Ibiza	-11.0728
▁pleasure	-11.0728
▁Hotel	-11.073
မြက်ခင်း	-11.0764
နယ်နိမိတ်	-11.0764
လုံးလုံးလျားလျား	-11.0764
▁treasury	-11.0764
▁crisis	-11.0764
▁မနေ့ညက	-11.0764
▁အပေါ်ထပ်	-11.0765
▁ဖမ်းမိ	-11.0766
▁စွဲလမ်း	-11.0766
▁နည်းစနစ်	-11.0767
▁korea	-11.0767
▁မတ်တပ်ရပ်	-11.0783
▁ပါးစပ်	-11.0784
which	-11.0788
▁မြင့်တက်လာ	-11.0801
▁အားကိုး	-11.0802
▁click	-11.0804
▁ခရစ်	-11.082
▁cliff	-11.0821
▁possibility	-11.0838
▁ယာယီ	-11.0838
ဂျာမနီ	-11.0838
▁ယခုအချိန်တွင်	-11.0838
▁ချိုးဖောက်	-11.0838
▁deserve	-11.0845
▁confident	-11.0856
▁တရားမဝင်	-11.0856
▁guidelines	-11.0856
▁အသိပေး	-11.0859
▁custom	-11.0864
ပဲဖြစ်ဖြစ်	-11.0872
▁division	-11.0875
▁bargain	-11.0875
▁ရောင်စုံ	-11.0875
▁eliminate	-11.0893
▁terrace	-11.0893
▁ဂြိုလ်သား	-11.0894
ရှေးဟောင်း	-11.0905
မက်လုံးများ	-11.0911
▁uncertain	-11.0912
▁Vrenna	-11.0912
▁territory	-11.0912
▁vrenna	-11.0912
▁ဝင်ခွင့်	-11.0927
▁surprising	-11.093
▁devoted	-11.093
▁device	-11.0931
▁experiment	-11.0949
▁comparison	-11.0949
▁florida	-11.0949
▁cooper	-11.0949
ကျွန်တော်တို့ရဲ့	-11.0953
▁eligible	-11.0968
▁ဂျေရုဆလင်	-11.0968
အစဉ်အလာ	-11.0968
▁silence	-11.0968
▁ပြုပြင်မွမ်းမံ	-11.0968
▁အရသာရှိ	-11.0969
ခံထားရ	-11.0973
ဤ	-11.0983
▁administrative	-11.0986
▁maintenance	-11.0986
▁relation	-11.0987
▁ထင်ဟပ်စေ	-11.1001
▁crazy	-11.1005
▁observation	-11.1005
အသီးသီး	-11.1005
မည်ဆိုပါက	-11.101
▁strychnine	-11.1024
ဆယ့်တစ်	-11.1024
▁expenditure	-11.1043
▁exposure	-11.1043
▁ပေါ်ပေါက်လာ	-11.1043
▁ဗြိတိသျှတို့	-11.1059
▁lawrence	-11.1062
▁ရပ်ရွာ	-11.1062
▁oversight	-11.1062
▁remind	-11.1065
▁လှုံ့ဆော်မှု	-11.1069
ပြည့်မီသော	-11.1072
▁lewinsky	-11.108
▁perspective	-11.108
▁Clear	-11.1081
▁ညီမျှ	-11.1081
▁concentration	-11.1099
န္ဓ	-11.1118
နှုတ်ခမ်း	-11.1118
▁universal	-11.1118
▁vegetable	-11.1118
▁ဆေးလိပ်သောက်	-11.1118
▁scottish	-11.1118
▁မတော်တဆ	-11.1125
▁အောက်လွှတ်တော်	-11.1129
ဗိသုကာ	-11.1129
▁republic	-11.1131
▁confidence	-11.1137
▁thursday	-11.1137
▁tuesday	-11.1137
▁မက္ကဆီကို	-11.1137
လွင့်	-11.1137
▁ကတိပြု	-11.1137
အမူအရာ	-11.1138
▁စံနမူနာ	-11.1156
▁အမိုက်စား	-11.1156
▁လိုက်ဖက်	-11.1159
▁intellectual	-11.1175
▁အခြားအရာများ	-11.1186
▁လိင်ပိုင်း	-11.1194
▁ပစ်ခတ်	-11.1195
မျော	-11.1202
▁မရောက်ဖူး	-11.121
စိတ်မ၀င်စား	-11.1213
▁အံ့မခန်း	-11.1213
▁violent	-11.1214
▁soviet	-11.1214
▁တိုးမြင့်လာ	-11.1214
စာတစ်စောင်	-11.1215
▁administrator	-11.1233
▁စောစော	-11.1233
ဝယ်လိုအား	-11.1233
▁voting	-11.1234
ဗီယက်နမ်	-11.1252
▁combination	-11.1252
▁residence	-11.1252
▁daniel	-11.1252
▁ထက်ဝက်	-11.1253
နှစ်ဦးစလုံး	-11.1253
▁orange	-11.1254
အမဲလိုက်	-11.1257
▁kennedy	-11.1271
▁တွန်းလှန်	-11.1271
▁အောက်တိုဘာလ	-11.1271
▁Thorn	-11.1271
▁ပြင်းထန်စွာ	-11.1272
▁solid	-11.1273
▁အိုးးးးးးးးးးး	-11.1289
▁စာနယ်ဇင်း	-11.129
▁relief	-11.129
▁nurse	-11.129
▁prepare	-11.1294
၎င်း၏	-11.1304
▁corrupt	-11.131
▁avenue	-11.131
နဲ့ပတ်သက်တဲ့	-11.131
▁smell	-11.131
စတော့ရှယ်ယာ	-11.1329
▁bradley	-11.1329
▁တောရိုင်း	-11.1329
▁ငယ်ငယ်က	-11.1336
ကြင်နာ	-11.1348
ဥက္ကဌ	-11.1348
▁ဘာလို့လဲဆိုတော့	-11.1368
▁အရောင်းအ၀ယ်	-11.1368
စီးရီး	-11.1368
▁bunch	-11.1368
စံချိန်စံညွှန်း	-11.1387
အခိုက်အတန့်	-11.1387
▁ireland	-11.1389
၍မရပါ။	-11.1389
▁Steve	-11.1391
ရောင်ခြည်	-11.1407
▁license	-11.1407
▁statute	-11.1426
▁replied	-11.1426
ကျဉ်း	-11.1444
▁applicable	-11.1446
ography	-11.1447
▁henry	-11.1448
အံဝင်ခွင်ကျ	-11.1465
▁minimum	-11.1465
▁acquire	-11.1465
ဒီဂရီ	-11.1466
မည်နည်း။	-11.1468
အကူအညီပေးရေး	-11.1485
▁မနေ့က	-11.1485
▁angry	-11.1487
▁danger	-11.1503
ပင်ဆိုစေကာမူ	-11.1505
ဖုံးလွှမ်း	-11.1505
ယန္တရား	-11.1505
▁shelter	-11.1505
▁carpet	-11.1505
▁distribution	-11.1524
▁earthquake	-11.1524
▁splendid	-11.1524
▁excess	-11.1525
▁ဗိမာန်တော်	-11.1525
ကျည်	-11.1525
▁employ	-11.1526
ဖောင်ဒေးရှင်း	-11.1544
▁adventure	-11.1544
မွှား	-11.1544
ရှင်းတမ်းများ	-11.1565
ယွန်	-11.1567
နိုင်ဖွယ်ရှိ	-11.1581
▁advertise	-11.1584
▁february	-11.1584
▁efficiency	-11.1604
▁vietnam	-11.1604
▁ဓါတ်	-11.1604
▁emerge	-11.1605
▁Bradley	-11.1624
▁Lawrence	-11.1624
▁tomorrow	-11.1624
▁cried	-11.1625
▁competitive	-11.1644
▁thorough	-11.1644
▁နှင်ထုတ်	-11.1644
▁လဲလှယ်	-11.1644
▁bottle	-11.1644
▁ခိုးယူ	-11.1645
▁possess	-11.1664
▁principal	-11.1664
▁ဂျူရီလူကြီး	-11.1664
▁Place	-11.1664
▁borrow	-11.1664
အမိုးခုံး	-11.1664
ပံ့ပိုးပေးပါသည်။	-11.1664
▁အေးခဲ	-11.1664
▁begun	-11.1664
,500	-11.1681
▁ခက်ခက်ခဲခဲ	-11.1684
▁ကာဒန်း	-11.1684
စာအုပ်တစ်အုပ်	-11.1684
▁နို့	-11.1685
▁သဲကန္တာရ	-11.1704
▁wolf	-11.1706
▁ကွဲလွဲ	-11.1709
အလုပ်သမားများ	-11.1721
▁nixon	-11.1724
▁wednesday	-11.1724
▁နိဂုံးချုပ်	-11.1724
▁မကြာခဏဆိုသလို	-11.1724
▁Skies	-11.1724
▁ပစ်သတ်	-11.1725
အင်္ဂါ	-11.1742
လှည်း	-11.1744
▁buddhist	-11.1744
▁ကျွန်းဆွယ်	-11.1744
▁ဂန္တဝင်	-11.1744
▁စာမေးပွဲ	-11.1744
▁scream	-11.1744
▁resource	-11.1746
ဗုဒ္ဓ	-11.1764
▁ပေါ့ပေါ့ပါးပါး	-11.1764
အိမ်နီးချင်း	-11.1764
▁စနေနေ့	-11.1764
▁memory	-11.1764
▁session	-11.1765
▁မြင်တွေ့ရ	-11.1783
စိမ့်	-11.1785
▁collapse	-11.1785
▁studied	-11.1785
▁valuable	-11.1785
သတ္တိ	-11.1785
▁Smith	-11.1785
FDA	-11.1785
▁ထမ်းဆောင်	-11.1785
ဖြည့်စွက်	-11.1789
ဓိပ္ပာယ်ဖွင့်ဆို	-11.1804
▁hidden	-11.1805
▁summary	-11.1805
▁tokyo	-11.1805
▁အရေးယူ	-11.1806
▁compare	-11.181
▁ခရစ္စမတ်	-11.1825
▁ငွေရေးကြေးရေး	-11.1825
▁ပူးတွဲ	-11.1825
ဘယ်မှာလဲ	-11.1835
▁appropriation	-11.1845
▁sensitive	-11.1845
▁bodies	-11.1846
▁assert	-11.1851
▁whittington	-11.1866
▁personnel	-11.1866
သိုလှောင်	-11.1886
▁appendix	-11.1886
▁improper	-11.1886
▁Green	-11.1887
အဲဒီ	-11.1903
▁ဘုရှ်	-11.1907
▁literature	-11.1907
ရှေးရိုးစွဲ	-11.1907
▁turkey	-11.1907
▁ထာဝရ	-11.1927
▁နပိုလီယံ	-11.1927
▁mccain	-11.1927
▁မြက်ခင်းပြင်	-11.1927
▁Center	-11.1928
▁ခဏလောက်	-11.1928
အဆက်အသွယ်	-11.1948
▁thomas	-11.1948
▁ယေဘုယျ	-11.1967
ကုလားထိုင်	-11.1969
ချွေတာရေး	-11.1969
▁turkish	-11.1969
ညှပ်	-11.1969
▁attribut	-11.1989
ထမင်းစား	-11.1989
▁ဘယ်သူ့ကိုမှ	-11.1989
သတ္တဝါ	-11.1989
▁ခွင့်လွှတ်	-11.199
▁မှတ်သားထား	-11.2005
▁elsewhere	-11.201
▁monastery	-11.201
▁ရှာမတွေ့	-11.201
$	-11.2021
▁အထက်တန်း	-11.203
ပြုစုပျိုးထောင်	-11.2031
▁တစ်စုံတစ်ဦး	-11.2031
ဝဘ်ဆိုဒ်	-11.2034
နိယာမ	-11.2051
▁understood	-11.2051
▁ဒုတိယကမ္ဘာစစ်	-11.2051
▁conquer	-11.2053
▁improving	-11.2072
▁ထပ်ခါတလဲလဲ	-11.2072
▁abortion	-11.2093
▁divorce	-11.2093
▁ထိထိရောက်ရောက်	-11.2093
▁micro	-11.2093
▁Phil	-11.2108
ချန်ပီယံ	-11.2114
awk	-11.2127
လင့်ခ်	-11.2135
▁knock	-11.2135
▁အကျဉ်းသား	-11.2136
သမုဒ္ဒရာ	-11.2156
▁ပြတ်ပြတ်သားသား	-11.2156
▁အမှားအယွင်း	-11.2156
▁stupid	-11.2156
▁broadcast	-11.2156
▁Piazza	-11.2177
▁နောက်တစ်ကြိမ်	-11.2177
▁champion	-11.2177
▁ကျယ်ဝန်း	-11.2177
▁အိမ်ထောင်စုများ	-11.2177
▁plate	-11.2187
▁ဝဘ်	-11.2195
▁Kennedy	-11.2198
▁ဇိမ်ခံ	-11.2198
▁အလုပ်လက်မဲ့	-11.2198
ဆယ့်ကိုး	-11.2219
▁context	-11.2219
▁SEC	-11.2219
▁ချို့ယွင်းချက်	-11.2223
မြှုပ်	-11.224
▁framework	-11.2241
▁ဖလော်ရီဒါ	-11.2241
လက်ဝတ်ရတနာ	-11.2241
▁climate	-11.2241
▁crusade	-11.2241
အမြဲ	-11.2244
▁connect	-11.2245
▁deposit	-11.2255
▁ကိုယ်ဝန်ဖျက်ချ	-11.2262
▁စောဒကတက်	-11.2262
▁invasion	-11.2262
pollutant	-11.2262
▁ကိုင်ဆောင်ထား	-11.2262
▁democracy	-11.2283
▁incorporate	-11.2283
▁အီလက်ထရွန်နစ်	-11.2283
▁အနိမ့်ဆုံး	-11.2283
▁ကြာသပတေး	-11.2304
▁artifacts	-11.2304
ဖျော်ဖြေပွဲများ	-11.2309
အနာဂတ်	-11.2312
▁boulevard	-11.2326
▁pyramid	-11.2326
▁တစ်ချိန်တည်းမှာ	-11.2326
▁sweet	-11.2326
▁carolina	-11.2347
▁ottoman	-11.2347
▁ချန်ထားခဲ့	-11.2369
▁သြစတြေးလျ	-11.2369
▁အလေးအနက်	-11.2369
မရေရာ	-11.237
▁involving	-11.239
▁မနက်ဖြန်	-11.239
▁kitchen	-11.239
▁သတိထားမိ	-11.2391
▁necessarily	-11.2412
▁ပြဇာတ်ရုံ	-11.2412
▁crown	-11.2412
ချောက်ချား	-11.2433
▁excuse	-11.2433
မတော်တဆမှု	-11.2448
▁Nixon	-11.2455
▁senator	-11.2455
▁ကိုကြည့်ပါ	-11.2467
လိုငွေပြမှု	-11.2477
▁recycle	-11.2477
▁intention	-11.2477
▁၀တ်စုံ	-11.2477
အထွတ်အထိပ်	-11.2498
▁visibility	-11.2499
စိတ်မပူ	-11.2499
▁တိုက်တွန်း	-11.2499
▁ဘဏ္ဍာနှစ်	-11.2499
လောင်ကျွမ်း	-11.25
တဝိုက်	-11.252
▁ကုလသမဂ္ဂ	-11.252
▁ကျက်သရေ	-11.252
▁ဖေဖော်ဝါရီ	-11.252
▁veteran	-11.252
▁steep	-11.2521
တာဝန်ရှိသူများ	-11.2522
▁folks	-11.2542
▁november	-11.2542
▁pocket	-11.2564
ဒြပ်	-11.2564
▁taught	-11.2564
▁exceed	-11.2564
စမ်းသပ်	-11.258
▁immigration	-11.2586
▁update	-11.2588
၏အရှေ့ဘက်	-11.2608
▁overlook	-11.2608
▁လက်ရာမြောက်	-11.2608
valuation	-11.2626
ပိရမစ်	-11.263
▁nursing	-11.263
▁စတုတ္ထ	-11.263
▁altar	-11.2631
အမှုန်အမွှား	-11.2652
▁Angeles	-11.2652
▁eleven	-11.2652
▁အရိပ်အယောင်	-11.2652
▁ozone	-11.2652
▁reliable	-11.2652
▁တက္ကစီ	-11.2674
▁legislative	-11.2674
▁lobby	-11.2674
▁portrait	-11.2674
္ဌာန်းချက်များ	-11.2678
▁အခြားနေရာများ	-11.2694
တောင်ပံ	-11.2696
▁injured	-11.2696
ဂရုမစိုက်	-11.2703
ပြောကြားခဲ့သည်။	-11.2703
အစပျိုးမှု	-11.2718
▁plastic	-11.2718
မတိုင်ခင်	-11.2719
▁barely	-11.2719
▁steal	-11.272
▁category	-11.2741
▁အတူတကွ	-11.2741
▁byzantine	-11.2741
▁casino	-11.2741
သိပ်သည်း	-11.2741
▁Finn	-11.2745
အဲ့ဒါ	-11.2763
▁categories	-11.2763
▁furniture	-11.2763
▁ခေါ်ဆောင်သွား	-11.2786
▁addict	-11.2792
မိဘများ	-11.2802
economi	-11.2807
▁suburb	-11.281
▁testimony	-11.283
ချစ်စရာကောင်းသော	-11.2848
▁destroy	-11.2851
ယုတ်မာ	-11.2853
ထင်မြင်ချက်	-11.2854
ရာသီဥတု	-11.2868
▁sustain	-11.2875
▁switch	-11.2876
ဇွန်	-11.2877
ချွေတာမှု	-11.2898
အတိုင်ပင်ခံ	-11.2898
▁Cavendish	-11.2898
▁Whittington	-11.2898
▁အဖိုးတန်	-11.2898
ချောက်ကမ်းပါး	-11.2898
ယုတ္တိ	-11.2898
ကြားလိုက်ရ	-11.2906
▁စိုစွတ်	-11.2921
ပတ်ပတ်လည်	-11.2921
▁ထိုအချိန်တွင်	-11.2921
အံ့ဖွယ်	-11.2928
အပြုသဘောဆောင်သော	-11.2934
▁differ	-11.2938
▁တရားစီရင်ရေး	-11.2942
အကြီးကျယ်ဆုံး	-11.2943
ံရံဆေးရေးပန်းချီ	-11.2943
▁anticipat	-11.2943
▁များပြားလှသော	-11.2943
▁ရောင်ပြန်ဟပ်	-11.2943
▁scientist	-11.2943
▁fifth	-11.2943
▁ဆိုင်းဘုတ်	-11.2943
ဆယ့်လေး	-11.2966
အပြည့်အစုံ	-11.2966
▁combined	-11.2966
▁gambling	-11.2966
▁ပြဒါး	-11.2966
ဆင်ခြေဖုံး	-11.2966
လာတာနဲ့အမျှ	-11.2966
▁assassin	-11.2989
ကံကြမ္မာ	-11.2989
ကုတင်	-11.2991
▁exclusive	-11.3012
▁georgia	-11.3012
▁passenger	-11.3012
မက်ထရစ်	-11.3012
အမှတ်တံဆိပ်	-11.3012
အေးချမ်း	-11.3028
▁Renaissance	-11.3035
▁Washington	-11.3035
▁အနှောင့်အယှက်	-11.3035
ဂန္ထဝင်	-11.3035
ဖော်ရွေ	-11.3035
▁exciting	-11.3035
အိမ်ခြံမြေ	-11.3035
ခြင်းပင်ဖြစ်သည်။	-11.3035
ယဉ်ကျေး	-11.3039
▁portuguese	-11.3058
စိတ်မကောင်းဖြစ်	-11.3058
▁fountain	-11.3081
▁တိပ်ခွေ	-11.3081
▁warrior	-11.3081
▁တာဝန်ထမ်းဆောင်	-11.3104
▁dismiss	-11.3104
အစွန်	-11.3117
ဝန်ဆောင်မှုပေးသူ	-11.3117
▁resolve	-11.3127
▁profile	-11.3127
လျှပ်	-11.315
▁disappear	-11.315
သီတင်းပတ်	-11.315
▁accuracy	-11.315
▁heavily	-11.315
▁Wood	-11.315
▁လူဝင်မှု	-11.3151
အပြုသဘော	-11.3161
▁kyoto	-11.3174
▁nuclear	-11.3174
▁scientific	-11.3174
▁တစ်နှစ်ပတ်လုံး	-11.3174
▁လူတစ်ဦးချင်းစီ	-11.3174
▁uniform	-11.3174
▁မယုံနိုင်လောက်	-11.3174
▁ဖုန်းခေါ်ဆို	-11.3174
ဖြည့်ဆည်း	-11.3189
လိဂ်	-11.3197
ဟင်းလျာ	-11.3197
အမြောက်အမြား	-11.3197
ိတ်အနှောင့်အယှက်	-11.3197
▁analyze	-11.3197
▁တိုကျို	-11.3197
▁excited	-11.3197
▁substance	-11.322
ဖလှယ်	-11.322
▁အပတ်စဉ်	-11.3221
▁profession	-11.3235
▁plot	-11.3245
ဆယ့်ရှစ်	-11.3267
▁အင်္ဂါနေ့	-11.3267
▁stakeholders	-11.3291
▁လယ်ကွင်း	-11.3291
▁လင်ကွန်း	-11.3314
▁အသုံးမဝင်	-11.3338
▁boilermaker	-11.3338
▁ငယ်ငယ်တုန်းက	-11.3338
▁settled	-11.3338
▁မြှုပ်နှံထား	-11.3348
▁ordinary	-11.3362
▁precise	-11.3362
▁သူနာပြု	-11.3362
နေ့လည်စာ	-11.3362
အေးဂျင့်	-11.3385
▁galleries	-11.3385
▁အိုဇုန်း	-11.3385
▁obligation	-11.3409
▁အကျိုးအမြတ်မယူ	-11.3433
▁demonstration	-11.3433
▁fundamental	-11.3433
ကမ်ပိန်း	-11.3433
▁အထင်ရှားဆုံး	-11.3433
▁prompt	-11.3434
▁dispute	-11.3436
အဲလို	-11.3438
▁အဆင်သင့်	-11.3439
ရေးဆိုခွင့်ရှိသူ	-11.3457
▁mediterranean	-11.3457
▁sulfur	-11.3457
▁ချေမှုန်း	-11.3457
▁reagan	-11.3457
▁ခွဲခြားဆက်ဆံ	-11.3457
▁modest	-11.3458
သုတေသန	-11.3475
▁receiving	-11.3481
▁ပြန်လည်ထူထောင်	-11.3481
▁အော်တိုမန်	-11.3481
သင်္ချာ	-11.3481
power	-11.3484
4,000	-11.3503
▁analyses	-11.3505
▁အကြွေးဝယ်ကတ်	-11.3505
▁အတိုချုံး	-11.3505
လည်ပင်း	-11.3505
▁cousin	-11.3508
▁pink	-11.3508
▁tobacco	-11.3529
▁ugly	-11.3529
တုန်လှုပ်သွား	-11.355
ဿ	-11.3553
▁agricultural	-11.3553
▁surface	-11.3553
▁ရုန်းထွက်	-11.3553
▁လက်မှတ်ရေးထိုး	-11.3553
▁စိတ်မဝင်စား	-11.3553
▁portray	-11.3553
အဆောက်အဦ	-11.3571
အလွဲသုံးစားလုပ်	-11.3577
▁outdoor	-11.3578
အာဏာပိုင်များ	-11.3578
▁basilica	-11.3602
▁impression	-11.3602
▁dominate	-11.361
စားသောက်ဆိုင်	-11.361
▁supplement	-11.3626
▁acknowledg	-11.3626
▁situated	-11.3626
▁ပို့ဆောင်ပေး	-11.3626
izz	-11.3631
သံသယ	-11.3632
သိလိုက်ရ	-11.3647
ဆယ့်ခြောက်	-11.365
ဓာတ်ခွဲခန်း	-11.365
▁အယူခံဝင်	-11.365
▁buddha	-11.3675
▁participation	-11.3675
▁hawaii	-11.3675
▁southwest	-11.3675
shaped	-11.3685
ကျန်းမာ	-11.369
ယဇ်ပလ္လင်	-11.3699
▁recycling	-11.3699
▁stadium	-11.3699
▁ပုပ်ရဟန်းမင်း	-11.3699
ထင်ရှားကျော်ကြား	-11.3699
▁sweat	-11.37
▁extreme	-11.3704
▁ridiculous	-11.3724
▁အစုရှယ်ယာ	-11.3724
စျေးပေါ	-11.3724
▁ဥပဒေပြုရေး	-11.3724
▁authentic	-11.3749
▁basketball	-11.3749
▁distribute	-11.3749
▁financing	-11.3749
▁ဗုဒ္ဓဟူးနေ့	-11.3749
▁alfred	-11.3749
ကြောက်စရာကောင်း	-11.3771
သဲသောင်ပြင်	-11.3773
▁infrastructure	-11.3773
▁palazzo	-11.3773
▁ဒေါသတကြီး	-11.3773
▁ဘွိုင်လာ	-11.3785
▁ဘိုးဘွားရိပ်သာ	-11.3798
▁enormous	-11.3798
▁ACI	-11.3798
▁texan	-11.3798
▁smoking	-11.3798
းးးးးးး	-11.38
▁exploit	-11.3823
▁privilege	-11.3823
▁ဆာဂျိမ်း	-11.3823
▁chicken	-11.3823
▁ကိုယ့်ကိုကိုယ်	-11.3823
ကောလိပ်	-11.3844
▁သောကြာနေ့	-11.3873
▁နွေးထွေး	-11.3873
လို့မရဘူး။	-11.3873
▁struck	-11.3873
▁educat	-11.3894
အတ္ထုပ္ပတ္တိ	-11.3898
▁prohibit	-11.3898
▁ဖိတ်ခေါ်	-11.3898
▁Henry	-11.3898
▁စော်ကား	-11.3923
▁northwest	-11.3923
▁ချီကာဂို	-11.3948
▁မရှိမဖြစ်လိုအပ်	-11.3948
ထရပ်ကား	-11.3948
▁islamic	-11.3948
▁advisor	-11.3948
▁ထိုလူက	-11.3953
▁souvenir	-11.3973
▁ဖေဖေ	-11.3973
▁လျှပ်စစ်ဓာတ်အား	-11.3973
▁ကမ္ဘာလှည့်ခရီး	-11.3973
▁Texan	-11.3973
အလုံအလောက်	-11.3973
oriented	-11.3974
ခုနှစ်များအတွင်း	-11.3981
▁wrap	-11.3983
ရာဇ၀တ်ကောင်	-11.3998
▁continuing	-11.3998
▁ဆာလဖာ	-11.3998
ကူးသန်းရောင်းဝယ်	-11.4024
▁mechanism	-11.4024
▁အလယ်ဗဟို	-11.4024
▁Wolf	-11.4027
▁greuze	-11.4049
▁memorial	-11.4049
▁အတုအယောင်	-11.4049
ဇုန်	-11.4049
ကော်မရှင်	-11.4056
▁mexican	-11.4074
▁taxpayer	-11.4074
▁temperature	-11.4074
▁တဖြည်းဖြည်း	-11.4074
▁compensation	-11.4074
▁natalia	-11.4074
▁County	-11.4074
▁descend	-11.4074
လိမ္မော်	-11.41
အစုအဝေး	-11.41
▁interrupt	-11.41
▁recruit	-11.41
▁ethnic	-11.41
▁admire	-11.4101
ခိုင်လုံ	-11.4125
▁CNN	-11.4125
▁triumph	-11.4125
▁ငုံ့	-11.4151
▁fortunate	-11.4151
▁reaction	-11.4151
မုဆိုး	-11.4152
ဆက်သွယ်မှု	-11.4172
▁archaeological	-11.4177
▁pillar	-11.4177
မြို့တစ်မြို့	-11.4177
လူတန်းစား	-11.4177
▁narrat	-11.418
▁World	-11.4203
▁securities	-11.4203
▁cinema	-11.4203
▁သြဂုတ်	-11.4213
စုံစမ်းစစ်ဆေးမှု	-11.4224
▁monarch	-11.4228
▁imposing	-11.4228
▁Range	-11.4231
သည်နှင့်အမျှ	-11.4231
▁ထို့ထက်	-11.4246
▁ရှုတ်ချ	-11.4254
အကြံအစည်	-11.4254
▁elephant	-11.4254
▁စဉ်ဆက်မပြတ်	-11.4254
▁Standard	-11.4254
နှစ်ခုစလုံးသည်	-11.4254
သက်သေခံချက်	-11.4255
ြုစုစောင့်ရှောက်	-11.4262
▁entertain	-11.4276
ဆောင်းပါးတစ်ပုဒ်	-11.428
▁Temple	-11.428
▁ကျောက်မီးသွေး	-11.428
▁နေ့လယ်စာ	-11.428
▁jazz	-11.428
▁trauma	-11.4281
Class	-11.4282
လွင်ပြင်	-11.4282
▁opponent	-11.4306
▁သမားရိုးကျ	-11.4306
▁စိတ်ဓာတ်ကျ	-11.4306
▁moderate	-11.4307
ချီးမြှင့်	-11.4332
▁colonial	-11.4332
ထင်မြင်ယူဆချက်	-11.4341
ကွဲလွဲမှု	-11.4343
အကောင်အထည်ဖော်	-11.4356
အငြင်းအခုံ	-11.4359
▁complicated	-11.4359
▁disclosure	-11.4359
▁ရွက်လွှင့်	-11.4359
▁drove	-11.4359
▁ပြောကြားခဲ့ပါ	-11.4363
3,000	-11.4373
▁အတင်းအကြပ်	-11.4385
▁academic	-11.4385
▁receipt	-11.4385
▁မြေထဲပင်လယ်	-11.4385
▁သပ်သပ်ရပ်ရပ်	-11.4385
▁breakfast	-11.4411
▁identity	-11.4411
▁remote	-11.4411
GAO	-11.4411
▁nepal	-11.4411
အချက်အချာ	-11.4438
▁achieving	-11.4464
▁elaborate	-11.4464
▁venetian	-11.4464
▁တိုးပွားလာ	-11.4464
▁အလွန်အမင်း	-11.4464
▁Franklin	-11.4491
▁premature	-11.4491
▁အပြည့်အ၀	-11.4491
▁အစိမ်းရောင်	-11.4491
နောက်ကွယ်တွင်	-11.4491
▁ဆက်လက်တည်ရှိနေ	-11.4492
သရဖူ	-11.4517
အလေ့အထ	-11.4517
▁suicide	-11.4517
▁enemies	-11.4517
▁လူအုပ်ကြီး	-11.4517
▁တောင်းပန်ပါတယ်	-11.4517
▁မူးယစ်ဆေး	-11.4543
▁District	-11.4544
▁စေတနာ	-11.4544
▁phrase	-11.4544
▁architectural	-11.4544
ဆယ့်သုံး	-11.4571
သူတော်စင်	-11.4571
▁ထူးချွန်	-11.4597
▁attestation	-11.4597
▁smooth	-11.4597
မယုံဘူး	-11.4605
ဝေဒနာ	-11.4624
▁jordan	-11.4624
▁palestinian	-11.4624
▁statistical	-11.4624
▁စီးပွားဖြစ်	-11.4624
ကြွေထည်	-11.4624
▁retreat	-11.4624
▁facilitate	-11.4651
▁fabric	-11.4651
▁လျာထား	-11.4651
လွှတ်တော်သည်	-11.4655
သက်သာချောင်ချိ	-11.4678
ဌ	-12.6049
ဍ	-19.0399
ဦ	-19.04
