<unk>	0
<s>	0
</s>	0
▁	-2.92009
s	-3.64447
▁the	-3.81699
.	-3.92764
,	-4.48361
▁to	-4.65941
▁of	-4.6864
'	-4.68972
▁a	-4.73199
▁and	-4.73299
ကို	-4.94934
▁in	-4.9955
t	-5.1614
▁i	-5.20264
▁that	-5.34973
ed	-5.35184
▁it	-5.40654
▁is	-5.47227
သည်	-5.48562
ing	-5.52071
က	-5.58676
d	-5.62137
▁you	-5.66789
-	-5.69798
▁for	-5.70881
သော	-5.74168
၊	-5.75494
များ	-5.7939
▁was	-5.80355
တွင်	-5.80731
▁အ	-5.86453
နှင့်	-6.05253
▁on	-6.05935
▁သည်	-6.06468
▁are	-6.06704
ပြီး	-6.07283
မှာ	-6.07493
▁be	-6.07759
▁they	-6.12896
များကို	-6.14074
မှု	-6.15231
၏	-6.1593
အ	-6.16408
ရန်	-6.17342
▁with	-6.20019
ly	-6.20191
▁not	-6.22361
▁have	-6.22606
▁he	-6.22966
re	-6.24293
မ	-6.28111
y	-6.30727
သည်။	-6.33346
▁(	-6.36601
▁as	-6.37407
n	-6.37898
e	-6.40042
ရှိ	-6.41167
er	-6.4124
)	-6.41809
▁we	-6.42992
တွေ	-6.44297
▁မ	-6.46154
ခဲ့သည်။	-6.4777
▁but	-6.48452
m	-6.48835
▁at	-6.50057
များသည်	-6.50531
▁က	-6.50767
▁there	-6.52366
▁by	-6.52985
တယ်။	-6.54364
မှ	-6.54698
▁from	-6.56695
▁uh	-6.58285
▁၏	-6.60863
al	-6.61215
အတွက်	-6.64357
▁this	-6.66699
▁know	-6.66718
▁an	-6.6675
တဲ့	-6.68747
ရ	-6.688
▁so	-6.72246
နဲ့	-6.73258
▁or	-6.74419
▁can	-6.75389
။	-6.76055
a	-6.76587
▁do	-6.76854
ခြင်း	-6.78513
r	-6.79086
▁all	-6.81368
▁his	-6.81376
▁has	-6.81833
တာ	-6.81961
သည့်	-6.82369
▁one	-6.8297
in	-6.83874
es	-6.85325
▁had	-6.86638
း	-6.86714
သွား	-6.86755
ပါ။	-6.87158
c	-6.87663
▁ကို	-6.87679
▁no	-6.87792
▁were	-6.87811
နေ	-6.90676
ရေး	-6.90678
▁ငါ	-6.91425
ပေး	-6.91802
ဖို့	-6.92924
နိုင်	-6.93098
i	-6.94101
▁နှင့်	-6.95117
▁like	-6.97392
o	-6.9807
▁about	-6.98144
လာ	-6.99493
?	-7.00275
များနှင့်	-7.00923
တော့	-7.01294
တစ်ခု	-7.0137
▁will	-7.01376
th	-7.01941
ဖြစ်သည်။	-7.04171
or	-7.04677
▁their	-7.04801
သူ	-7.05286
▁if	-7.05537
ချက်	-7.05875
ကြီး	-7.06026
b	-7.06416
▁what	-7.0712
▁out	-7.08056
လို့	-7.10023
ve	-7.10079
le	-7.10191
▁more	-7.1075
▁don	-7.11404
ဖြစ်	-7.11428
ထား	-7.1178
▁would	-7.14117
ll	-7.14348
▁my	-7.1739
▁people	-7.17794
▁just	-7.17842
▁up	-7.1877
▁တွင်	-7.19831
en	-7.20483
ဖြင့်	-7.20813
ပါသည်။	-7.21161
▁မင်း	-7.2238
▁she	-7.24064
▁de	-7.24178
▁been	-7.25612
p	-7.25876
▁when	-7.25942
ကာ	-7.26048
u	-7.26597
▁ဤ	-7.27359
▁yeah	-7.28124
▁me	-7.29224
▁သို့မဟုတ်	-7.29278
▁think	-7.29616
▁well	-7.29868
on	-7.30302
ရင်	-7.30799
▁time	-7.31054
▁them	-7.31552
▁။	-7.32213
ri	-7.32361
▁some	-7.32734
▁because	-7.32815
▁S	-7.32856
il	-7.32929
သို့	-7.33009
ra	-7.33201
ပါတယ်။	-7.36012
▁သူတို့	-7.36928
ပါ	-7.37045
▁re	-7.37702
သား	-7.37798
g	-7.38252
l	-7.38265
▁သူ	-7.38938
w	-7.39545
နှစ်	-7.40214
ကောင်း	-7.40359
▁get	-7.40694
▁who	-7.40891
တွေကို	-7.412
▁other	-7.41687
an	-7.41821
▁လူ	-7.43758
el	-7.44797
တယ်	-7.4513
သာ	-7.45346
ers	-7.45406
ထားသော	-7.45738
လို	-7.465
▁than	-7.46897
▁မှ	-7.46933
k	-7.46947
ဆိုင်ရာ	-7.47435
အား	-7.47518
▁သူ့	-7.47561
▁her	-7.47797
ch	-7.47827
▁ဒီ	-7.48393
စွာ	-7.48937
ro	-7.49245
h	-7.49433
▁go	-7.49864
လုပ်	-7.49927
ရာ	-7.50564
▁over	-7.50661
ne	-7.50918
▁၊	-7.52567
ကြောင်း	-7.52797
များတွင်	-7.53634
မှုကို	-7.54196
▁new	-7.54197
▁said	-7.54883
▁၎င်း၏	-7.56267
ur	-7.56547
▁c	-7.56571
့	-7.56743
လိုက်	-7.56903
များ၏	-7.57061
▁only	-7.57132
ခဲ့	-7.57136
ation	-7.5746
ထားသည်။	-7.58953
▁most	-7.59006
ယူ	-7.59032
ic	-7.59953
▁which	-7.60218
ကျ	-7.60437
▁good	-7.60562
စ	-7.60644
ကြား	-7.60992
at	-7.6131
တစ်	-7.61429
စား	-7.61614
ar	-7.61973
န်	-7.63762
လည်း	-7.63851
ပဲ	-7.64072
လူ	-7.64996
▁နှစ်	-7.65946
ion	-7.66383
ထက်	-7.66422
ဘူး။	-7.66986
▁f	-7.67298
▁its	-7.67722
la	-7.67979
▁any	-7.69475
ကြသည်။	-7.69841
te	-7.70594
able	-7.70647
it	-7.70953
ter	-7.71093
▁A	-7.71156
▁ရှိ	-7.71214
▁၎င်းတို့၏	-7.71431
အဖြစ်	-7.71833
▁b	-7.71874
▁very	-7.72034
▁work	-7.72144
▁right	-7.73173
▁now	-7.7342
စေ	-7.73592
ment	-7.73641
▁un	-7.73783
▁your	-7.74319
တွေက	-7.74598
▁how	-7.74746
▁could	-7.74858
ေး	-7.74904
▁many	-7.75226
ကြ	-7.75372
▁him	-7.75481
နိုင်သည်။	-7.75901
▁into	-7.76012
များအတွက်	-7.76069
▁two	-7.76163
ဆုံး	-7.76433
▁st	-7.76465
▁ဟုတ်တယ်	-7.76844
▁see	-7.77206
ပြော	-7.77646
က်	-7.77857
ပေမယ့်	-7.78083
se	-7.78111
▁ဒါပေမယ့်	-7.78413
ပြု	-7.7853
▁really	-7.78755
▁should	-7.78937
et	-7.79221
ပင်	-7.79256
▁C	-7.79831
▁did	-7.79844
▁man	-7.80708
▁even	-7.81901
ol	-7.82243
▁ငါတို့	-7.82407
▁lot	-7.83057
z	-7.83222
▁19	-7.83229
as	-7.83617
လုံး	-7.83703
▁also	-7.83713
▁ပို	-7.83733
ထွက်	-7.83784
▁um	-7.84818
ity	-7.84885
မိ	-7.85187
ရဲ့	-7.85233
na	-7.85603
▁here	-7.86016
ပြ	-7.86022
▁much	-7.86179
▁F	-7.86575
▁never	-7.86647
li	-7.86885
▁way	-7.87199
▁အခြား	-7.87225
နေရာ	-7.87571
ent	-7.87643
▁con	-7.87688
▁သင်	-7.8829
▁these	-7.88461
▁after	-7.88591
ma	-7.8978
ွ	-7.89866
သ	-7.89899
▁years	-7.89916
is	-7.90147
f	-7.90563
ry	-7.90626
ပွဲ	-7.91024
စ်	-7.91237
ဘူး	-7.91355
နည်း	-7.91361
ကြည့်	-7.92344
▁where	-7.92357
--	-7.92518
ချ	-7.92599
▁T	-7.92675
ဝင်	-7.92788
▁B	-7.92999
▁take	-7.93353
ce	-7.93458
to	-7.93583
▁our	-7.93737
စရာ	-7.93738
ဆောင်	-7.93757
တ	-7.94095
ကြာ	-7.94288
စာ	-7.94473
▁တစ်	-7.9472
င်	-7.94759
im	-7.95177
ive	-7.95722
▁then	-7.96695
ul	-7.97244
ပုံ	-7.97253
co	-7.97316
ir	-7.97358
▁going	-7.97845
များ၊	-7.97894
အတွင်း	-7.98119
လဲ	-7.98162
ta	-7.98505
me	-7.98507
▁make	-7.99045
▁back	-7.99253
▁G	-7.99414
▁ma	-8.0009
လ	-8.00243
man	-8.00633
လောက်	-8.00967
▁ထို	-8.01319
A	-8.01423
▁mean	-8.01471
မဟုတ်	-8.01491
▁year	-8.01608
▁first	-8.02045
▁co	-8.02104
mi	-8.02228
;	-8.0233
လေး	-8.02335
ck	-8.0254
est	-8.0256
▁want	-8.02772
ရောက်	-8.02931
▁လက်	-8.0351
▁down	-8.03527
တင်	-8.03818
ia	-8.03885
ခဲ့ပြီး	-8.04224
ခံ	-8.04397
▁P	-8.04513
▁too	-8.04882
▁ဖြစ်	-8.04922
တော်	-8.0518
သော်လည်း	-8.05246
လက်	-8.05252
ရှိသည်။	-8.05255
ခဲ့သည်	-8.05371
us	-8.05453
▁us	-8.05772
ဆို	-8.06128
▁ကျွန်တော်	-8.06224
▁အလွန်	-8.06592
um	-8.06645
▁la	-8.06912
▁အချိန်	-8.07213
!	-8.07234
de	-8.07306
န	-8.0744
အထိ	-8.0746
▁အလုပ်	-8.07673
ke	-8.07722
▁place	-8.07979
တစ်ယောက်	-8.08022
ဟာ	-8.08027
ကြောင့်	-8.08119
▁p	-8.08119
ci	-8.08713
တိုင်း	-8.08898
စု	-8.09054
▁may	-8.09137
ni	-8.09709
ော်	-8.0991
▁လုပ်	-8.09974
တ်	-8.1025
x	-8.10569
ဘဲ	-8.10692
▁information	-8.10799
သိ	-8.10832
▁ပြော	-8.109
▁got	-8.11019
ဝ	-8.11145
များစွာ	-8.11861
ချင်	-8.11916
▁made	-8.12089
sh	-8.12221
▁g	-8.12438
v	-8.1296
ခြင်းသည်	-8.13385
4	-8.13523
▁government	-8.13621
ဲ	-8.13681
သောကြောင့်	-8.13704
ခ	-8.1374
သေး	-8.13942
မျိုး	-8.14509
▁those	-8.14742
ကုန်	-8.14765
▁still	-8.14848
ver	-8.15166
▁စ	-8.15178
တစ်ဦး	-8.15242
▁ရေ	-8.15716
lo	-8.16295
ပါဘူး။	-8.16578
▁အမေရိကန်	-8.16831
age	-8.16878
hi	-8.16957
ဖြစ်ပြီး	-8.1698
တက်	-8.17277
▁သူမ	-8.17625
▁e	-8.1811
▁bo	-8.18238
▁before	-8.18842
▁help	-8.18876
▁အသုံးပြု	-8.18922
ထုတ်	-8.19084
ု	-8.19281
▁used	-8.19322
ပေါင်း	-8.1956
▁didn	-8.20077
ha	-8.20146
▁pro	-8.20445
▁state	-8.20761
▁car	-8.21003
▁something	-8.21078
ဘက်	-8.21134
သုံး	-8.21136
ဟု	-8.21144
▁long	-8.21374
▁ခုနှစ်	-8.21445
▁little	-8.21684
son	-8.21707
▁၎င်းသည်	-8.2192
ရေ	-8.21957
▁ငါ့	-8.2232
▁need	-8.22444
ate	-8.22681
C	-8.22892
တယ်လို့	-8.22911
အသစ်	-8.22926
ist	-8.22937
မရှိ	-8.22942
▁oh	-8.23073
လား။	-8.23135
▁ပိုမို	-8.2323
ted	-8.23235
ပန်း	-8.23254
▁use	-8.23287
op	-8.23634
အပေါ်	-8.23945
သည်ဟု	-8.24005
▁under	-8.2407
▁things	-8.24077
▁E	-8.24735
▁အိုး	-8.24765
ca	-8.24966
▁ခုနှစ်တွင်	-8.25149
မီ	-8.253
နိုင်ငံ	-8.25321
မြင်	-8.25517
▁အဲဒါက	-8.25677
▁city	-8.25792
▁legal	-8.25865
မျှ	-8.25908
မြို့	-8.2595
အရ	-8.26034
▁H	-8.26179
▁ca	-8.26493
ပိုင်း	-8.26513
▁through	-8.26793
▁သိ	-8.27047
သင့်	-8.27116
ယာ	-8.27285
စီး	-8.2734
id	-8.27345
▁home	-8.27353
တောင်	-8.2803
နေ့	-8.28039
အိမ်	-8.2819
▁find	-8.28201
ပြန်	-8.28311
mo	-8.28374
▁being	-8.28682
ဖြတ်	-8.28683
▁high	-8.28702
လမ်း	-8.28757
ge	-8.28758
▁part	-8.28837
▁dis	-8.29673
ဆက်	-8.29871
▁mo	-8.30028
တိုက်	-8.30257
▁ဘာ	-8.30311
▁1	-8.30432
▁အဲဒီ	-8.30641
▁off	-8.30755
ba	-8.30779
အောင်	-8.30802
ies	-8.30981
ခဲ့တယ်။	-8.31011
ian	-8.31158
no	-8.31314
နေသော	-8.31315
7	-8.3154
▁နောက်	-8.31965
▁around	-8.32117
မှတ်	-8.324
▁အစိုးရ	-8.32444
တစ်ခုဖြစ်သည်။	-8.32786
ဆ	-8.32844
မည်ဖြစ်သည်။	-8.32946
နာ	-8.3296
▁old	-8.33068
▁day	-8.33127
၍	-8.33207
ရှိသော	-8.33736
နှ	-8.33994
▁such	-8.34026
ine	-8.34321
ရပ်	-8.34664
▁world	-8.34673
အားလုံး	-8.34694
ပေါ်	-8.34814
ယ	-8.34834
အဖွဲ့	-8.34846
န်း	-8.3493
ard	-8.34988
ပ်	-8.3533
ant	-8.35443
▁great	-8.35581
▁K	-8.35583
ting	-8.35809
င်း	-8.35986
3	-8.36055
▁last	-8.36221
ိ	-8.36364
▁အဲဒါ	-8.36699
မှုများ	-8.36818
ance	-8.3682
ပုံစံ	-8.36955
▁ဟု	-8.37151
▁k	-8.37195
တို့	-8.37274
▁ra	-8.37286
အချိန်	-8.37365
ty	-8.3745
ထင်	-8.37453
▁kind	-8.37458
တူ	-8.37998
ငွေ	-8.3801
▁အိမ်	-8.3803
ထ	-8.38045
တွေ့	-8.3805
▁Ca	-8.38137
▁say	-8.38229
ချိန်	-8.3823
▁does	-8.38248
ဆီ	-8.38438
နား	-8.38493
ချုပ်	-8.38523
▁အရမ်း	-8.38631
▁both	-8.39101
ပြီးနောက်	-8.39164
လား	-8.39302
ti	-8.395
ru	-8.39613
အကြောင်း	-8.39635
am	-8.4005
▁M	-8.4005
ပါး	-8.40077
▁public	-8.40106
ခွင့်	-8.4013
▁sa	-8.40231
da	-8.40254
min	-8.40702
ရတာ	-8.40953
များဖြင့်	-8.41095
▁အဓိက	-8.41493
rs	-8.41805
▁ကျွန်ုပ်တို့	-8.42208
▁သူ၏	-8.42484
ဖူး	-8.42491
he	-8.42519
▁သူသည်	-8.42555
▁three	-8.42646
၀	-8.42809
▁always	-8.42944
tic	-8.43001
▁w	-8.43011
စိတ်	-8.43135
▁house	-8.43147
ဆင်း	-8.43177
ရုံ	-8.43326
ခံရ	-8.43427
စီ	-8.4347
▁အခု	-8.43543
မြင့်	-8.43607
▁end	-8.43831
ဂ	-8.43869
▁war	-8.43938
ton	-8.43988
သစ်	-8.44229
ဆွဲ	-8.44265
သမား	-8.44295
ပို့	-8.44723
▁2	-8.44781
▁pre	-8.45097
▁while	-8.45136
pe	-8.45167
▁ဒါမှမဟုတ်	-8.45464
များက	-8.45559
▁federal	-8.45637
▁လိုအပ်	-8.45781
ပ	-8.45795
io	-8.46203
▁town	-8.46258
va	-8.46288
un	-8.46312
▁same	-8.46559
▁own	-8.46684
▁money	-8.46724
nd	-8.47022
▁program	-8.47051
နီ	-8.47131
1	-8.47151
ဘာ	-8.47183
vi	-8.4727
▁every	-8.47279
bu	-8.47572
ခဲ့သော	-8.47621
ak	-8.47881
▁ပ	-8.48233
မှန်	-8.4841
▁စိတ်	-8.48863
ie	-8.48866
ံ	-8.48936
ary	-8.48954
▁come	-8.49108
▁cost	-8.49211
▁small	-8.49561
စနစ်	-8.49706
ဆိုင်	-8.49953
ထဲမှာ	-8.50063
▁ဒါ	-8.50095
▁po	-8.50097
မှုသည်	-8.50314
▁life	-8.50516
▁သူ့ကို	-8.5096
တိုး	-8.50969
▁found	-8.51185
00	-8.51535
▁hand	-8.51655
▁thing	-8.51804
▁look	-8.51884
ဘ	-8.51888
▁သို့	-8.51897
▁di	-8.52104
ထားသည့်	-8.52292
ရင်း	-8.52438
သူများ	-8.5245
မြောက်	-8.52462
▁မှာ	-8.52672
▁ပြန်လည်	-8.53065
be	-8.53083
land	-8.53256
မ်း	-8.53376
▁နေရာ	-8.5339
ည	-8.53542
▁act	-8.53557
လုပ်ငန်း	-8.53572
▁W	-8.53879
▁ex	-8.53882
ling	-8.54031
red	-8.54175
တန်	-8.54198
▁case	-8.54243
ပါက	-8.54307
▁real	-8.54391
ူး	-8.54828
the	-8.54906
▁နောက်ဆုံး	-8.5502
ated	-8.55089
ငယ်	-8.55243
ig	-8.5548
les	-8.55585
▁18	-8.55692
▁du	-8.55784
go	-8.55785
▁best	-8.55886
ရှင်	-8.55956
ခန်း	-8.5629
▁ကလေး	-8.56406
▁system	-8.56593
/	-8.56965
▁D	-8.57109
ပတ်	-8.57211
ဒီ	-8.57258
fi	-8.57339
5	-8.57391
▁thought	-8.57392
▁law	-8.57465
ho	-8.57741
လှ	-8.57917
စက်	-8.58241
နေတာ	-8.58265
လျှင်	-8.58386
▁services	-8.58423
pi	-8.58431
ကန်	-8.5851
ad	-8.58589
▁during	-8.58589
and	-8.58708
▁ti	-8.58797
▁national	-8.58995
မယ်	-8.59139
ဖ	-8.59372
▁few	-8.59479
▁school	-8.59763
▁hard	-8.59798
mb	-8.59805
ရန်အတွက်	-8.59822
▁put	-8.59893
ို	-8.59934
▁အဲဒါကို	-8.59977
▁rule	-8.60131
▁between	-8.60611
▁စီးပွားရေး	-8.60698
▁လမ်း	-8.6073
▁anything	-8.60813
▁မြို့	-8.60822
▁V	-8.60842
▁since	-8.60967
S	-8.61131
sa	-8.61218
▁care	-8.61254
▁each	-8.61318
အားလုံးကို	-8.61324
▁service	-8.61355
▁သို့သော်	-8.61417
သေ	-8.61438
ng	-8.61533
▁I	-8.61586
ာ	-8.61588
▁point	-8.61689
စဉ်	-8.61699
န့်	-8.61787
▁show	-8.61945
▁am	-8.61981
▁better	-8.62016
ish	-8.62079
ရက်	-8.62224
ster	-8.62558
I	-8.62616
▁might	-8.62907
▁pay	-8.62949
ကိစ္စ	-8.63008
ပါတယ်	-8.63074
▁သူက	-8.63091
▁sp	-8.6318
▁Ma	-8.63283
ပို	-8.63287
တန်း	-8.63367
သတ်	-8.63424
အများစု	-8.63439
ကျောင်း	-8.6349
ပြောင်း	-8.63744
ရှိတယ်။	-8.63835
▁20	-8.63885
ယ်	-8.64079
ရာတွင်	-8.64203
၅	-8.64441
▁m	-8.64497
တို	-8.64606
ut	-8.64715
▁တ	-8.64724
▁different	-8.65123
ကိုင်	-8.65146
ot	-8.65318
au	-8.65656
အရာ	-8.65699
ဒ	-8.65735
မည်	-8.65812
▁da	-8.65888
လီ	-8.66008
ness	-8.66132
led	-8.6645
▁ပြန်	-8.66553
ဆင်	-8.66625
▁ကျွန်ုပ်တို့၏	-8.66849
ခြင်းနှင့်	-8.66882
အလုပ်	-8.67005
▁country	-8.67012
▁ပါဝင်	-8.67077
တဲ့အခါ	-8.67095
မှုများကို	-8.67139
▁less	-8.67155
▁h	-8.67246
ကား	-8.67314
▁must	-8.67379
▁sure	-8.67381
အပြင်	-8.67482
▁အတွက်	-8.67583
▁number	-8.67777
▁per	-8.67827
▁ပြဿနာ	-8.67832
ous	-8.67842
▁another	-8.67861
ောင်	-8.68099
▁တစ်ခု	-8.68266
os	-8.68301
ဗ	-8.68468
▁big	-8.68556
ဆိုတာ	-8.68982
▁ဘ	-8.69036
ating	-8.69206
မယ်။	-8.69295
ပါပဲ။	-8.69304
▁water	-8.69371
wa	-8.69392
pa	-8.69454
),	-8.69499
po	-8.6953
ga	-8.69602
▁provide	-8.69654
▁၎င်းတို့	-8.69796
နောက်	-8.69834
gu	-8.6995
ူ	-8.70034
ဆိုတော့	-8.70259
▁important	-8.70389
ရီ	-8.70426
▁r	-8.70522
တယ်၊	-8.70668
လေ	-8.70955
▁တခြား	-8.71108
ခွဲ	-8.71209
▁အကောင်းဆုံး	-8.71374
▁အမျိုးသား	-8.71385
▁အရာ	-8.71431
▁ဘုရားကျောင်း	-8.71449
မာ	-8.71656
ခြင်းကို	-8.71671
bo	-8.71672
▁သင့်	-8.71679
တတ်	-8.71797
ence	-8.7182
ph	-8.71987
P	-8.72063
▁လို့	-8.72125
ris	-8.72192
2	-8.72243
▁area	-8.72295
ab	-8.72449
နိုင်သော	-8.72507
ac	-8.72524
▁percent	-8.72728
▁အသက်	-8.72805
ဟောင်း	-8.72823
▁လုပ်ဆောင်	-8.72861
▁ဥပဒေ	-8.72915
ဆိုး	-8.73001
▁ဒေါ်လာ	-8.73081
▁pa	-8.73232
သက်	-8.73601
▁away	-8.73765
ဌာန	-8.73829
▁gr	-8.74079
▁control	-8.74089
▁ga	-8.74153
ell	-8.74183
mp	-8.74252
မှုနှင့်	-8.74445
ခြင်းဖြင့်	-8.74516
▁business	-8.74532
▁အများကြီး	-8.74542
▁give	-8.74621
စာရင်း	-8.74761
ပစ္စည်း	-8.7486
လုပ်ဆောင်	-8.75175
ပေါက်	-8.7519
▁N	-8.75231
).	-8.75242
▁street	-8.75426
▁အဆိုပါ	-8.75605
ဒေသ	-8.75641
ism	-8.75698
▁went	-8.75762
▁သ	-8.7592
ေ	-8.75953
တွဲ	-8.76037
အချက်	-8.76134
တာကို	-8.76214
▁ပြည်နယ်	-8.763
▁ပေး	-8.76486
▁နိုင်ငံ	-8.7653
▁island	-8.76663
ful	-8.76715
▁live	-8.76768
der	-8.77033
ရုပ်	-8.7724
မ်	-8.77507
နေတဲ့	-8.77558
▁တို့	-8.78098
ဝယ်	-8.78132
လ်	-8.78213
▁pi	-8.78223
▁four	-8.78246
ations	-8.78279
်	-8.78303
ure	-8.7848
ပေါ်တွင်	-8.78515
တွေနဲ့	-8.78521
▁စာ	-8.78524
ial	-8.78588
▁states	-8.78638
▁၎င်းတို့သည်	-8.78723
▁week	-8.7877
om	-8.78846
ခဲ့တာ	-8.78871
ပြင်	-8.78879
နှုန်း	-8.7892
နေပါသည်။	-8.79001
▁မင်းရဲ့	-8.79043
▁keep	-8.79081
▁open	-8.79143
▁far	-8.79604
M	-8.79683
▁though	-8.79967
▁doesn	-8.80087
▁5	-8.80095
▁office	-8.80202
များမှ	-8.80204
▁ကျ	-8.80322
▁စတင်	-8.80524
▁why	-8.80591
▁play	-8.80639
▁အမျိုးသမီး	-8.8072
▁set	-8.80733
▁data	-8.80755
သံ	-8.80884
▁american	-8.80981
အဆင့်	-8.81144
O	-8.81172
▁ပြောင်းလဲ	-8.81243
▁came	-8.81249
▁ဘယ်လို	-8.81319
ဂျ	-8.81393
▁ro	-8.81448
di	-8.81467
ခေါ်	-8.81502
ရဲ	-8.81534
▁၎င်း	-8.81558
▁view	-8.81633
▁president	-8.81643
do	-8.81731
ခြေ	-8.81841
▁သုံး	-8.81878
tra	-8.81915
ိတ်	-8.81937
6	-8.81966
up	-8.8203
သူများသည်	-8.82075
▁မည်သည့်	-8.82125
ap	-8.82171
ဘေး	-8.82205
▁process	-8.82275
ိုး	-8.82566
▁3	-8.82567
ပေ	-8.82615
ချင်း	-8.82773
▁ဟုတ်တယ်၊	-8.8278
que	-8.82843
ဇ	-8.82881
ud	-8.829
▁guess	-8.83165
▁bar	-8.83176
▁air	-8.83197
မြ	-8.83232
▁ငါက	-8.8335
ား	-8.83571
▁4	-8.83622
လိုက်သည်။	-8.83673
ev	-8.83683
per	-8.83688
ဒါ	-8.83739
ရုံး	-8.83833
our	-8.84039
အတိုင်း	-8.84048
▁support	-8.84176
▁large	-8.84327
▁left	-8.84501
တိုင်	-8.84517
▁လုံးဝ	-8.84666
ကျော်	-8.84697
သွားတယ်။	-8.84762
တွင်၊	-8.84883
ထောက်	-8.851
ward	-8.85112
ပညာ	-8.85145
▁ကုန်ကျစရိတ်	-8.85155
သလို	-8.8521
ရိုက်	-8.85303
▁plan	-8.85425
ဝေး	-8.8561
dy	-8.85691
▁10	-8.85693
cu	-8.8579
▁management	-8.85835
▁site	-8.85919
▁ရက်	-8.85981
ring	-8.86189
▁once	-8.86196
▁ရာခိုင်နှုန်း	-8.86305
တာက	-8.86636
▁call	-8.86713
▁ရဲ့	-8.86762
ဘဝ	-8.86882
ill	-8.86995
▁မြင်	-8.87122
ny	-8.87261
▁nothing	-8.87285
ခရီး	-8.87618
▁room	-8.87628
▁name	-8.87629
vo	-8.8774
▁men	-8.87743
▁offer	-8.8776
0	-8.87784
▁တကယ်	-8.8789
▁report	-8.87912
ions	-8.87921
ကနေ	-8.88039
ized	-8.88047
▁ရရှိ	-8.88153
ရိုး	-8.88173
▁ever	-8.88236
ခဲ့ပါတယ်။	-8.8827
▁အဖွဲ့အစည်း	-8.88281
▁jon	-8.883
▁na	-8.88349
▁မင်းသိ	-8.886
mon	-8.88689
▁comp	-8.88829
▁mar	-8.88988
▁without	-8.89088
၁	-8.89107
T	-8.8911
▁သတင်း	-8.8918
▁အေဂျင်စီ	-8.89274
နှစ်ခု	-8.89284
▁head	-8.89291
▁vi	-8.89323
tu	-8.89342
cy	-8.89398
▁children	-8.89485
ပစ်	-8.89599
mer	-8.89646
အသုံးပြု	-8.89665
▁O	-8.89738
မင်း	-8.89812
▁စစ်	-8.89879
▁white	-8.89885
em	-8.89923
ဦး	-8.90119
ရည်	-8.90122
▁ထင်	-8.90312
ထားပြီး	-8.90408
ဥပဒေ	-8.90785
▁အား	-8.90817
▁15	-8.90893
ခဲ့ကြသည်။	-8.90902
လဲ။	-8.9099
ရှိပြီး	-8.91045
▁saving	-8.91105
▁market	-8.91209
ရှ	-8.9122
less	-8.91242
▁ပရိုဂရမ်	-8.91256
▁start	-8.91342
▁ငွေ	-8.91573
▁le	-8.91737
▁ရာစု	-8.91844
▁order	-8.91855
▁tell	-8.92228
line	-8.92254
▁museum	-8.92269
▁done	-8.92276
နေသည်။	-8.92307
▁ပြုလုပ်	-8.92359
▁five	-8.92404
ဆရာ	-8.92408
▁ဘယ်	-8.92471
▁believe	-8.92485
way	-8.92562
▁မရှိ	-8.92644
▁Ro	-8.92776
ဘယ်	-8.92879
▁local	-8.93045
▁times	-8.93099
ound	-8.93122
▁bad	-8.9315
ka	-8.93189
ow	-8.93256
▁ပြီးတော့	-8.93321
မူ	-8.9334
လည်	-8.93444
▁St	-8.93514
ag	-8.93538
▁against	-8.93544
▁next	-8.93552
▁visit	-8.93584
▁night	-8.93586
ှ	-8.93596
▁mail	-8.93632
▁test	-8.93709
daan	-8.94094
ဖက်	-8.94323
▁enough	-8.94394
▁တောင်	-8.94441
ဖြစ်စေ	-8.94521
▁job	-8.9454
▁fa	-8.94549
င	-8.94608
▁let	-8.94611
com	-8.94621
▁ပြီး	-8.94675
ep	-8.94694
▁ဖ	-8.94772
D	-8.94913
▁love	-8.95009
ရောင်	-8.95097
lan	-8.95146
▁lo	-8.95189
▁reason	-8.95244
နေထိုင်	-8.95277
▁probably	-8.95309
တပ်	-8.95335
▁La	-8.95362
အချို့	-8.95411
▁li	-8.95458
အနည်းငယ်	-8.95533
တိ	-8.9563
▁လုပ်ငန်း	-8.95709
con	-8.95897
▁doing	-8.95924
▁court	-8.95926
▁စည်းမျဉ်း	-8.95948
▁သူမသည်	-8.95994
ile	-8.96099
ပျော်	-8.96347
▁သူတို့က	-8.96389
▁တစ်ခုခု	-8.96422
▁ပေးဆောင်	-8.96495
တရား	-8.96549
▁several	-8.9672
▁ဖော်ပြ	-8.96747
ဖတ်	-8.96849
▁art	-8.96859
ခင်း	-8.96913
▁သေချာ	-8.96967
▁took	-8.97036
ဘာသာ	-8.97144
▁change	-8.9717
▁today	-8.97229
▁along	-8.97233
ပြဿနာ	-8.97314
▁form	-8.9734
ပြီ	-8.97405
နည်းလမ်း	-8.97421
၄	-8.97434
ger	-8.97437
▁built	-8.97478
▁walk	-8.9748
▁church	-8.97545
▁ထင်ပါတယ်။	-8.97575
ron	-8.97587
▁၁	-8.97658
စစ်	-8.97672
▁million	-8.97772
▁လက်ရှိ	-8.97823
လိုက်တယ်။	-8.97924
ဝတ်	-8.97982
သီး	-8.97985
▁ဖြစ်သည်။	-8.98049
▁အစီအစဉ်	-8.981
▁clinton	-8.98241
side	-8.98742
ကောင်	-8.98819
▁သွား	-8.98824
▁Re	-8.98859
▁programs	-8.98911
▁young	-8.98923
▁ဒ	-8.9893
tion	-8.99011
ကဲ့သို့	-8.99043
fa	-8.99293
▁ပထမ	-8.99363
္	-8.99406
▁17	-8.99445
▁ဟ	-8.99445
▁al	-8.9947
ရရှိ	-8.99553
ပူ	-8.99769
lin	-8.99825
▁center	-8.99853
ရှာ	-8.99906
▁until	-8.99973
ုံ	-9.00022
ise	-9.00043
lu	-9.0012
ဓာတ်	-9.00152
▁yes	-9.00653
ally	-9.00694
term	-9.00718
▁ten	-9.00786
ကြိုက်	-9.00822
▁south	-9.00862
မဲ	-9.0089
▁လေ	-9.00919
သင်	-9.00925
အောက်	-9.00936
ရို	-9.00944
ပေ။	-9.01045
▁again	-9.01109
tan	-9.0111
ပျက်	-9.01162
▁th	-9.01205
▁o	-9.01212
▁ယုံကြည်	-9.01247
hum	-9.0128
▁မှန်	-9.0146
▁seen	-9.01461
ns	-9.01464
ထိုး	-9.0153
ner	-9.01567
▁read	-9.01603
▁include	-9.01697
gra	-9.01725
▁ခရီးသွား	-9.01735
▁feel	-9.01746
iv	-9.01754
▁မီး	-9.01767
▁ကုမ္ပဏီ	-9.01796
▁ဆို	-9.01834
ရှည်	-9.01858
ခင်	-9.01911
စွဲ	-9.01918
▁north	-9.01955
▁century	-9.02003
▁ယခု	-9.02099
▁သူမ၏	-9.02241
▁New	-9.02359
▁idea	-9.02424
▁security	-9.0243
R	-9.02453
▁၎င်းကို	-9.02472
▁ည	-9.0254
▁person	-9.02631
▁kids	-9.02638
▁မင်းကို	-9.0268
port	-9.02897
▁course	-9.02901
▁however	-9.0309
▁called	-9.03176
pp	-9.03266
▁ဆုံးဖြတ်	-9.03393
▁fact	-9.03407
▁second	-9.03422
ugh	-9.03429
▁ကြီးမားသော	-9.0347
ကဲ့သို့သော	-9.03603
စောင့်	-9.03621
▁financial	-9.03636
▁ဝန်ထမ်း	-9.03786
E	-9.03799
▁ပထမဆုံး	-9.03835
ဟ	-9.03951
▁performance	-9.04077
ထားတဲ့	-9.04091
▁ရှာဖွေ	-9.04095
▁review	-9.04102
ော	-9.04116
ဒဏ်	-9.04117
▁ပြင်သစ်	-9.04138
rn	-9.04199
ဖြစ်လာ	-9.04213
▁family	-9.04233
tro	-9.04276
▁pretty	-9.04376
▁gao	-9.04455
▁၂	-9.04457
▁enjoy	-9.04472
▁ပြ	-9.0451
▁တောင်းဆို	-9.04562
▁san	-9.04644
▁ငါး	-9.04708
စေရန်	-9.04787
ခု	-9.04816
ခြံ	-9.04905
သောအခါ	-9.04943
▁everything	-9.0505
နေတယ်။	-9.0518
huh	-9.05239
ors	-9.05289
မယ်လို့	-9.05379
▁GAO	-9.05412
▁နဲ့	-9.05478
▁ရှေ့နေ	-9.0551
ang	-9.05535
ub	-9.05555
▁ကြိုးစား	-9.05668
တွင်း	-9.057
ning	-9.05736
ကိုယ်ပိုင်	-9.05831
နေပြီ	-9.06042
gi	-9.06101
▁main	-9.06347
▁talk	-9.06383
▁study	-9.06459
ical	-9.06585
ခန့်	-9.06594
nt	-9.06624
▁ta	-9.06638
▁se	-9.06677
▁side	-9.06695
▁သမ္မတ	-9.06715
ဆာ	-9.0677
▁ခု	-9.06861
▁ဖန်တီး	-9.06884
▁stay	-9.07038
▁sub	-9.07055
ွေ	-9.07199
မိုး	-9.07251
အကြံ	-9.0732
king	-9.07343
ရွ	-9.07451
tor	-9.07453
▁united	-9.07683
▁အထူး	-9.07692
▁ha	-9.07785
ထိ	-9.0788
ip	-9.07911
▁run	-9.08109
▁သတ်မှတ်	-9.08208
▁LSC	-9.08237
ach	-9.0837
▁agencies	-9.08386
ကူး	-9.08566
we	-9.08601
los	-9.08628
ခြင်း၊	-9.08634
▁တည်ဆောက်	-9.08677
▁ယူဆ	-9.08677
ki	-9.08684
ိန်	-9.08745
ham	-9.08839
မရ	-9.0885
ီး	-9.09136
▁dr	-9.09157
ley	-9.09217
▁Jon	-9.09255
▁agency	-9.09264
ey	-9.09363
▁wanted	-9.09402
ကောက်	-9.09422
▁ကျွန်ုပ်တို့သည်	-9.09427
▁lsc	-9.09449
ဖွယ်	-9.09466
ရော	-9.09559
ze	-9.0958
j	-9.09671
▁cre	-9.09743
တီ	-9.09831
▁general	-9.09998
အကူအညီ	-9.10046
▁နိုင်ငံရေး	-9.10047
▁ရ	-9.10056
bi	-9.10056
▁နောက်ထပ်	-9.10096
ပု	-9.10099
▁ကျွန်း	-9.10121
မရှိပါ။	-9.10201
ယောက်	-9.10226
ities	-9.10344
▁problem	-9.10401
▁အမြဲ	-9.1042
ဆေး	-9.1042
▁project	-9.10437
▁Mo	-9.10442
ကွန်	-9.10533
??	-9.10581
▁power	-9.10582
9	-9.10833
အားဖြင့်	-9.10838
ကာလ	-9.10933
▁Pa	-9.10938
ship	-9.10967
▁အခြေခံ	-9.10985
သက်သာ	-9.11073
ဖြေ	-9.11081
၂	-9.11089
ိုင်း	-9.11181
▁john	-9.11194
ခဲ့ကြ	-9.11197
ချက်ကို	-9.11243
ပေါင်းများစွာ	-9.11357
▁won	-9.11394
ပြား	-9.11455
▁လ	-9.11588
သည်ကို	-9.11628
ဖော်	-9.11658
ဆန်	-9.11743
▁$	-9.11772
တုန်းက	-9.11794
▁book	-9.118
၉	-9.11815
ec	-9.11897
8	-9.11921
ier	-9.12173
▁past	-9.12174
▁design	-9.12204
▁interest	-9.12236
▁စက်	-9.12434
အသင်း	-9.12464
▁temple	-9.12493
▁ကမ္ဘာ	-9.12548
od	-9.12604
▁သူတို့ရဲ့	-9.12684
▁free	-9.12713
▁mu	-9.12753
ai	-9.12883
gg	-9.12917
▁န	-9.12947
▁six	-9.13128
တစ်ခုကို	-9.13153
▁close	-9.13154
▁၁၉၉	-9.1333
▁understand	-9.13432
မည်ဟု	-9.13552
▁ရွေးချယ်	-9.13585
ပိုင်ဆိုင်	-9.13805
▁face	-9.13825
▁အချက်အလက်	-9.13829
ထပ်	-9.13867
▁movie	-9.13873
▁R	-9.14108
▁ဆွေးနွေး	-9.14218
▁မသိ	-9.14244
▁having	-9.14325
end	-9.14463
▁value	-9.14482
ဝါ	-9.14491
နှင့်အတူ	-9.1452
▁buy	-9.14579
▁least	-9.14721
▁capital	-9.14746
ခေတ်	-9.14749
မည့်	-9.14767
▁16	-9.14773
gar	-9.1481
အရင်းအမြစ်	-9.14879
သေဆုံး	-9.14883
▁အချို့သော	-9.14968
လိုအပ်	-9.15049
▁ကျွန်တော်တို့	-9.15072
▁often	-9.15132
▁6	-9.15161
ံ့	-9.15203
▁အကြောင်း	-9.15358
▁tax	-9.1537
တွေမှာ	-9.15482
ran	-9.15578
လိမ့်မယ်။	-9.15587
ice	-9.15631
▁popular	-9.15682
ပညာရှင်	-9.15709
▁known	-9.15828
သွင်း	-9.15859
▁နာရီ	-9.15916
ီ	-9.15925
▁ရှိနေ	-9.16016
▁major	-9.16072
B	-9.16101
▁ချ	-9.16157
▁costs	-9.16165
ction	-9.16181
သင့်သည်။	-9.16408
စေသည်။	-9.16475
များဖြစ်သည်။	-9.16511
ite	-9.16707
▁ကား	-9.16984
လှည့်	-9.17109
ဖမ်း	-9.17145
ign	-9.1716
▁health	-9.17252
qui	-9.17281
▁မိသားစု	-9.17318
ue	-9.17365
▁fe	-9.17377
▁matter	-9.17387
▁ski	-9.17397
သောက်	-9.17437
စင်	-9.17525
▁12	-9.17648
ual	-9.17751
ကျယ်	-9.17856
▁class	-9.17891
ကြွ	-9.17905
ex	-9.17913
▁နေ	-9.17932
tal	-9.18082
ဖွင့်	-9.18232
▁sh	-9.18283
▁women	-9.18291
ရှု	-9.18293
sur	-9.18321
▁gu	-9.18383
ကိုယ်တိုင်	-9.18447
han	-9.18488
▁level	-9.18494
ခြင်းအတွက်	-9.18621
မြေ	-9.18635
စပ်	-9.1865
...	-9.18699
တို့ကို	-9.1872
များအား	-9.18741
▁အမှန်တကယ်	-9.18791
▁park	-9.18806
များစွာကို	-9.18855
တန်ဖိုး	-9.18964
▁turn	-9.19169
▁black	-9.19208
နယ်	-9.19231
▁ဒါက	-9.19233
▁ကလင်တန်	-9.19287
▁budget	-9.19398
▁paper	-9.19451
နှစ်ယောက်	-9.19524
တီး	-9.19537
▁The	-9.19612
ther	-9.19626
▁getting	-9.19636
▁ago	-9.19643
▁ပြသ	-9.19644
▁present	-9.19681
▁example	-9.19845
ပါဝင်	-9.2012
▁cut	-9.20153
ကင်း	-9.20245
▁ငါတို့က	-9.20281
▁နေ့	-9.20408
che	-9.20442
0,000	-9.20455
မွေး	-9.20604
ငါး	-9.20623
ထဲတွင်	-9.20745
▁told	-9.20762
▁ကြည့်	-9.20792
▁သန်း	-9.20862
▁land	-9.20871
နေကြ	-9.20964
▁economic	-9.21029
▁days	-9.21043
▁problems	-9.21064
▁type	-9.21064
all	-9.21123
▁deal	-9.21199
ချီ	-9.21284
▁နှစ်သက်	-9.21363
act	-9.21383
▁en	-9.21447
ခဲ့တဲ့	-9.2151
▁bi	-9.21517
▁တွေး	-9.2157
▁လူတိုင်း	-9.21578
▁force	-9.21596
▁almost	-9.21652
▁Ch	-9.21699
မှန်း	-9.21715
ens	-9.21825
ler	-9.21955
ious	-9.21993
▁able	-9.22003
▁try	-9.22021
▁asked	-9.22113
လိုချင်	-9.22141
ဇာ	-9.22161
▁road	-9.2223
▁company	-9.22281
▁7	-9.22291
F	-9.22319
▁ဒုတိယ	-9.22357
ဘူးလို့	-9.22418
▁ကျွန်ုပ်	-9.22492
▁လေး	-9.22509
▁va	-9.22632
မောင်း	-9.22743
▁whole	-9.22806
▁post	-9.22818
▁ဦး	-9.23019
▁audit	-9.23044
▁says	-9.23109
▁ရှ	-9.23119
ထိန်းသိမ်း	-9.23175
ပြည်ထောင်စု	-9.23231
ကတော့	-9.2326
▁ဤနေရာတွင်	-9.23336
အေး	-9.23366
▁everyone	-9.23454
▁building	-9.23561
ပဲ။	-9.23757
▁An	-9.23812
▁အနည်းဆုံး	-9.23899
”	-9.23993
men	-9.24015
ber	-9.24038
ကြတယ်။	-9.24048
▁pu	-9.24059
▁မဟုတ်ဘူး	-9.24082
ize	-9.24148
cc	-9.24153
▁မင်းသိတယ်	-9.24188
▁pe	-9.24234
▁ခံစား	-9.24283
▁miss	-9.24286
နိုင်ပါသည်။	-9.24336
▁nice	-9.2434
နစ်	-9.24342
unt	-9.24358
lor	-9.24361
▁saw	-9.24373
▁mr	-9.24426
▁ဆေး	-9.24471
L	-9.24493
▁quite	-9.24497
ible	-9.24544
ထဲ	-9.24559
▁congress	-9.24571
▁become	-9.24574
▁ဘာမှ	-9.24607
ဖြစ်သည်	-9.24658
▁half	-9.2469
▁ja	-9.24863
ပျ	-9.249
▁qu	-9.24924
lay	-9.24963
▁ဆက်	-9.24994
▁ju	-9.25032
အခြေအနေ	-9.2504
▁ရုပ်ရှင်	-9.25097
ထဲက	-9.25107
▁ဘယ်တော့မှ	-9.25141
▁ပိုကောင်း	-9.25231
cent	-9.25303
လှမ်း	-9.25325
▁မရှိပါ။	-9.25335
ဗဟို	-9.25395
▁line	-9.25396
▁story	-9.25483
ကတည်းက	-9.25546
နက်	-9.2561
မြတ်	-9.25619
▁risk	-9.25623
▁ဒီလို	-9.25667
များထဲမှ	-9.25683
▁food	-9.25702
▁available	-9.25751
▁Ba	-9.25828
▁product	-9.25848
▁sc	-9.25852
ကြည့်ရှု	-9.25854
တင်း	-9.25892
dic	-9.25997
▁ကျော်	-9.25998
ဖြစ်သော	-9.26042
ဝေ	-9.26194
ဝန်ဆောင်မှု	-9.26203
▁wall	-9.26217
▁among	-9.26408
▁short	-9.26471
ခါ	-9.26607
ဆု	-9.26754
pr	-9.26766
▁ရန်	-9.26803
▁တရားဝင်	-9.26836
▁history	-9.26856
မဆို	-9.26933
ကိုယ်	-9.26935
▁အောက်	-9.26984
▁effect	-9.27001
▁top	-9.27085
▁ခေါ်	-9.27086
▁Al	-9.27171
▁organization	-9.27175
သူငယ်ချင်း	-9.27246
▁actually	-9.273
▁တရား	-9.27367
▁yet	-9.2738
▁consider	-9.2747
▁imp	-9.2752
▁အခွန်	-9.27535
▁low	-9.27562
▁looked	-9.27618
▁else	-9.27684
▁allow	-9.27698
မှုတွင်	-9.27727
▁model	-9.27882
▁individual	-9.27911
vis	-9.27942
ိန်း	-9.28018
▁analysis	-9.28033
▁ဟာ	-9.28121
ပီ	-9.28147
out	-9.28157
ဆိုလို	-9.28201
▁ကျောင်း	-9.28272
အခွင့်အရေး	-9.28276
ress	-9.28331
▁question	-9.28448
ဖြ	-9.28464
ick	-9.28474
▁whether	-9.28489
claim	-9.28523
ထိုင်	-9.28561
နိုင်သည်	-9.28572
ork	-9.28582
▁မင်းက	-9.28599
အောက်တွင်	-9.28643
ကောင်းမွန်	-9.28675
▁bit	-9.28773
▁fla	-9.28876
val	-9.28922
one	-9.29027
ပြည်	-9.2903
တော	-9.29128
rc	-9.29187
▁research	-9.29224
▁rest	-9.29243
▁ပါ	-9.293
သည်မှာ	-9.29309
ခဲ့သည့်	-9.2945
own	-9.29498
▁အမ်	-9.29558
▁mon	-9.29578
▁နည်းပညာ	-9.29689
▁watch	-9.29741
▁full	-9.29746
▁နေထိုင်	-9.29775
▁အခြေအနေ	-9.2978
▁social	-9.29842
▁ဒါကြောင့်	-9.29851
▁တွေ့	-9.299
▁အရက်	-9.2994
ဖြစ်ကြောင်း	-9.2995
ွတ်	-9.30004
▁making	-9.30132
လူမျိုး	-9.30176
ိုင်	-9.30187
▁ကျွန်တော့်	-9.30196
ries	-9.3024
▁Co	-9.30256
ade	-9.303
စုံ	-9.30348
▁isn	-9.30485
▁In	-9.30503
▁ယူ	-9.30518
▁including	-9.30554
တစ်လျှောက်	-9.30602
နေရ	-9.30615
▁department	-9.30616
ကုန်ကျစရိတ်	-9.30624
▁tr	-9.30814
သုံးစွဲ	-9.30826
▁အထူးသဖြင့်	-9.30841
sta	-9.30855
▁rather	-9.30863
▁Bo	-9.30943
cra	-9.30997
လာသည်။	-9.30999
ကြပြီး	-9.31047
ဘီ	-9.31103
▁hotel	-9.31128
လွန်	-9.31139
50	-9.31191
ဆီသို့	-9.31282
▁trying	-9.31336
▁wasn	-9.31342
▁result	-9.31369
တယ်ဆိုတာ	-9.31419
▁ဝန်ဆောင်မှု	-9.31449
ပေါ့	-9.31492
ea	-9.31514
▁tuppence	-9.31587
ခက်	-9.31629
nes	-9.31678
▁computer	-9.31713
ကွင်း	-9.31739
ခတ်	-9.3181
ja	-9.31813
▁garden	-9.31934
ps	-9.31989
▁figure	-9.3206
▁tommy	-9.32061
▁group	-9.32115
အမြင်	-9.322
▁အခန်း	-9.32216
ဉာဏ်	-9.32218
▁၁၉	-9.32224
▁နည်းလမ်း	-9.32296
fe	-9.32317
▁stand	-9.32421
ral	-9.32444
လွတ်	-9.32469
▁အဆင့်	-9.32484
နိုင်သည့်	-9.325
▁effective	-9.32504
ညီ	-9.32514
နေပြီး	-9.32531
row	-9.32558
▁Sa	-9.32559
▁travel	-9.32599
▁team	-9.32606
ထောင်	-9.32748
▁within	-9.32836
▁v	-9.32836
mission	-9.32855
ဖော်ပြ	-9.32882
▁ပုံ	-9.32934
▁၃	-9.32947
▁non	-9.3295
▁working	-9.32975
▁trans	-9.32985
▁changes	-9.33002
▁west	-9.33069
▁Lo	-9.33102
▁maybe	-9.33177
▁later	-9.33264
▁သူတို့ကို	-9.33267
▁private	-9.33268
ten	-9.33269
▁pass	-9.33337
▁sea	-9.33347
▁increase	-9.33357
▁final	-9.3336
rose	-9.33429
▁true	-9.33441
▁တော်တော်	-9.33516
▁အလုပ်လုပ်	-9.33518
ခြင်း၏	-9.3353
▁early	-9.33535
▁total	-9.33546
▁Tuppence	-9.33557
▁step	-9.33575
▁fine	-9.3376
▁york	-9.33824
▁သတိ	-9.33849
▁due	-9.33876
ကလေး	-9.33891
သွားသည်။	-9.34098
ပြိုင်	-9.34196
ah	-9.34209
တည်း	-9.34309
cle	-9.34369
▁အားလုံး	-9.34456
▁future	-9.34491
▁အမြဲတမ်း	-9.34501
▁sha	-9.34519
▁ဂ	-9.3453
nu	-9.34557
ကြေး	-9.34611
တချို့	-9.34654
ချက်များကို	-9.34686
ee	-9.347
▁ရန်ပုံငွေ	-9.34727
▁San	-9.34911
▁မြို့တော်	-9.34925
၃	-9.35077
▁စာရင်းစစ်	-9.35081
နေသည့်	-9.35106
မသိဘူး	-9.35199
▁hold	-9.35263
▁sound	-9.35298
▁human	-9.35304
▁clear	-9.35373
▁u	-9.35479
▁benefits	-9.35492
ခဲ့ရ	-9.35589
▁according	-9.35664
▁near	-9.35683
cing	-9.3571
▁outside	-9.35723
amp	-9.35729
အများစုသည်	-9.35732
▁news	-9.35745
▁someone	-9.35802
▁လက်ခံ	-9.35846
▁မြေ	-9.35953
▁either	-9.35993
▁needed	-9.36016
စဉ်းစား	-9.3611
▁technology	-9.36124
ay	-9.36175
အစိုးရ	-9.36176
▁sun	-9.36183
ပြုလုပ်	-9.3619
ခေါင်းဆောင်	-9.36192
▁late	-9.36239
ရောင်း	-9.36328
ရစ်	-9.36348
▁ho	-9.36418
ကြိုးစား	-9.36533
ability	-9.36546
အစီအစဉ်	-9.36548
▁Ha	-9.36586
▁access	-9.36586
▁okay	-9.36619
▁ကျန်	-9.36657
century	-9.36658
▁door	-9.36715
ကစား	-9.36751
ချောင်း	-9.36766
ပေးသည်။	-9.36781
▁music	-9.36795
ယို	-9.36823
▁2000	-9.36888
▁bl	-9.37097
▁issue	-9.3712
▁Le	-9.37288
ff	-9.37315
လွန်း	-9.37339
▁inter	-9.37372
▁roman	-9.37404
▁char	-9.37475
▁happen	-9.37477
▁decision	-9.37617
▁game	-9.37628
တည်ဆောက်	-9.37657
▁action	-9.37658
▁ကောင်းကောင်း	-9.37672
ban	-9.37702
▁ad	-9.37704
▁makes	-9.37764
အာဏာ	-9.37816
▁ထောက်ပံ့	-9.37823
▁piece	-9.37885
▁ခွဲခြမ်းစိတ်ဖြာ	-9.3794
ပတ်ဝန်းကျင်	-9.3795
ရု	-9.38051
ရှင်း	-9.38083
▁method	-9.3812
လင်း	-9.38138
▁သတင်းအချက်အလက်	-9.38238
▁heard	-9.38305
▁across	-9.38355
ft	-9.38382
ဒ်	-9.38563
များရှိသည်။	-9.38588
▁experience	-9.38624
▁L	-9.38636
use	-9.38672
▁special	-9.38834
▁usually	-9.38861
ကွဲ	-9.38952
▁east	-9.39028
▁stuff	-9.39055
▁တစ်ခုတည်းသော	-9.39141
၀င်	-9.39173
မဖြစ်	-9.39194
▁ဆက်လက်	-9.39218
ain	-9.39249
ရှိနေ	-9.39285
▁30	-9.39356
▁miles	-9.39496
▁ပုံမှန်	-9.39657
▁Tommy	-9.3971
▁remember	-9.39779
▁မျှော်လင့်	-9.39836
▁death	-9.39848
▁given	-9.39858
▁using	-9.39871
ju	-9.39877
▁စာအုပ်	-9.40097
▁organizations	-9.40099
ome	-9.40113
လိ	-9.40145
▁tourist	-9.40221
▁lu	-9.40228
van	-9.40233
ified	-9.40289
▁issues	-9.40407
မှုအတွက်	-9.40465
▁cha	-9.40471
▁amount	-9.40499
ြ	-9.40507
▁တို့သည်	-9.40527
ear	-9.40573
မှု၏	-9.40676
▁dec	-9.40727
fully	-9.40766
စွမ်း	-9.40792
▁red	-9.40793
▁j	-9.40829
ဧရိယာ	-9.40843
▁စွမ်းဆောင်ရည်	-9.4096
▁executive	-9.41058
မရှိပါဘူး။	-9.41068
သွားခဲ့သည်။	-9.41071
မြစ်	-9.41104
ပါသလား။	-9.41111
▁poor	-9.41172
▁အကဲဖြတ်	-9.41184
▁အသံ	-9.41206
▁ငွေကြေး	-9.41239
မသိ	-9.41269
▁vote	-9.41274
▁ကျွန်ုပ်၏	-9.413
▁ကူညီပေး	-9.41355
▁concern	-9.41362
▁ဒီမှာ	-9.41407
▁possible	-9.41431
▁bill	-9.41448
သွေး	-9.41467
▁အစီရင်ခံစာ	-9.41483
▁hill	-9.41488
▁မကြာခဏ	-9.41501
▁တရားရုံး	-9.41505
ace	-9.41547
ဖြစ်သည့်	-9.41549
▁hundred	-9.4157
ထိန်း	-9.4161
ကူညီ	-9.41615
ကပ်	-9.41729
▁postal	-9.41768
▁အစိတ်အပိုင်း	-9.41804
လျှောက်	-9.41897
နီးပါး	-9.41898
▁De	-9.41951
ration	-9.41961
ဝန်ဆောင်မှုများ	-9.41969
ina	-9.42001
▁fire	-9.42024
▁တိုးလာ	-9.42077
fu	-9.42079
▁village	-9.42105
▁ပံ့ပိုးပေး	-9.42113
▁နိုင်ငံတော်	-9.42159
▁seems	-9.42203
▁ပိုက်ဆံ	-9.42214
qu	-9.42337
ko	-9.42391
▁leave	-9.42408
▁learn	-9.4241
▁ယင်း	-9.42412
▁drug	-9.42453
▁staff	-9.42585
▁held	-9.42635
▁ပိတ်	-9.42667
▁rate	-9.42692
light	-9.42699
လိုက်တာ	-9.42717
▁app	-9.42724
▁8	-9.42755
▁address	-9.42798
▁အတွင်း	-9.4286
wood	-9.4291
▁ဒီဇိုင်း	-9.43074
▁record	-9.43183
▁collection	-9.43193
▁ဗ	-9.4328
▁results	-9.43357
▁coast	-9.43434
မယ့်	-9.43466
ပြည့်	-9.4349
▁လျှော့ချ	-9.43525
ပါက၊	-9.43598
▁14	-9.43697
▁မကြာသေးမီက	-9.43757
▁talking	-9.4376
ရသည်။	-9.43769
တွေး	-9.43806
▁ကွဲပြား	-9.43808
▁Mar	-9.4384
▁interesting	-9.4387
သမျှ	-9.43911
old	-9.43948
သိမ်း	-9.43949
▁ပြတိုက်	-9.43959
ney	-9.43995
လွှာ	-9.44034
▁certain	-9.44045
လိုင်း	-9.44051
▁already	-9.44069
▁tour	-9.44097
▁တုံ့ပြန်	-9.44129
▁personal	-9.44185
▁US	-9.44217
မပေး	-9.44283
▁ပါဝင်သည်။	-9.44431
ကြိုး	-9.44515
တို့သည်	-9.44633
▁suggest	-9.44641
▁အနည်းငယ်	-9.44647
တစ်ခုလုံး	-9.44687
▁modern	-9.44713
▁wi	-9.44729
▁ကန့်သတ်	-9.44857
ana	-9.44916
ထု	-9.44948
▁bring	-9.44993
▁camp	-9.4503
▁des	-9.45049
▁star	-9.45103
▁fo	-9.45109
ဝိုင်း	-9.45187
ple	-9.45209
▁current	-9.45266
tle	-9.45309
▁bra	-9.45319
▁အာ	-9.45413
▁easy	-9.45434
ou	-9.45444
▁rock	-9.45504
လွယ်	-9.45571
လောင်း	-9.45574
စည်းကမ်း	-9.45592
▁hope	-9.45619
ွမ်း	-9.45623
ပံ့ပိုး	-9.45631
လိမ့်မည်။	-9.4565
▁fun	-9.45662
▁200	-9.45789
vent	-9.45835
▁del	-9.45842
ition	-9.45873
ble	-9.45915
တို့၏	-9.46014
▁king	-9.46041
▁”	-9.46041
ore	-9.46145
▁worth	-9.46176
မဲ့	-9.46215
▁policy	-9.46232
တစ်ခုစီ	-9.4628
▁ဖက်ဒရယ်	-9.4632
ထည်	-9.46377
▁period	-9.46378
သူတို့	-9.46464
▁speak	-9.46487
ခဲ့တယ်	-9.46502
▁မိုင်	-9.46503
ကုမ္ပဏီ	-9.46525
သူများကို	-9.46611
စမ်း	-9.46611
▁မထင်	-9.46658
နာရီ	-9.46665
▁taken	-9.46665
▁sign	-9.46712
ned	-9.46716
တောက်	-9.46875
▁account	-9.46958
▁bus	-9.46958
nic	-9.46966
ခံစားရ	-9.46978
နိုင်ပါတယ်။	-9.47006
▁started	-9.47006
nc	-9.47072
ကြိမ်	-9.47079
▁standards	-9.47103
စည်းမျဉ်း	-9.47145
N	-9.47272
တွေရဲ့	-9.47311
▁cover	-9.47316
လျ	-9.47395
လိုအပ်ချက်များ	-9.47414
cover	-9.47439
ight	-9.47462
▁လူတွေက	-9.47559
▁လမ်းလျှောက်	-9.47565
ကျင်းပ	-9.47568
▁jo	-9.47629
▁ဘယ်သူ	-9.47666
တည်ရှိ	-9.47712
lar	-9.47792
မြှင့်တင်	-9.47951
ယုံကြည်	-9.4796
▁political	-9.48069
မိုက်	-9.48102
▁knew	-9.48106
ခြင်းဆိုင်ရာ	-9.48118
အမျိုးအစား	-9.48172
▁U	-9.48181
လင်	-9.48208
▁return	-9.48218
▁together	-9.48255
▁quality	-9.48329
ကွက်	-9.48348
▁ပင်လယ်	-9.48386
ake	-9.4843
(	-9.48493
▁french	-9.48515
▁girl	-9.48516
▁nation	-9.48527
သတင်း	-9.48545
▁မေး	-9.48629
▁summer	-9.48633
စကား	-9.48651
အိတ်	-9.4872
▁ဆုံးဖြတ်ချက်	-9.48749
▁သူတို့မှာ	-9.48767
spect	-9.48828
▁အောင်မြင်	-9.48845
▁difficult	-9.48851
▁sl	-9.48877
အပိုင်း	-9.48887
မဟုတ်ပါ။	-9.48893
တဲ့အတွက်	-9.4892
H	-9.48942
▁although	-9.49001
ဘော	-9.49021
များထက်	-9.49126
ပြေ	-9.49174
wi	-9.49255
▁section	-9.49291
▁စနစ်	-9.49345
ကျန်	-9.49398
ဆယ်	-9.49448
ခဲ့ပါ။	-9.49449
▁significant	-9.49489
ရှေ့	-9.49509
ထည့်	-9.49566
▁sometimes	-9.49604
▁fall	-9.4963
ded	-9.49678
▁remain	-9.49702
cho	-9.49738
▁stop	-9.49823
▁၎င်းတို့ကို	-9.49856
မလုပ်	-9.4986
▁sort	-9.49865
▁စစ်ဆေး	-9.49979
ရောဂါ	-9.49986
မှုဆိုင်ရာ	-9.50067
ရှာဖွေ	-9.50083
fl	-9.50126
ဆဲ	-9.50148
▁fight	-9.50181
တစ်ဖက်	-9.50213
▁systems	-9.5028
▁cap	-9.50286
မြန်	-9.50318
▁ခန့်မှန်း	-9.50337
▁ထို့ကြောင့်	-9.50358
ya	-9.50436
အကြိမ်	-9.50465
တိတ်	-9.50563
အစောပိုင်း	-9.50625
▁cur	-9.50681
▁seven	-9.50684
by	-9.50765
oc	-9.50768
▁su	-9.50844
▁wait	-9.50861
▁အနောက်	-9.50894
▁met	-9.50918
ပေါ်မှာ	-9.50998
▁commission	-9.51007
▁based	-9.51019
မှုတစ်ခု	-9.51038
lon	-9.51072
ဆောင်း	-9.51116
ချိုး	-9.51173
▁အစီရင်ခံ	-9.5121
▁plant	-9.51223
▁ဆန့်ကျင်	-9.51267
▁ground	-9.5134
▁lake	-9.51359
ိုက်	-9.51446
အချို့ကို	-9.51475
ထံ	-9.51497
ကီ	-9.51497
ပေးသည့်	-9.515
▁needs	-9.51655
ဖောက်	-9.51764
day	-9.51815
လိမ့်မည်	-9.51927
ထိန်းချုပ်မှု	-9.52001
ါ	-9.52025
▁eight	-9.52043
ဝေဖန်	-9.52127
စာအုပ်	-9.52132
ပြေး	-9.52146
ဆိတ်	-9.52167
ged	-9.52181
ches	-9.52182
▁che	-9.52246
▁13	-9.52251
▁John	-9.52274
20	-9.52317
▁months	-9.52329
▁အတည်ပြု	-9.52352
den	-9.52405
အများကြီး	-9.52477
log	-9.52676
ပြည်နယ်	-9.5281
ရမယ်။	-9.52811
▁အလုပ်သမား	-9.52856
စည်း	-9.52913
ပြောဆို	-9.52934
ust	-9.52952
တောင်း	-9.52991
▁river	-9.53027
တွေ့ရှိ	-9.53045
သတ်မှတ်	-9.53088
▁win	-9.53133
မတ်	-9.53156
▁ယနေ့	-9.53162
rd	-9.53193
နည်းပညာ	-9.53207
▁အပြစ်	-9.53247
သည်၊	-9.53292
time	-9.5334
မရှိဘူး။	-9.53366
▁hours	-9.53381
ထဲသို့	-9.53412
▁je	-9.5342
▁region	-9.53443
▁တံခါး	-9.53545
des	-9.53555
ဘုရား	-9.53698
ထိခိုက်	-9.53714
▁couple	-9.53795
▁tri	-9.53812
za	-9.53855
▁သင်သည်	-9.53875
လွယ်ကူ	-9.53881
▁works	-9.53977
▁လိုအပ်ပါသည်။	-9.54019
if	-9.54028
har	-9.54046
ထံမှ	-9.5407
သင်္ဘော	-9.5411
let	-9.54142
▁grand	-9.5416
▁တရုတ်	-9.54176
▁ငါ့မှာ	-9.54212
ကောင်းသော	-9.54258
▁စကားပြော	-9.54263
chi	-9.54342
▁ပြောပါတယ်။	-9.54359
▁looking	-9.54431
▁contain	-9.54465
ပေါ်ရှိ	-9.54487
▁Do	-9.54606
▁require	-9.54664
▁focus	-9.54703
နည်းပါး	-9.54734
အော်	-9.54737
ထိပ်	-9.54778
▁တိုက်ခိုက်	-9.54878
ဖြေရှင်း	-9.54896
အစား	-9.54924
တူညီ	-9.54963
▁ask	-9.55062
▁woman	-9.55221
▁couldn	-9.5534
▁himself	-9.55459
▁ka	-9.55463
▁Be	-9.5548
ကမ်းရိုးတန်း	-9.55499
စီးပွားရေး	-9.55593
▁others	-9.55615
ဟမ်	-9.55634
lit	-9.55636
▁board	-9.55679
တစ်ခုတွင်	-9.55741
တ္တ	-9.55793
▁drew	-9.5581
▁measure	-9.55819
လိမ့်မယ်	-9.55824
အဖွဲ့အစည်း	-9.55872
လှေ	-9.55873
▁boy	-9.559
ောက်	-9.55903
▁$1	-9.55971
စျေးနှုန်း	-9.55979
▁approach	-9.55979
လေ့ကျင့်	-9.56098
ဖုန်း	-9.561
▁ထောက်ခံ	-9.56103
▁Ra	-9.56206
▁ကြား	-9.56223
▁ဆုံးရှုံး	-9.56232
▁နားလည်	-9.56259
▁development	-9.56295
▁behind	-9.56301
▁civil	-9.56301
▁ကျွန်မ	-9.56325
နေတယ်	-9.56436
▁light	-9.56513
များ။	-9.56527
ရှိတယ်	-9.56546
fer	-9.56561
▁drive	-9.56578
▁lead	-9.56615
အသက်	-9.56743
▁ပေါင်းစပ်	-9.56747
▁မည်သို့	-9.56794
▁super	-9.56885
▁စပိန်	-9.56907
▁friend	-9.56918
▁god	-9.56936
▁save	-9.56961
▁toward	-9.57011
မျက်	-9.57071
အရေအတွက်	-9.57084
tri	-9.57138
▁(1	-9.5715
ဂူ	-9.57172
▁ကျန်းမာရေး	-9.57275
air	-9.57351
အနေဖြင့်	-9.57365
▁lost	-9.57395
ပိုင်	-9.57467
▁mind	-9.57468
အခြေခံ	-9.57469
▁Mi	-9.57489
ချမ်းသာ	-9.5749
▁single	-9.57528
▁husband	-9.57558
▁J	-9.57592
▁thousand	-9.57598
▁ရွှေ	-9.57642
▁ယခုအခါ	-9.57645
▁ချစ်	-9.57675
▁ဟုတ်ပါတယ်	-9.57709
▁စိတ်ဝင်စား	-9.57725
တစ်ခုရှိသည်။	-9.57753
လော	-9.57854
လွှတ်	-9.57902
▁အပိုင်း	-9.57926
ik	-9.57927
cal	-9.57956
မျက်လုံး	-9.58088
▁pen	-9.58104
▁strong	-9.58172
▁Ar	-9.58205
fr	-9.58229
ရာသီ	-9.5827
ဆောင်ရွက်	-9.58271
▁Po	-9.58287
ဏ်	-9.58301
▁dollars	-9.58379
မှုများသည်	-9.58403
လက်မှတ်	-9.58421
▁appear	-9.58469
▁justice	-9.58499
တု	-9.58528
အချက်အလက်များကို	-9.58585
လမ်းကြောင်း	-9.58681
▁age	-9.58695
▁guy	-9.58714
▁Me	-9.58814
ians	-9.58978
▁members	-9.58978
ရောက်ရှိ	-9.58989
ists	-9.59008
ji	-9.59065
▁တာဝန်	-9.59066
▁အရှေ့	-9.59084
G	-9.59091
ဖွံ့ဖြိုးတိုးတက်	-9.59099
▁companies	-9.5912
▁required	-9.59194
နိုင်တယ်။	-9.59256
▁studies	-9.5941
▁became	-9.59411
လဲဆိုတာ	-9.59478
▁ob	-9.59481
သောအခါတွင်	-9.59487
ဥပမာ	-9.59493
▁ဇာတ်လမ်း	-9.59519
မှတ်တမ်း	-9.59598
ဖြူ	-9.59626
▁answer	-9.59827
မရှိသော	-9.59882
30	-9.59997
▁ဒါဟာ	-9.60007
စာရွက်	-9.60014
kin	-9.60046
▁cat	-9.60058
▁အရေးကြီး	-9.60071
▁သက်ဆိုင်	-9.60153
လစာ	-9.60199
▁price	-9.60199
▁british	-9.60203
ပြင်း	-9.60243
နှိပ်	-9.60245
ခဏ	-9.60271
▁လာ	-9.60295
▁နှစ်စဉ်	-9.60338
▁considered	-9.60355
mu	-9.60499
▁anyone	-9.60519
▁arm	-9.60534
▁community	-9.60623
▁shows	-9.60699
▁beautiful	-9.60707
ဗေဒ	-9.60708
▁population	-9.60709
▁Pe	-9.60711
အကြီးဆုံး	-9.6072
▁မပြော	-9.6078
ပြသ	-9.60883
▁အမျိုးအစား	-9.60928
ကြုံ	-9.60996
လစ်	-9.61022
▁impact	-9.61059
ative	-9.61128
အဆင်ပြေ	-9.61214
ding	-9.61255
uch	-9.61262
▁Ja	-9.61279
▁နည်းနည်း	-9.61332
▁statement	-9.61391
▁planning	-9.6141
▁အသိအမှတ်ပြု	-9.61411
▁ခေါင်း	-9.61452
▁အမည်	-9.61465
work	-9.61477
serv	-9.61481
နီး	-9.6153
ဝက်	-9.61565
▁သံသယ	-9.61582
▁object	-9.61684
▁notice	-9.61722
ရွာ	-9.61736
▁hu	-9.61749
▁ရှေ့	-9.61769
▁factor	-9.61875
▁cannot	-9.61981
စတင်	-9.61989
▁ဂျပန်	-9.62101
▁income	-9.62104
▁hit	-9.62139
▁သဘာဝ	-9.6214
hy	-9.62147
ls	-9.6224
ယာဉ်	-9.62406
တောင်ဘက်	-9.62412
▁mountain	-9.62452
ကမ္ဘာ	-9.62473
bre	-9.62478
▁အိပ်	-9.62492
▁စုဆောင်း	-9.62493
ကတ်	-9.62513
ပါ၊	-9.62535
▁areas	-9.62553
▁color	-9.62562
pro	-9.62645
▁sell	-9.62677
တစ်စိတ်တစ်ပိုင်း	-9.62705
▁လေ့လာ	-9.62748
▁အာမခံ	-9.6281
▁gave	-9.6282
▁reduce	-9.62823
▁workers	-9.62872
ပိတ်	-9.6291
▁similar	-9.63049
▁employees	-9.63088
▁requirements	-9.63177
အံ့သြ	-9.63194
အသုံး	-9.63218
▁demand	-9.63225
▁ပြေး	-9.63251
eg	-9.63311
မေး	-9.63335
မှု၊	-9.63449
zar	-9.63476
▁Wa	-9.63478
▁trade	-9.6352
▁document	-9.63568
▁port	-9.63582
▁အရေးကြီးသော	-9.63643
▁accept	-9.63655
head	-9.63671
အိမ်ထောင်	-9.63672
▁အနာဂတ်	-9.63684
▁table	-9.63706
▁pick	-9.63753
▁card	-9.6376
▁ထည့်သွင်း	-9.63804
▁aid	-9.63805
ဂိမ်း	-9.63828
စီမံခန့်ခွဲမှု	-9.63888
ခိုင်း	-9.6389
▁har	-9.63904
အားလုံးသည်	-9.63921
▁11	-9.63931
▁famous	-9.63959
▁texas	-9.64045
▁alcohol	-9.64133
ပြောင်	-9.64138
her	-9.64152
▁estimate	-9.64167
ကဏ္ဍ	-9.64287
▁investment	-9.64379
ရတဲ့	-9.64387
▁resources	-9.6439
lie	-9.6446
▁college	-9.64482
▁အိန္ဒိယ	-9.64498
ဂီတ	-9.64529
▁wouldn	-9.64739
▁သုတေသန	-9.64787
ဏ	-9.64788
ခြား	-9.64812
▁month	-9.64909
▁ပြောကြားခဲ့သည်။	-9.64941
▁morning	-9.64971
ထူးခြား	-9.65003
ကျွန်	-9.65022
ကင်	-9.65104
▁၂၀၀	-9.65115
▁နိုင်ငံခြား	-9.65157
▁ရှိသည်။	-9.65171
▁child	-9.65228
▁cases	-9.65246
▁ခေတ်မီ	-9.65252
▁author	-9.65277
▁အဆောက်အဦ	-9.65285
▁felt	-9.65319
နိုင်ပါ။	-9.6543
▁ထို့အပြင်	-9.65448
▁အခြားသော	-9.65467
ျ	-9.65483
ဗီ	-9.65492
အုပ်	-9.65587
ator	-9.65629
bel	-9.65648
▁Bar	-9.65651
▁ကိုယ်စားပြု	-9.6596
ခိုး	-9.65997
ကူ	-9.66012
▁To	-9.66035
▁cor	-9.66048
ထင်တယ်	-9.66058
art	-9.66063
▁key	-9.66074
နယ်ပယ်	-9.66118
ပစ္စည်းများ	-9.6623
စင်တာ	-9.6624
မို့	-9.66288
▁အများသူငှာ	-9.6629
ek	-9.6631
ခြောက်	-9.66343
erry	-9.66422
▁မလုပ်	-9.66436
▁မင်းသိတဲ့	-9.66539
▁delivery	-9.66543
ထုတ်ဝေ	-9.66555
die	-9.66564
နို	-9.66632
▁ထပ်	-9.66684
ပြီ။	-9.66774
▁သီးခြား	-9.66826
▁စီမံခန့်ခွဲမှု	-9.66898
▁အဆောက်အအုံ	-9.66907
▁တူညီသော	-9.66911
ပုဂ္ဂလိက	-9.6696
မုန်း	-9.67008
▁ပေးပို့	-9.67034
▁ထင်ရှား	-9.67105
▁expect	-9.67117
ထောင့်	-9.6734
လှုပ်ရှား	-9.67351
▁100	-9.67375
▁ဦးတည်	-9.67381
ကျွန်း	-9.67474
▁တွေ့ရှိ	-9.67502
ခဲ	-9.67544
▁သူတို့သည်	-9.67556
တစ်ခုအဖြစ်	-9.67568
လိပ်	-9.67575
▁ကိုယ်	-9.67623
အထောက်အထား	-9.67635
ပဲ၊	-9.67689
▁ရောမ	-9.67699
တစ်လုံး	-9.67767
▁share	-9.67809
▁အာရုံစိုက်	-9.67836
ရှုပ်ထွေး	-9.67863
▁ဘဏ္ဍာရေး	-9.67902
▁wrong	-9.67906
▁entire	-9.67906
ခြင်းမှ	-9.68007
▁လိုက်နာ	-9.68052
▁turned	-9.68092
▁subject	-9.68094
part	-9.68095
▁perform	-9.68124
▁involved	-9.6815
▁Li	-9.68264
rank	-9.685
ရေးသား	-9.68504
ကြောက်	-9.68522
ov	-9.68653
▁count	-9.68703
ide	-9.68704
ped	-9.68742
uck	-9.68793
တည်	-9.68956
ကြီးမား	-9.69086
ank	-9.69095
duc	-9.69125
ညွှန	-9.69135
ရန်နှင့်	-9.6927
▁self	-9.69277
▁wife	-9.69284
အရွယ်	-9.6929
▁par	-9.69307
▁began	-9.69408
▁ရဲ	-9.6941
▁america	-9.69428
ခဲ့သော်လည်း	-9.69433
▁haven	-9.69482
▁pri	-9.69487
▁သံ	-9.69495
zo	-9.69513
သေချာ	-9.69521
သူများအတွက်	-9.69533
▁အရည်အသွေး	-9.69563
ဥ	-9.69639
▁eyes	-9.6966
တာကြောင့်	-9.69685
▁seem	-9.69696
▁ယဉ်ကျေးမှု	-9.6972
▁sir	-9.69739
▁palace	-9.6974
ပြတ်	-9.69764
▁သင်သိ	-9.69771
▁party	-9.69775
▁ကလေးတွေ	-9.6994
▁soon	-9.69953
▁activities	-9.69963
▁situation	-9.70009
▁စုစုပေါင်း	-9.70286
အပ်	-9.70319
▁reports	-9.7033
▁အကောင်အထည်ဖော်	-9.70338
▁restaurant	-9.70425
▁ဘတ်ဂျက်	-9.70442
▁ကာကွယ်	-9.70455
ငါ	-9.70459
ခရီးစဉ်	-9.70467
▁rules	-9.70468
▁attack	-9.70473
▁agree	-9.70529
hen	-9.70536
ဖြစ်ပွား	-9.70558
ကျင့်	-9.70566
ချစ်	-9.70584
▁meet	-9.70596
▁horse	-9.70617
for	-9.70659
▁ခြောက်	-9.70696
▁dead	-9.70802
▁နွေရာသီ	-9.70857
မိန်းမ	-9.7087
▁တန်ဖိုး	-9.70873
mar	-9.70887
▁tv	-9.70911
▁improve	-9.71033
▁Time	-9.71036
▁proposed	-9.71046
ခံစား	-9.71073
can	-9.71077
qua	-9.71152
▁မူလ	-9.71155
pla	-9.71191
တွန်း	-9.71216
▁rec	-9.7124
▁hot	-9.71254
စလုံး	-9.71269
▁taking	-9.71291
hu	-9.71374
ခဲ့ပါသည်။	-9.71393
တော့ဘူး။	-9.71397
ization	-9.71409
▁ပို၍	-9.71425
▁col	-9.71471
▁especially	-9.71498
par	-9.71521
▁longer	-9.71531
လွတ်လပ်	-9.7158
▁ကောင်းပြီ	-9.71597
▁eat	-9.71605
▁ဆိုသည်။	-9.71707
▁ထိန်းချုပ်	-9.71739
cul	-9.71778
of	-9.71786
pan	-9.71855
နှင့်ပတ်သက်၍	-9.71876
▁ဒေတာ	-9.71902
အထက်	-9.71974
▁goes	-9.72002
ဖျက်	-9.72086
ဘူးဆိုတာ	-9.72136
▁ထုတ်ကုန်	-9.72164
နိုင်တဲ့	-9.72203
အကျိုး	-9.72224
အမည်	-9.72243
ရမည့်	-9.72243
▁further	-9.72251
▁ပြောပြ	-9.72296
ကောင်းတဲ့	-9.72336
▁disc	-9.72364
▁အန္တရာယ်	-9.72367
▁ကမ်းခြေ	-9.72394
▁charge	-9.72406
90	-9.72462
▁station	-9.72475
▁likely	-9.7249
စိုက်	-9.72534
▁difference	-9.72539
မရှိဘူး	-9.72559
gan	-9.72706
▁ထုတ်ပြန်	-9.72712
ဘုရားကျောင်း	-9.72748
လုပ်ငန်းစဉ်	-9.7281
▁standard	-9.72865
မဟုတ်သော	-9.72895
▁evidence	-9.72962
▁themselves	-9.7301
ရာထူး	-9.73046
▁ဓား	-9.73094
▁source	-9.73154
▁ပြင်ဆင်	-9.73167
အနောက်ဘက်	-9.73229
အသေးစိတ်	-9.73348
ရှင်းလင်း	-9.73355
ming	-9.7336
▁သူမကို	-9.73449
ဘူး၊	-9.73507
▁produce	-9.7351
▁minutes	-9.73531
▁အစားထိုး	-9.73536
▁comments	-9.73551
▁cru	-9.73572
▁central	-9.73632
တံ	-9.73668
▁Car	-9.73678
▁Da	-9.73705
ရှိုး	-9.73717
hal	-9.73751
▁sense	-9.73769
ခြင်းကြောင့်	-9.73878
ရည်ရွယ်	-9.73891
လွှဲ	-9.73918
လယ်	-9.73965
▁adrin	-9.74015
▁move	-9.74021
▁ရလဒ်	-9.74048
▁Ho	-9.74098
▁middle	-9.74112
fin	-9.74135
▁depend	-9.74159
▁list	-9.74164
မှား	-9.74172
▁ပတ်သက်၍	-9.74184
▁instead	-9.74207
▁တိုက်ရိုက်	-9.74307
ric	-9.74405
▁education	-9.7441
▁ရင်းနှီး	-9.74421
▁Se	-9.7444
▁parents	-9.7445
▁shi	-9.74584
▁campaign	-9.74642
လှပ	-9.74682
မဖြစ်နိုင်	-9.74695
▁check	-9.74708
▁provided	-9.74745
ica	-9.74772
▁bank	-9.74776
▁Di	-9.74829
▁industry	-9.74884
▁green	-9.74913
နိုင်ငံ၏	-9.74935
organ	-9.75053
▁Adrin	-9.75078
ties	-9.75097
အတိုင်းအတာ	-9.7513
▁republican	-9.75142
မရှိပေ။	-9.75148
သူများ၏	-9.75168
ria	-9.75226
ခုန်	-9.75304
▁store	-9.7533
ants	-9.75342
▁tu	-9.75388
▁coming	-9.7541
▁သိသိသာသာ	-9.75419
▁common	-9.75425
▁beach	-9.7546
သဘော	-9.75479
doro	-9.75521
▁cause	-9.75541
▁အစ	-9.75567
▁ကျောက်	-9.75583
elect	-9.75597
အုပ်စု	-9.75625
▁exp	-9.7564
80	-9.75653
ရယူ	-9.75654
▁living	-9.75664
rian	-9.75721
မေးခွန်း	-9.75853
▁mother	-9.75856
▁request	-9.75861
▁drink	-9.75867
▁ဖြစ်နိုင်	-9.75871
ောင့်	-9.75921
▁france	-9.75965
မသိဘူး။	-9.75983
မြင့်မား	-9.76
ဆက်ဆံ	-9.76004
70	-9.76005
တကယ်	-9.76064
▁leader	-9.76065
▁continue	-9.76089
တာလဲ။	-9.7612
▁huge	-9.7619
လမ်းညွှန်	-9.76195
▁လျှို့ဝှက်	-9.76203
▁ကူညီ	-9.76208
gen	-9.76255
▁position	-9.76264
▁contract	-9.76351
▁lower	-9.76439
▁draw	-9.76457
▁letter	-9.7647
▁def	-9.76485
▁လမ်းကြောင်း	-9.76489
▁sold	-9.76575
လာပြီး	-9.76586
istic	-9.7659
pl	-9.76625
သန်း	-9.76625
▁attorney	-9.76646
berg	-9.76725
ern	-9.76848
nce	-9.76875
ထိရောက်	-9.76898
▁follow	-9.76912
▁ငါတို့မှာ	-9.76948
▁moment	-9.76994
▁ဥရောပ	-9.77028
▁annual	-9.77045
▁ကစား	-9.77113
ပြိုင်ပွဲ	-9.77117
စ္စ	-9.77126
▁အချို့	-9.7713
▁အို	-9.77136
မဟုတ်ဘူး	-9.77163
gent	-9.77178
▁range	-9.77179
▁visitors	-9.77222
▁pal	-9.77237
▁protect	-9.77254
▁ဝယ်ယူ	-9.7727
ခွန်	-9.77396
▁manager	-9.77442
▁books	-9.77479
ပြတိုက်	-9.77485
▁received	-9.77499
ယုံ	-9.77524
▁reporting	-9.7757
▁saint	-9.77604
ရွက်	-9.77614
တစ်ခုသည်	-9.77627
▁လှုပ်ရှားမှု	-9.77632
▁bush	-9.77635
▁လည်ပတ်	-9.77809
▁spend	-9.77809
▁clo	-9.7781
ဖန်တီး	-9.7783
▁culture	-9.77838
ဖြစ်ရပ်	-9.7785
▁hall	-9.77892
ory	-9.77895
့်	-9.77905
များအပေါ်	-9.77924
▁ကော်မရှင်	-9.77924
▁foreign	-9.77989
house	-9.78001
ခင်ပွန်း	-9.78038
▁labor	-9.78039
ချို	-9.78056
▁Go	-9.78056
▁ပတ်သက်	-9.78081
▁above	-9.7809
▁comes	-9.78147
နန်းတော်	-9.78188
ably	-9.78224
▁သဘောကျ	-9.78342
▁chance	-9.7836
▁crime	-9.78389
▁front	-9.78413
ကျောက်	-9.7843
▁ဘုရင်	-9.78431
▁အီတလီ	-9.78439
ify	-9.78495
▁grow	-9.78534
ဘဏ္ဍာရေး	-9.78539
▁ခက်ခဲ	-9.78541
▁condition	-9.7859
ပြုပြင်ပြောင်းလဲ	-9.78628
သည့်အခါ	-9.7873
▁inside	-9.78777
▁ဖယ်ရှား	-9.78792
▁ရည်ရွယ်ချက်	-9.78802
▁square	-9.78843
▁fair	-9.78934
လက္ခဏာ	-9.78943
▁အများအပြား	-9.78946
▁grant	-9.78978
▁လုပ်ဆောင်ချက်	-9.79058
▁tried	-9.79095
▁ထို့နောက်	-9.79095
bert	-9.79158
▁detail	-9.79247
▁fra	-9.79293
▁worked	-9.79313
ကွာ	-9.79365
အဲဒီမှာ	-9.79368
▁အနုပညာ	-9.79432
▁ဆယ်	-9.79466
▁ပြန်လည်သုံးသပ်	-9.79565
▁base	-9.79578
▁film	-9.79623
ado	-9.79697
ထည့်သွင်းစဉ်းစား	-9.79726
ကယ်	-9.79756
များအတွင်း	-9.79783
▁anti	-9.79794
▁ဤနေရာ	-9.79799
▁intervention	-9.79806
▁ကြော်ငြာ	-9.79811
▁develop	-9.79852
▁brought	-9.79857
▁military	-9.79857
▁recommend	-9.79908
▁critic	-9.79953
ငှား	-9.79959
▁reported	-9.79971
▁meeting	-9.79992
▁economy	-9.8001
▁လေ့လာမှု	-9.80045
မေ့	-9.8005
လျော့	-9.80059
ဖန်	-9.80112
▁recent	-9.80128
▁သိပ်	-9.80138
▁တစ်နှစ်	-9.80153
▁poirot	-9.80368
ook	-9.80425
▁လိုအပ်သော	-9.80446
▁မြင်ကွင်း	-9.80472
▁spoke	-9.80522
▁expected	-9.80548
ရှိခဲ့သည်။	-9.80582
vel	-9.80583
တွေဟာ	-9.80749
▁credit	-9.80882
ပမာဏ	-9.80891
▁saying	-9.80898
▁enter	-9.80986
မျက်နှာ	-9.81085
▁operation	-9.81095
စံနှုန်းများ	-9.81126
▁pat	-9.81218
▁ဝင်ရောက်	-9.81244
▁လုပ်ငန်းစဉ်	-9.81258
▁အနီး	-9.81288
▁နောက်ဆုံးတွင်	-9.81358
အမျိုးမျိုး	-9.81384
▁farm	-9.81399
လောင်	-9.81421
သွားပြီး	-9.81451
ရူး	-9.81502
▁လက်တွေ့	-9.81645
▁explain	-9.81657
▁heart	-9.81731
▁Poirot	-9.81813
▁houses	-9.81857
▁တည်ထောင်	-9.81917
ency	-9.8192
▁ခန့်	-9.81969
တစ်ခု၏	-9.81986
ခန့်မှန်းချက်	-9.81993
▁စိတ်ကူး	-9.82013
▁expensive	-9.82021
lies	-9.82073
▁twenty	-9.82073
ရိ	-9.82099
▁trip	-9.82125
▁စစ်ပွဲ	-9.82136
hor	-9.82152
▁hear	-9.82184
▁cl	-9.82188
▁50	-9.82427
ရှိတယ်၊	-9.82454
▁success	-9.82471
သမီး	-9.82476
ino	-9.82483
မန်နေဂျာ	-9.82491
▁တကယ်ကို	-9.82492
တွေအတွက်	-9.82532
pres	-9.82534
▁2001	-9.82582
spite	-9.82608
ခရိုင်	-9.82658
ခဲ့ပေ။	-9.82659
ပေးပါသည်။	-9.8272
put	-9.82743
ification	-9.82838
▁fan	-9.82868
▁နှိုင်းယှဉ်	-9.82911
ကိုလည်း	-9.82949
▁lawyers	-9.82978
အစ	-9.83065
rant	-9.83139
▁page	-9.83149
▁role	-9.83219
▁60	-9.83293
▁mis	-9.83305
▁ဆန္ဒ	-9.83311
အမှုဆောင်	-9.83369
ib	-9.8342
▁ခေတ်	-9.83462
ari	-9.83494
▁9	-9.83529
မန်	-9.83582
▁field	-9.83599
▁မလို	-9.8362
▁district	-9.83702
▁route	-9.83727
နိုင်ပြီး	-9.83733
င်္	-9.8375
ကြောင်	-9.83753
▁အားကစား	-9.83765
ခေါင်း	-9.83794
ပါရှိသည်။	-9.83825
▁စကား	-9.83834
ဖွဲ့စည်းပုံ	-9.83895
အကျိုးခံစားခွင့်	-9.83914
နံရံ	-9.83918
-2	-9.8392
▁peace	-9.83932
မူဝါဒ	-9.83937
ဆိုးရွား	-9.83944
see	-9.8406
▁stone	-9.84082
▁Ka	-9.8413
ပုံရသည်။	-9.84147
▁paint	-9.84179
clu	-9.84211
▁weather	-9.84234
▁avoid	-9.84287
▁ယောက်ျား	-9.84334
စေ့	-9.84344
▁တိုက်ပွဲ	-9.84349
▁questions	-9.84359
▁funding	-9.84403
▁exactly	-9.84447
▁မြစ်	-9.84519
▁အဓိပ္ပါယ်	-9.84586
ကွယ်	-9.84593
ဆိပ်ကမ်း	-9.84607
▁following	-9.8461
တွက်	-9.84719
vin	-9.84772
▁မဟုတ်ဘူး။	-9.8494
▁original	-9.84982
ဆိုင်း	-9.85048
ging	-9.85055
မည်မဟုတ်ပါ။	-9.85084
▁achieve	-9.85089
▁ancient	-9.8509
ကိုက်ညီ	-9.85091
▁feature	-9.85143
▁မစ္စတာ	-9.85143
▁valley	-9.85198
▁စားသောက်ဆိုင်	-9.85233
▁happened	-9.85367
zi	-9.85369
▁allowed	-9.85394
▁guide	-9.85443
▁ပျက်စီး	-9.85447
ပြောင်းလဲ	-9.85513
သလောက်	-9.85522
▁director	-9.85537
▁မေးခွန်း	-9.85659
▁break	-9.85684
▁japan	-9.85688
▁မက်	-9.85713
▁တကယ့်	-9.85736
▁အတူတူ	-9.85736
▁wide	-9.85737
▁မြောက်ဘက်	-9.85742
ခဲ့ဖူး	-9.85765
▁ငြင်းဆို	-9.85792
▁changed	-9.85795
▁fish	-9.85842
မေ	-9.859
စာမျက်နှာ	-9.85946
▁ထွက်သွား	-9.85975
▁လူသား	-9.86094
▁မင်းမှာ	-9.86161
▁Con	-9.86191
စာတမ်း	-9.86219
▁equal	-9.86225
အို	-9.86229
လံ	-9.86235
▁1996	-9.86292
ရရှိရန်	-9.86377
နည်းနည်း	-9.86396
▁addition	-9.86471
▁third	-9.86496
ဖွဲ့စည်း	-9.86525
▁trust	-9.86531
▁completely	-9.8654
▁serve	-9.86559
▁unit	-9.86559
ဆရာဝန်	-9.86623
ခွင်	-9.86661
ရှိတဲ့	-9.86719
▁sit	-9.86858
ရွေးချယ်မှု	-9.86896
▁international	-9.86933
တက္ကသိုလ်	-9.86987
▁အတိအကျ	-9.86987
▁စျေး	-9.87067
နံပါတ်	-9.87097
မေးလ်	-9.87102
အနိုင်ရ	-9.87109
▁မဟုတ်ဘူး၊	-9.87111
သိတယ်	-9.87118
wo	-9.87121
ခဲ့ကြောင်း	-9.87123
အသုံးစရိတ်	-9.87156
ချော	-9.872
ကျေနပ်	-9.87262
▁located	-9.87262
▁reform	-9.8728
off	-9.87298
▁israel	-9.87321
▁အတွေ့အကြုံ	-9.8735
သူသည်	-9.87386
▁express	-9.87438
▁စိုးရိမ်	-9.8744
▁hour	-9.8745
▁သူ့ကိုယ်သူ	-9.87482
နှစ်သက်	-9.87492
တာဝန်	-9.87513
အမေရိက	-9.87544
နယ်မြေ	-9.87557
ပန်	-9.87561
▁အကြံပြု	-9.87623
▁perhaps	-9.87647
ချေ	-9.8765
▁happy	-9.87757
▁gone	-9.87772
▁မျက်နှာ	-9.87776
ထိုက်	-9.87812
▁traditional	-9.8792
▁ကြိုးပမ်း	-9.87963
ပေးခဲ့သည်။	-9.87982
ology	-9.8809
အခန်း	-9.8809
form	-9.88103
raft	-9.88109
▁ဥပဒေရေးရာ	-9.88199
မယ်ထင်တယ်။	-9.882
ထဲကို	-9.88252
နိုင်ငံသား	-9.88267
▁နာမည်	-9.88293
▁gate	-9.88331
rate	-9.88348
▁kept	-9.88422
များသို့	-9.88438
▁ရွာ	-9.88443
ခရစ်ယာန်	-9.88477
အာရုံ	-9.8852
ဆက်စပ်	-9.88543
မှုကြောင့်	-9.88576
▁chinese	-9.88588
▁ကွန်ဂရက်	-9.88613
▁natural	-9.88644
▁ran	-9.8865
▁para	-9.88653
▁decided	-9.88702
▁အမှန်	-9.88707
ox	-9.88752
▁thank	-9.88757
▁picture	-9.88811
▁ဖောက်သည်	-9.88812
သိတယ်။	-9.88816
▁တစ်ခါမှ	-9.88817
▁recently	-9.88865
▁mrs	-9.88897
▁ပတ်သက်ပြီး	-9.88906
လုပ်ဖို့	-9.88927
ဝါဒ	-9.88938
▁attention	-9.89034
▁Na	-9.89045
တစ်ခုရှိ	-9.89083
များပေါ်တွင်	-9.89095
ဆွဲဆောင်မှု	-9.89103
▁kill	-9.89121
သူ၏	-9.89137
▁countries	-9.89213
▁judge	-9.89267
▁ပါတီ	-9.89274
W	-9.89305
မူတည်	-9.89331
▁itself	-9.8937
▁james	-9.89372
▁wear	-9.89376
▁exist	-9.89408
ရမှာ	-9.89425
▁perfect	-9.89426
ဘာလုပ်	-9.89467
▁မှတ်ချက်	-9.89524
▁structure	-9.89538
▁scr	-9.89547
တော်တော်များများ	-9.8955
▁Ri	-9.89551
ဒေါ်လာ	-9.89551
▁sent	-9.89568
▁ကောင်းမွန်သော	-9.89569
▁ထောင်	-9.89596
ထုတ်လွှတ်မှု	-9.89652
▁ဘယ်သူမှ	-9.89657
တစ်ကောင်	-9.89697
▁ရထား	-9.89763
du	-9.89772
▁၁၀	-9.89791
တိကျ	-9.89822
သီ	-9.89901
▁wonder	-9.89903
▁wish	-9.8991
▁arch	-9.89921
သင်္ချိုင်း	-9.89932
▁Ga	-9.89943
room	-9.90039
wan	-9.90045
အစားအစာ	-9.90052
▁created	-9.90066
▁wind	-9.9007
▁aren	-9.90122
▁ထုတ်လုပ်	-9.90171
▁friends	-9.90202
ဆက်ဆံရေး	-9.90217
ရွေးကောက်ပွဲ	-9.90271
မီး	-9.90289
အပါအဝင်	-9.90346
▁choice	-9.90385
▁german	-9.90446
tive	-9.90462
▁resort	-9.90611
▁prefer	-9.90642
ခြင်း။	-9.90653
၀တ်	-9.90685
ခြင်းဖြစ်သည်။	-9.90695
▁Vi	-9.90698
လာခဲ့သည်။	-9.90725
▁စီစဉ်	-9.90728
▁higher	-9.90755
▁lived	-9.90765
ကော်မတီ	-9.90781
နာမည်	-9.9082
▁julius	-9.90895
သလိုပဲ	-9.90896
၀၀၀	-9.90958
▁benefit	-9.90968
bit	-9.90971
ita	-9.90972
▁represent	-9.90981
ရပ်ကွက်	-9.9099
▁အရည်အချင်း	-9.9105
ရန်ပုံငွေ	-9.91052
ရှုပ်	-9.91055
▁စျေးကွက်	-9.9108
▁display	-9.91181
▁rates	-9.91203
ker	-9.91236
တစ်ဝှမ်း	-9.91237
▁indian	-9.91266
▁တီထွင်	-9.91301
ဖူးဘူး။	-9.91316
▁prior	-9.91515
▁မတူညီသော	-9.91521
ထုံး	-9.91524
12	-9.91543
▁police	-9.91583
▁train	-9.91594
ole	-9.916
▁style	-9.91621
အက်ဥပဒေ	-9.91623
22	-9.91664
▁died	-9.91704
▁boat	-9.91778
bra	-9.91828
▁necessary	-9.91868
▁words	-9.91876
▁ဒါကို	-9.91883
poli	-9.91897
▁ဆန့်ကျင်ဘက်	-9.9191
▁အများကြီးရှိ	-9.91942
ရမည်ဖြစ်သည်။	-9.91949
itz	-9.91972
▁clean	-9.91989
မည်ကို	-9.92
▁painting	-9.9201
app	-9.92012
▁knowledge	-9.92041
စခန်း	-9.92065
▁paid	-9.92072
စမ်းသပ်မှု	-9.92087
▁EPA	-9.92098
သော်လည်း၊	-9.92115
▁လှပသော	-9.92233
lock	-9.92273
ette	-9.92282
မရှိဘဲ	-9.9229
▁ဦးဆောင်	-9.92291
fo	-9.92344
▁mark	-9.92414
▁reach	-9.92436
▁plans	-9.92506
သလား	-9.92534
သမိုင်း	-9.92555
များအဖြစ်	-9.92621
ထုတ်လုပ်	-9.92657
▁serious	-9.92684
▁designed	-9.9269
ပွ	-9.92735
အီဂျစ်	-9.92792
▁ရာသီဥတု	-9.92812
အင်ဂျင်	-9.92908
▁royal	-9.92968
▁voice	-9.92968
မိသားစု	-9.92994
လန်	-9.93062
လေ့လာမှု	-9.93075
အပြောင်းအလဲ	-9.93076
▁season	-9.93076
▁သက်သေ	-9.93093
▁မူဝါဒ	-9.9313
▁nine	-9.93145
▁ငါ့ကို	-9.9317
▁moved	-9.93171
▁မိနစ်	-9.93205
ငွေပေးချေမှု	-9.93279
ဖော်ပြထား	-9.93285
000	-9.93299
▁ဆောင်ရွက်	-9.93301
▁အလားတူ	-9.93316
▁nor	-9.93367
က်စ်	-9.93369
▁respect	-9.93372
▁resident	-9.93432
ဖယ်	-9.93528
ခြင်းမပြု	-9.93533
▁ပြည်တွင်း	-9.9355
▁slow	-9.93642
▁rev	-9.93686
▁lack	-9.93733
လျှော့	-9.93783
▁trouble	-9.93783
အောင်မြင်မှု	-9.93859
▁buildings	-9.93877
နံ	-9.9392
▁rep	-9.93973
▁ပမာဏ	-9.94007
သဖြင့်	-9.94008
▁သမိုင်း	-9.94017
▁leg	-9.94017
ရှေ့နေ	-9.94071
▁firm	-9.94078
▁tower	-9.94118
တစ်ခုက	-9.94176
▁သူ့ရဲ့	-9.94177
▁former	-9.94189
မဟုတ်ပေ။	-9.94197
▁tend	-9.94293
▁ဝင်ငွေ	-9.94309
▁သက်သေပြ	-9.94348
▁လူမှုဖူလုံရေး	-9.94371
▁additional	-9.94403
▁committee	-9.94489
▁join	-9.94498
▁ဥပမာအားဖြင့်	-9.94549
ရှိသော်လည်း	-9.94562
▁ရှင်းပြ	-9.94607
▁english	-9.94607
▁epa	-9.94641
ပါရှိသော	-9.94675
▁dog	-9.94764
ဘာသာစကား	-9.94788
ပါပြီ။	-9.94809
▁listen	-9.94831
▁purpose	-9.94844
ကောင်းတယ်။	-9.94852
ကျသော	-9.94874
▁အပါအဝင်	-9.94883
ဝန်ထမ်းများ	-9.94891
▁ကမ္ဘာ့	-9.95024
ပိုင်ခွင့်	-9.95075
▁university	-9.95081
▁foot	-9.95172
ဆန်း	-9.9524
my	-9.95268
▁specific	-9.9527
▁(2	-9.95315
▁washington	-9.95319
▁အဆုံး	-9.95329
▁ပရောဂျက်	-9.95381
ခွဲခြား	-9.9539
ကြမ်း	-9.95462
▁သင့်အား	-9.95473
well	-9.95488
▁ဖော်ထုတ်	-9.95501
ဖြစ်သောကြောင့်	-9.95516
ွန်ဂရက်လွှတ်တော်	-9.95532
ဟူသော	-9.95543
▁ရပ်တန့်	-9.95676
▁rich	-9.9571
▁related	-9.95752
▁challenge	-9.95796
▁လုံလောက်	-9.95799
▁trees	-9.95829
ose	-9.9584
မော်ဒယ်	-9.95915
▁groups	-9.95932
▁china	-9.95965
▁funds	-9.95982
လေ့ရှိ	-9.95983
▁စမ်းသပ်	-9.96003
မဟုတ်ဘဲ	-9.96005
▁complex	-9.96095
▁gun	-9.96147
▁အကျိုးသက်ရောက်	-9.96179
uff	-9.96256
ဝန်	-9.96264
▁taxes	-9.96279
▁ben	-9.96332
▁အရေးပေါ်	-9.96337
များအကြောင်း	-9.96449
▁အရေးပါ	-9.9646
အကောင်းဆုံး	-9.96486
နိုင်သော်လည်း	-9.96563
ville	-9.96587
ဆင့်	-9.96587
▁ကီလိုမီတာ	-9.96636
▁ကြောက်စရာကောင်း	-9.96637
▁အရမ်းကောင်း	-9.96642
▁လွှမ်းမိုး	-9.96652
ပြောတာ	-9.9667
right	-9.96727
az	-9.96733
▁word	-9.96751
15	-9.96845
ဂါ	-9.96854
▁spending	-9.96878
သည့်အရာ	-9.96999
▁seemed	-9.97022
များကြားတွင်	-9.97074
▁body	-9.97088
မလား	-9.97197
▁father	-9.97269
▁battle	-9.97302
ဆုံးဖြတ်	-9.97344
▁function	-9.9738
▁ထိုနေရာ	-9.97481
▁ရာဇ၀တ်မှု	-9.97501
▁included	-9.97504
▁spent	-9.9751
လေ့လာ	-9.97512
▁ရောင်းချ	-9.97584
▁ကျောက်တုံး	-9.97672
ရွေ့	-9.97678
ပြင်ဆင်	-9.97686
▁25	-9.97712
▁ဥယျာဉ်	-9.97726
▁response	-9.97727
အရေးကြီး	-9.97773
ပျောက်	-9.97803
▁ကျောင်းသား	-9.97806
အများဆုံး	-9.97873
ပါမည်။	-9.97882
▁အစ္စရေး	-9.97911
ရမည်	-9.97936
▁sim	-9.97954
ထောက်ပံ့	-9.98007
yn	-9.98029
▁whatever	-9.98034
▁limit	-9.9805
ရုပ်တု	-9.98056
▁လိုအပ်သည်။	-9.98078
▁သေနတ်	-9.98094
▁ဟိုတယ်	-9.9811
▁gain	-9.98119
ky	-9.98176
ef	-9.98218
▁လုံခြုံရေး	-9.98223
သက်တမ်း	-9.98237
တွေ့ဆုံ	-9.98238
▁ခွင့်ပြု	-9.98315
▁deep	-9.98322
▁successful	-9.98363
▁တိုးတက်	-9.9837
ဘုရင်	-9.98411
▁window	-9.98415
အတန်း	-9.98437
ပြုံး	-9.98524
အုတ်	-9.98529
သီချင်း	-9.9853
ထားပါသည်။	-9.98565
itch	-9.98595
▁stock	-9.98647
င့်	-9.98664
ေ့	-9.98664
▁ပျော်ရွှင်	-9.98667
▁fast	-9.987
▁comment	-9.98733
ium	-9.98737
ကျေးဇူး	-9.98767
burg	-9.98773
▁western	-9.98783
▁practices	-9.98794
mini	-9.98804
▁rid	-9.98842
▁ထိပ်တန်း	-9.98894
▁လူဦးရေ	-9.98895
▁ဘယ်လောက်	-9.98929
▁conduct	-9.98956
မှူး	-9.98965
▁chi	-9.9897
▁တင်ပြ	-9.9903
များစွာရှိသည်။	-9.99067
▁အကြောင်းအရာ	-9.99118
▁Pro	-9.99119
▁Ru	-9.99123
▁သက်ရောက်မှု	-9.99198
▁training	-9.992
▁paris	-9.9922
ကြားတွင်	-9.99253
▁article	-9.99326
▁ရှစ်	-9.99349
ရိပ်	-9.99418
eo	-9.99422
▁reduction	-9.99573
ရမယ်	-9.99577
နားလည်	-9.99593
▁မူးယစ်ဆေးဝါး	-9.99636
▁Drew	-9.99698
းးးးးးးးးးးးးးးး	-9.99727
▁ချမှတ်	-9.9973
လု	-9.99754
▁refer	-9.99802
မယ်ဆိုတာ	-9.99831
▁finally	-9.99843
▁rain	-9.99846
▁စီမံခန့်ခွဲ	-9.99903
▁press	-9.99921
▁သိမ်းပိုက်	-9.99947
လှူ	-9.99965
▁comm	-9.99966
ဇယား	-9.99987
▁growth	-10.0006
အိုင်	-10.0006
အစီရင်ခံစာ	-10.0007
▁statue	-10.0007
လျင်	-10.0013
ဖျော်ဖြေ	-10.0018
▁fell	-10.0018
▁influence	-10.002
လုံ	-10.0022
▁flo	-10.0023
ဇာတ်ကား	-10.0026
ark	-10.0026
▁ကောင်းကင်	-10.0026
▁ထိန်းသိမ်းထား	-10.0027
စေခဲ့သည်။	-10.0029
▁ခွေး	-10.0031
▁attempt	-10.0032
▁efforts	-10.0033
မျှသာ	-10.0033
▁floor	-10.0035
▁ယခင်က	-10.0036
▁sat	-10.0041
ရွေးချယ်	-10.0042
▁ရေကန်	-10.0045
▁date	-10.0047
▁volume	-10.0063
ဟန်	-10.0065
သွားပြီ	-10.0067
▁official	-10.0067
▁40	-10.0076
စိတ်အားထက်သန်	-10.0076
▁တစ်စုံတစ်ယောက်	-10.0076
▁critical	-10.0077
စေပါသည်။	-10.0077
▁bay	-10.0084
▁အင်္ဂလိပ်	-10.0095
စစ်တပ်	-10.0099
▁သဘောတူ	-10.0103
ပေါင်	-10.0103
▁ယခင်	-10.0104
▁စာတိုက်	-10.0104
▁ဂရုမစိုက်	-10.0106
ဆွ	-10.0108
တောင်းဆို	-10.0112
ဂုဏ်	-10.0113
ညှိနှိုင်း	-10.012
ဇာတ်လမ်း	-10.0125
▁internet	-10.0126
▁throughout	-10.0132
▁clients	-10.0132
ပါတယ်၊	-10.0135
▁net	-10.0136
ada	-10.0138
အရင်းအနှီး	-10.0139
▁သေးငယ်သော	-10.0144
▁cold	-10.0156
▁sky	-10.016
▁ခုနစ်	-10.0161
10	-10.0164
▁officials	-10.0167
အစီအစဥ်	-10.0171
▁anyway	-10.0184
▁assistance	-10.0185
▁1999	-10.0186
▁doctor	-10.0187
izing	-10.0187
အခကြေးငွေ	-10.019
မြင်ဖူး	-10.0192
yo	-10.0199
ခြင်းမရှိ	-10.0202
▁animal	-10.0203
သယ်	-10.0203
▁shops	-10.0203
ဓ	-10.0207
ရယ်	-10.021
အေ	-10.0214
▁appropriate	-10.0215
▁တိုးတက်မှု	-10.0217
▁လက်နက်	-10.0221
▁scar	-10.0227
ရသေး	-10.0228
▁Ne	-10.0229
▁တစ်ချိန်က	-10.023
▁household	-10.023
အနည်းငယ်သာ	-10.0232
▁လူနာ	-10.0233
▁mine	-10.0234
pur	-10.0236
ille	-10.0237
▁supposed	-10.024
▁စာချုပ်	-10.0243
အဖွဲ့အစည်းများ	-10.0244
▁direct	-10.0246
တောက်ပ	-10.0246
▁christian	-10.0263
ကွန်ပြူတာ	-10.0266
▁ကြိုတင်	-10.0266
ese	-10.0267
▁implement	-10.0267
▁except	-10.0268
▁link	-10.0272
▁တွန်းအားပေး	-10.0273
ကုန်း	-10.0276
တစ်ခုတည်း	-10.0277
▁regulation	-10.0279
▁ဒေသခံ	-10.028
▁ဆွဲဆောင်	-10.0283
▁increased	-10.0287
တိရစ္ဆာန်	-10.0292
▁သူ့မှာ	-10.0293
ပေးဆောင်	-10.0298
▁Man	-10.0304
car	-10.0309
▁တပ်ဆင်	-10.0311
wide	-10.0312
အခန်းကဏ္ဍ	-10.0314
ဖြစ်သော်လည်း	-10.0314
အရာရှိ	-10.0324
နိမ့်	-10.0324
▁practice	-10.0334
ဖီ	-10.0336
▁killed	-10.034
▁အက်	-10.0343
▁whi	-10.0344
နှင်း	-10.035
ပတ်သက်	-10.0352
▁sand	-10.0362
▁cook	-10.0364
ပြင်းထန်	-10.0367
တစ်ဦးသည်	-10.0369
နိုင်မည်ဖြစ်သည်။	-10.037
လေးစား	-10.0373
နှံ	-10.0379
ကမ်းလှမ်း	-10.0382
ခံခဲ့ရ	-10.0387
ခဲ့ပါဘူး။	-10.039
▁spot	-10.039
သဘောတူညီချက်	-10.0394
အပန်းဖြေစခန်း	-10.0395
▁revenue	-10.0395
▁beyond	-10.0395
▁ပြုပြင်	-10.0397
၀၀	-10.0398
▁တိုင်းတာ	-10.0399
og	-10.0402
ပါဘူး	-10.0405
ထဲမှ	-10.0408
▁treat	-10.0413
▁fill	-10.0414
ဆုတ်	-10.0415
lica	-10.0417
▁mary	-10.0419
▁artist	-10.0422
mark	-10.0426
ဒေါ	-10.0432
▁auditors	-10.0437
ဗာ	-10.0439
တုံး	-10.044
ကြပါတယ်။	-10.0441
unk	-10.0441
▁Julius	-10.0441
▁space	-10.0441
မြင်ရ	-10.0449
▁ဂရိ	-10.0452
V	-10.0452
▁correct	-10.0454
အခွန်	-10.0456
▁သတင်းစာ	-10.0467
▁various	-10.0467
▁မတူ	-10.0468
▁II	-10.0468
စစ်ဆေး	-10.0476
low	-10.0483
▁cross	-10.0486
တဲ့အရာ	-10.0493
▁လိုက်လျောညီထွေ	-10.0493
▁ကောလိပ်	-10.0494
▁prices	-10.0501
ကျွမ်းကျင်	-10.0503
▁hospital	-10.0506
▁လေယာဉ်	-10.0508
night	-10.0511
တစ်ခါ	-10.0511
▁society	-10.0519
back	-10.0522
point	-10.0527
ဇနီး	-10.0528
လေးတွေ	-10.0535
ကြို	-10.0543
▁inglethorp	-10.0546
လတ်	-10.0546
▁material	-10.0552
ini	-10.0563
▁exhibit	-10.0565
▁invest	-10.0569
ပါသည်	-10.0569
▁establish	-10.0571
▁Street	-10.0572
▁ကျော်ကြား	-10.0577
▁မတွေ့	-10.0578
▁none	-10.0581
ဂျာ	-10.0589
အမိန့်	-10.059
ကစားသမား	-10.0594
▁အကြောင်းရင်း	-10.0597
ညစ်ညမ်း	-10.0598
ဂေါ	-10.0605
▁maintain	-10.0605
over	-10.0616
ack	-10.0618
▁တီဗီ	-10.0625
သူများနှင့်	-10.0625
▁ven	-10.0629
▁size	-10.0629
▁pet	-10.0641
▁ရှုခင်း	-10.0645
▁စောင့်ကြည့်	-10.0648
▁ball	-10.0651
▁safe	-10.0657
lip	-10.0658
▁crowd	-10.0658
tel	-10.0663
▁တားမြစ်	-10.0665
war	-10.0669
atory	-10.0669
75	-10.067
▁equipment	-10.0671
▁cheap	-10.0675
▁construction	-10.0678
ပိုမိုကောင်းမွန်	-10.068
▁ရှေးဟောင်း	-10.068
ဟုတ်	-10.0688
▁တစ်ပတ်	-10.0688
▁bri	-10.0694
▁ဧည့်သည်	-10.0696
ပေးတယ်။	-10.0698
လိုက်ပြီး	-10.0712
▁Saint	-10.0719
ငှက်	-10.0725
လျစ်လျူရှု	-10.0732
ient	-10.0738
အစည်းအဝေး	-10.074
▁older	-10.0741
အဲဒါ	-10.0742
▁fund	-10.0743
born	-10.0746
▁ကျဆင်း	-10.0747
ယူနစ်	-10.075
ီးယား	-10.0764
▁emergency	-10.0765
စစ်ပွဲ	-10.0767
မိနစ်	-10.0767
▁previous	-10.0772
မိန်းကလေး	-10.0779
▁begin	-10.0785
bar	-10.0787
ဆောက်	-10.0791
ရိုင်း	-10.0794
အသွင်	-10.0799
mber	-10.0805
ကွာခြား	-10.0807
ဝင်ရောက်	-10.0807
▁ရိုးရာ	-10.0807
▁professional	-10.0808
စီမံကိန်း	-10.0812
အချက်အလက်	-10.0816
▁determine	-10.082
▁blue	-10.0822
ford	-10.0825
▁1998	-10.0828
နိုင်သည်ဟု	-10.0836
like	-10.0838
▁For	-10.0838
ပြတင်းပေါက်	-10.0846
▁nobody	-10.0846
▁လွန်ခဲ့သော	-10.0847
အလုပ်လုပ်	-10.0851
▁reflect	-10.0853
ခ်	-10.0857
ကိရိယာ	-10.0858
▁remains	-10.0862
▁senior	-10.0867
▁emissions	-10.0867
▁published	-10.0874
▁dark	-10.0876
▁alternative	-10.088
မော	-10.0884
east	-10.0892
▁မင်းသိလား	-10.0892
၏။	-10.0897
▁သီးသန့်	-10.0901
▁အကယ်၍	-10.0901
▁threat	-10.0901
ကွေး	-10.0901
ဝန်ကြီး	-10.0902
ကြိုက်တယ်	-10.0908
အလားအလာ	-10.0908
▁စာတိုက်ဝန်ဆောင်	-10.0908
မှုများနှင့်	-10.0911
▁election	-10.0916
▁Pi	-10.0919
▁hate	-10.0922
မနေ	-10.0932
▁blood	-10.0935
ကြပ်	-10.0938
ပစ္စည်းများကို	-10.0939
ဗျာ	-10.0942
▁ပေါင်းစည်း	-10.0942
jo	-10.0944
▁running	-10.0945
သွားတာ	-10.095
စံနှုန်း	-10.0952
အလယ်	-10.0961
gon	-10.0965
▁below	-10.0974
▁broke	-10.0976
▁collect	-10.0981
ခြမ်း	-10.0983
လောက်အောင်	-10.0984
year	-10.0987
▁bal	-10.0987
ရံ	-10.0989
ဗျူဟာ	-10.099
▁prove	-10.0991
▁master	-10.0992
ပွား	-10.0993
နိုင်စွမ်း	-10.0995
မှုဖြင့်	-10.0995
တမ်း	-10.1
▁receive	-10.1002
▁earn	-10.1003
ခဲ့ရသည်။	-10.1009
▁km	-10.1011
▁dallas	-10.1011
▁quickly	-10.1015
▁1990	-10.1023
▁ensure	-10.1025
ez	-10.1025
▁တည်ရှိသည်။	-10.1026
နေသေး	-10.1031
ဥယျာဉ်	-10.1032
▁upon	-10.1032
▁write	-10.1033
▁myself	-10.1038
ပြန်လည်	-10.1038
ဖွယ်ကောင်းသော	-10.1039
▁တရားသူကြီး	-10.1045
▁affect	-10.1046
အန္တရာယ်	-10.1047
ရှား	-10.1048
ဂဏန်း	-10.1052
▁ရှေး	-10.1054
▁ယနေ့ခေတ်	-10.1054
လိုက်ပါ။	-10.1057
▁ရုရှား	-10.1059
လမ်းညွှန်ချက်	-10.106
▁TI	-10.1061
တူး	-10.1062
စိတ်ဝင်စား	-10.1062
▁နိုင်ငံတကာ	-10.1066
▁average	-10.1073
ရာစု	-10.1078
တရားဝင်	-10.1078
▁ထိရောက်မှု	-10.1086
▁japanese	-10.1087
dge	-10.109
▁tomb	-10.1092
ရီးယား	-10.1093
▁အပူ	-10.1094
▁character	-10.11
▁written	-10.1101
လွဲ	-10.1106
ဆိုတဲ့	-10.1108
▁environment	-10.1109
အာ	-10.111
▁spanish	-10.1115
▁separate	-10.1115
▁အခြားသူများ	-10.1116
▁favorite	-10.1122
▁ပြင်းထန်သော	-10.1124
▁slate	-10.1129
▁wild	-10.113
▁setting	-10.1131
မြှုပ်နှံမှု	-10.1133
အဆုံးသတ်	-10.1134
▁particular	-10.1136
ရိတ်	-10.114
▁တစ်ဦးချင်း	-10.1143
အချက်အလက်များ	-10.1146
▁ကိုင်တွယ်	-10.1153
hel	-10.116
▁scene	-10.1164
▁မြင့်မားသော	-10.1166
▁မကြိုက်	-10.1168
▁brown	-10.1178
▁definitely	-10.1185
မှလွဲ၍	-10.1185
ထွက်ခွာ	-10.119
ပြောင်းလဲမှု	-10.1192
▁patients	-10.1193
aries	-10.1198
▁club	-10.1202
▁interested	-10.1207
▁shopping	-10.1213
အသိပညာ	-10.1213
တစ်ဝက်	-10.1214
ique	-10.1214
▁victor	-10.1214
ဝမ်း	-10.122
▁administration	-10.122
ပိုင်ရှင်	-10.1223
▁prevent	-10.1224
▁finish	-10.1227
▁wealth	-10.1227
▁ပြီးပြည့်စုံ	-10.1228
ဖြစ်သည်ဟု	-10.1229
stitute	-10.1234
win	-10.1234
▁everybody	-10.1234
▁developed	-10.1236
▁ကောင်းတယ်	-10.1237
လက်ရာ	-10.1243
▁auto	-10.1244
60	-10.1247
▁အဘယ်ကြောင့်	-10.1248
ဒို	-10.1254
စောင့်ရှောက်မှု	-10.1255
▁increasing	-10.1255
အများအပြား	-10.1259
ပွင့်	-10.126
ရောက်လာ	-10.1262
▁fee	-10.1263
▁largest	-10.1267
▁ထူးထူးခြားခြား	-10.1269
▁leading	-10.1269
▁အဖွဲ့ဝင်	-10.1273
▁မဟုတ်ပါဘူး။	-10.1277
▁prison	-10.1288
စွမ်းရည်	-10.1292
▁အမြန်	-10.1296
▁21	-10.1301
ဘတ်	-10.1303
▁potential	-10.1305
▁အကျိုးကျေးဇူး	-10.1305
▁entities	-10.1305
ကိုယ်စားလှယ်	-10.1305
▁sec	-10.1309
▁fix	-10.131
ဝါး	-10.131
▁pop	-10.1313
▁media	-10.1315
▁goals	-10.1317
payment	-10.1321
▁option	-10.1326
ဘွဲ့	-10.134
စုဆောင်းမှု	-10.1344
▁pull	-10.1346
▁လွန်ခဲ့သည့်	-10.1347
▁လူသိများ	-10.1348
ရပါမည်။	-10.1351
လက်ခံ	-10.1353
ကြွယ်ဝ	-10.1354
▁ဘာမှမ	-10.1357
အစီအစဉ်များ	-10.1357
▁deliver	-10.1357
ဆန္ဒ	-10.1357
သင်တန်း	-10.136
ပါစေ	-10.136
သန့်ရှင်း	-10.136
▁လွန်ခဲ့တဲ့	-10.1362
ဆောင်ရွက်မှု	-10.1366
▁carry	-10.1366
▁ဘာကြောင့်	-10.1368
lam	-10.1388
များကဲ့သို့	-10.1392
hold	-10.1395
စာရေးဆရာ	-10.1398
တစ်ခုဖြစ်ပြီး	-10.1401
▁insurance	-10.1405
ကြာအောင်	-10.1405
ဂျီ	-10.1409
▁named	-10.141
ကိုယ်ရေးကိုယ်တာ	-10.1419
မေးမြန်း	-10.1426
ခွဲဝေ	-10.1431
▁nature	-10.1433
တစ်မျိုး	-10.1441
ရေးမှူး	-10.1442
▁El	-10.1445
▁အစားအသောက်	-10.1448
▁opinion	-10.1455
▁internal	-10.1455
▁web	-10.1455
▁complete	-10.1456
▁winter	-10.1457
▁mid	-10.1458
▁accounting	-10.1461
ထူး	-10.1461
▁phone	-10.1463
▁alone	-10.1475
▁language	-10.1477
▁medical	-10.1477
▁quiet	-10.1477
ရုပ်ရှင်	-10.1478
▁covered	-10.1482
SA	-10.1483
▁george	-10.1484
နမူနာ	-10.1484
rug	-10.1485
▁အပြင်ထွက်	-10.1485
▁ဂျွန်	-10.1491
စီမံ	-10.1491
▁ပညာရေး	-10.1493
ကွဲပြား	-10.1496
▁မနက်	-10.1496
ထားသော်လည်း	-10.1497
▁regulatory	-10.1498
▁ချက်ချင်း	-10.15
ulation	-10.1511
pm	-10.152
▁အဖြေ	-10.1524
အရွယ်အစား	-10.1528
သမ္မတ	-10.1531
ခွက်	-10.1535
ဒါရိုက်တာ	-10.154
▁ser	-10.154
အယူအဆ	-10.1542
▁စာပို့	-10.1544
▁simple	-10.1558
▁ဒေါသ	-10.1558
▁မပါဝင်	-10.1564
နေခဲ့သည်။	-10.1574
▁certainly	-10.1576
▁loan	-10.1579
▁authority	-10.1585
နွယ်	-10.1586
လုံခြုံ	-10.159
▁murder	-10.1594
နုတ်	-10.1595
ယှက်	-10.1597
▁generally	-10.16
rou	-10.1601
ချေးငွေ	-10.1602
လေထု	-10.1606
အေဂျင်စီ	-10.1608
▁billion	-10.1611
▁စကားလုံး	-10.1613
▁ထူးဆန်း	-10.1615
▁students	-10.162
နောက်ဆုံး	-10.162
▁ပြင်ပ	-10.1623
ဖုံး	-10.1629
▁အဆိုပြုထားသော	-10.1633
လျက်	-10.1635
တင်ပြ	-10.1636
ject	-10.1642
အင်အား	-10.1643
ယုံကြည်စိတ်ချရ	-10.1644
▁bought	-10.1644
်း	-10.1648
▁ဇာတ်	-10.165
but	-10.1659
▁လွတ်မြောက်	-10.1659
စည်းမျဥ်း	-10.1666
▁normal	-10.1667
▁india	-10.1668
ခြင်းမရှိပါ။	-10.1674
▁တစ်နေ့	-10.1676
မျှော်လင့်ထား	-10.1682
▁electronic	-10.1688
▁families	-10.1688
▁lawyer	-10.1694
▁Cha	-10.1694
▁surprise	-10.1696
▁basis	-10.1696
▁ဖြတ်တောက်	-10.1696
▁ဘောလုံး	-10.1711
gal	-10.1712
ရအောင်	-10.1713
နားမလည်	-10.1725
လုံခြုံရေး	-10.1728
▁စိတ်ကူးယဉ်	-10.1733
▁production	-10.1738
▁generation	-10.1739
မီဒီယာ	-10.174
▁ကိုးကား	-10.174
ute	-10.1741
▁Dallas	-10.1748
▁events	-10.1749
▁အင်တာနက်	-10.1755
နေရာဖြစ်သည်။	-10.1763
▁oil	-10.1764
▁Du	-10.1768
လှုပ်	-10.177
▁weapon	-10.177
ira	-10.1773
ခွင့်ပြု	-10.1773
▁တကယ်တော့	-10.1774
graph	-10.1774
▁Inglethorp	-10.1777
သိပ်မ	-10.1785
ချည်	-10.1785
▁အများအားဖြင့်	-10.1785
▁established	-10.1786
▁မစ္စစ်	-10.1792
ဖျား	-10.1801
ပိုး	-10.1802
ရမ်	-10.1804
ယံ	-10.1805
▁spring	-10.1807
▁ပျမ်းမျှ	-10.1807
▁sight	-10.1813
▁independent	-10.1815
ရင့်	-10.1815
▁ဂျူး	-10.1824
bell	-10.183
▁No	-10.183
▁Jo	-10.1831
hop	-10.1835
▁dress	-10.1835
▁hunt	-10.184
rick	-10.1845
ကျက်	-10.1851
မုန့်	-10.1852
▁relationship	-10.1853
▁ရှိပါသည်။	-10.1855
ဆန်သော	-10.1857
▁nearly	-10.1861
▁Col	-10.1864
အရာတွေကို	-10.1868
အရမ်း	-10.1879
မှောင်	-10.1882
အင်္ကျီ	-10.1882
▁ပန်းချီ	-10.1883
nia	-10.1886
လပ်	-10.1888
▁extra	-10.1891
အနေနဲ့	-10.1892
▁hat	-10.1892
ထားသည့်အတိုင်း	-10.1893
ဆပ်	-10.1895
ထားတာ	-10.1898
▁ထောက်ပံ့ကြေး	-10.1899
▁စုစည်း	-10.19
စို	-10.1901
လူ့အဖွဲ့အစည်း	-10.1901
▁wrote	-10.1905
▁afford	-10.1905
မည်ဖြစ်ပြီး	-10.1907
လာရောက်လည်ပတ်	-10.1913
နီးကပ်	-10.1923
▁schedule	-10.1928
ရပ်တည်	-10.1929
နိုး	-10.193
▁quarter	-10.1943
▁greek	-10.1943
uk	-10.1945
▁release	-10.195
ပွဲတော်	-10.1955
တစ်ဝိုက်	-10.1958
▁emb	-10.1959
▁ထုတ်ဖော်	-10.1962
ခက်ခဲ	-10.1965
ဖွင့်လှစ်	-10.1965
▁ငါဆိုလိုတာက	-10.1966
owl	-10.1967
ကြေငြာ	-10.1973
cott	-10.1977
▁အရှေ့ဘက်	-10.1978
▁အိမ်မှာ	-10.1979
▁suit	-10.198
▁cathedral	-10.1981
▁location	-10.1981
မှုအပေါ်	-10.1988
▁send	-10.1993
▁မလိုအပ်	-10.1996
ကမ်းခြေ	-10.2003
gli	-10.2006
▁သို့သော်လည်း	-10.2008
▁monument	-10.2011
▁race	-10.2016
တရားမျှတမှု	-10.2021
▁relative	-10.2026
ဝတ္ထု	-10.2034
ရေပန်းစား	-10.2034
40	-10.2039
သက်ဆိုင်	-10.2039
ရရှိနိုင်	-10.2039
▁၂၀	-10.204
pping	-10.2053
▁၎င်းတို့အား	-10.2057
▁gold	-10.2057
▁mention	-10.2059
▁added	-10.2062
▁တတိယ	-10.2065
ပရိသတ်	-10.2065
တံခါး	-10.2067
▁spec	-10.2075
တပ်ဖွဲ့	-10.2084
mont	-10.2087
▁initial	-10.2088
ender	-10.2088
တစ်ခုမှ	-10.2092
▁terrible	-10.2095
ano	-10.2101
ဆံပင်	-10.2103
▁beaches	-10.2113
ကောင်းမွန်သော	-10.2115
▁integr	-10.2119
▁northern	-10.2129
▁member	-10.213
သင့်လျော်	-10.213
▁kid	-10.2142
▁အီ	-10.2145
လုပ်ဆောင်ရန်	-10.2147
▁feet	-10.2148
▁machine	-10.2149
မတိုင်မီ	-10.2149
္ဌ	-10.2155
▁easily	-10.2165
▁respond	-10.2165
ဉ်	-10.2173
▁ကြက်	-10.2175
ပရိုဂရမ်	-10.2178
▁ride	-10.2187
▁italian	-10.2189
ဆူ	-10.2192
lia	-10.2193
▁host	-10.2195
တက်ကြွ	-10.2196
▁european	-10.2201
▁broad	-10.2204
K	-10.2205
များကြောင့်	-10.2205
oon	-10.2206
▁အသုံးချ	-10.2212
ထမ်း	-10.2213
▁ဖြစ်ပေါ်လာ	-10.2214
ဒေတာ	-10.2214
ခေါင်	-10.2216
▁mc	-10.2223
တည်ငြိမ်	-10.2227
ရောင်းချ	-10.2235
▁He	-10.2245
▁ချိတ်ဆက်	-10.225
စေရန်အတွက်	-10.2261
af	-10.2263
▁association	-10.2266
ပြခန်း	-10.2279
▁shot	-10.228
အနုပညာ	-10.2288
▁သင်၏	-10.2293
▁သင်ယူ	-10.2296
များနှင့်အတူ	-10.2297
နောက်ပိုင်း	-10.2297
ဖူးတယ်။	-10.23
▁create	-10.2301
အမေ	-10.2304
▁watching	-10.2304
တိုးတက်မှု	-10.2305
အထင်	-10.2309
▁Har	-10.231
▁regular	-10.2313
▁နောက်ပိုင်းတွင်	-10.2315
▁arrive	-10.2321
ဆိုရင်	-10.2336
▁effort	-10.2336
▁ရေရှည်	-10.2339
▁whose	-10.2341
▁beat	-10.2341
▁sn	-10.2345
▁procedure	-10.2352
▁မည်မျှ	-10.2353
▁shop	-10.2354
ဝင်ငွေ	-10.2355
▁decade	-10.2355
ယုံကြည်မှု	-10.2357
▁ဓာတ်ငွေ့	-10.236
▁owner	-10.2369
▁david	-10.2376
▁ဘီစီ	-10.2376
q	-10.2386
အကွာ	-10.2389
ဲလ်	-10.2392
ပုံသဏ္ဍာန်	-10.2393
▁cities	-10.2394
rust	-10.2403
ကဲ့သို့ပင်	-10.2404
▁union	-10.2404
သီအိုရီ	-10.2408
ctor	-10.2413
▁particularly	-10.2415
▁Ta	-10.2418
ဟူး	-10.242
▁growing	-10.2423
▁closed	-10.2424
▁feeling	-10.2427
ထူ	-10.243
▁replace	-10.243
ဗြိတိသျှ	-10.2433
▁ဘာသာရေး	-10.2441
▁1997	-10.2442
▁castle	-10.2444
▁$2	-10.2445
ရှုံး	-10.2446
စွန်း	-10.2449
▁ငါတကယ်	-10.2456
▁debt	-10.2457
▁currently	-10.246
▁ရလဒ်များ	-10.2461
▁Lu	-10.2462
ကျိုး	-10.2466
ထားသောကြောင့်	-10.2466
▁ကျွန်ုပ်သည်	-10.2467
▁band	-10.2476
▁secret	-10.2478
▁တစ်ချို့	-10.2479
နွား	-10.2479
စီရင်	-10.2487
သန်	-10.2489
▁europe	-10.2489
မဟုတ်ဘူး။	-10.249
▁တာဝန်ရှိ	-10.2491
▁stra	-10.2492
▁burn	-10.2494
အင်ပါယာ	-10.2495
နိုင်စေရန်	-10.2496
▁အပို	-10.2501
▁seat	-10.2508
ကံကောင်း	-10.251
သစ္စာ	-10.2511
ကျွေး	-10.2512
▁sector	-10.2514
အားလပ်ရက်	-10.2519
▁စခန်းချ	-10.252
ချပ်	-10.252
မွန်	-10.2523
လိမ်	-10.2524
▁luck	-10.2529
ဖြစ်ခဲ့သည်။	-10.2529
နင်း	-10.2531
ထိတ်လန့်	-10.2535
င်းရှင်းလင်းလင်း	-10.2536
▁aware	-10.2539
▁တိုးမြှင့်	-10.2544
▁retirement	-10.2546
▁ရာစုနှစ်	-10.2559
▁simply	-10.256
သင့်တယ်။	-10.256
ense	-10.2562
ulat	-10.2568
▁interview	-10.2568
▁assume	-10.257
▁ကောင်လေး	-10.257
cher	-10.257
▁rent	-10.2574
▁သရုပ်ဖော်	-10.2576
▁louis	-10.2576
▁assessment	-10.2579
▁မလိုအပ်ပါ။	-10.2579
▁bono	-10.2579
အကျိုးသက်ရောက်	-10.2584
အရောင်	-10.2588
ငယ်လေး	-10.2596
▁ဟိုမှာ	-10.2597
ကြမ်းတမ်း	-10.26
အကောင့်	-10.2601
▁ရည်မှန်းချက်	-10.2602
▁sad	-10.2605
ရိုးရှင်း	-10.2606
ဆွေးနွေး	-10.2607
▁အခွင့်အလမ်း	-10.2608
▁ဘုတ်အဖွဲ့	-10.2616
ဖျ	-10.2621
▁stood	-10.2624
ola	-10.2625
အစွန်း	-10.2626
▁somebody	-10.2632
▁glass	-10.2632
gin	-10.2636
pper	-10.2638
▁1995	-10.2644
▁eye	-10.2644
အရသာ	-10.2647
▁brother	-10.2649
)(	-10.266
▁စိတ်ဝင်စားစရာ	-10.2668
▁ဆေးရုံ	-10.2673
▁dave	-10.2677
92	-10.2685
▁ပြည်သူ့	-10.2686
▁လူငယ်	-10.2688
ဂရုစိုက်	-10.2689
▁involve	-10.2694
ဘာလို့	-10.2695
▁teach	-10.2696
ခံယူ	-10.2697
▁slave	-10.2698
▁customer	-10.2702
▁အခမဲ့	-10.2706
▁expert	-10.2706
▁believed	-10.2713
▁Texas	-10.2722
▁path	-10.2722
▁ကျေးဇူးတင်	-10.2722
▁sex	-10.2725
ဒီမှာ	-10.2728
▁army	-10.2733
▁အနက်ရောင်	-10.2738
▁mor	-10.2743
ump	-10.2744
▁bomb	-10.2746
လေ့ရှိသည်။	-10.2746
▁မိဘ	-10.2751
▁environmental	-10.2753
▁policies	-10.2755
▁payments	-10.2755
▁doubt	-10.2755
▁ဒီနေ့	-10.2755
အသံ	-10.2758
▁ပေးအပ်	-10.2759
▁column	-10.2763
အဓိပ္ပာယ်	-10.2771
ခန်းမ	-10.2777
▁ထုတ်လုပ်မှု	-10.2781
▁tea	-10.2782
ဆယ့်ငါး	-10.2788
ပါတီ	-10.2792
ခဲ့တယ်၊	-10.2796
▁သင့်လျော်သော	-10.2807
ရင်းနှီးမြုပ်နှံ	-10.2812
တိုင်းတွင်	-10.2819
ကြီးကြီးမားမား	-10.2821
တံတား	-10.2821
▁ဝန်ခံ	-10.2823
▁Ben	-10.2824
01	-10.2824
▁ကောင်းစွာ	-10.2826
များထံ	-10.283
မည်မဟုတ်ပေ။	-10.2832
▁degree	-10.2835
အမှား	-10.2836
ဝင်လာ	-10.2839
▁trial	-10.2839
gate	-10.2841
▁thirty	-10.2846
▁ဂုဏ်ပြု	-10.2846
▁ဖြတ်သန်း	-10.2854
▁religious	-10.2862
▁ဗြိတိန်	-10.2862
▁network	-10.2863
▁beginning	-10.2864
▁seek	-10.2866
အာမခံ	-10.2868
အဖေ	-10.2868
▁ဒီလိုမျိုး	-10.287
နှောင်းပိုင်း	-10.287
သုံးခု	-10.2871
▁ကျွန်တော့်ကို	-10.2873
▁bur	-10.2878
▁encourage	-10.2879
▁စာရွက်စာတမ်း	-10.2879
▁southern	-10.2881
အောင်မြင်	-10.2887
စိမ်း	-10.2887
ically	-10.2892
လုပ်ထုံးလုပ်နည်း	-10.2895
ဖာ	-10.2899
▁ဖြစ်ပျက်	-10.29
▁obtain	-10.2904
posed	-10.2913
သလား။	-10.2916
▁identify	-10.292
ခံခဲ့ရသည်။	-10.2924
ရမယ့်	-10.2925
▁passed	-10.2927
▁smaller	-10.293
▁Ju	-10.2932
ဆုံးရှုံး	-10.2945
ထွန်း	-10.2945
▁damage	-10.2946
စေမည့်	-10.2946
asse	-10.2948
▁discuss	-10.2948
အနက်	-10.2951
▁block	-10.2953
▁အမှိုက်	-10.2954
▁sports	-10.2955
▁lose	-10.2964
ဟော	-10.2966
▁ကိုယ့်	-10.2971
▁fly	-10.2972
▁သဘောထား	-10.2973
အလိုက်	-10.2975
▁cave	-10.2977
▁ဖျက်ဆီး	-10.2979
▁excellent	-10.2979
▁spa	-10.2986
လက်ထပ်	-10.2987
ဆယ်စုနှစ်	-10.2988
▁ပေါ်လာ	-10.2989
အများအပြားသည်	-10.2989
ပန်းတိုင်	-10.2999
▁ဤသည်မှာ	-10.3
▁newspaper	-10.3004
▁profit	-10.3004
ရမည်။	-10.3004
တွေထဲက	-10.3009
▁treatment	-10.301
▁box	-10.3011
class	-10.3012
▁kong	-10.3013
▁alien	-10.3017
တစ်ခုခု	-10.3017
ပြောနေတာ	-10.3018
▁items	-10.3018
▁limited	-10.3019
▁ရည်ညွှန်း	-10.3021
ဘ်	-10.303
▁chair	-10.303
▁realize	-10.3032
▁ပြောသည်။	-10.3033
▁ပုံဖော်	-10.3035
▁jewish	-10.3038
▁နားထောင်	-10.3038
ung	-10.3041
▁bridge	-10.3042
31	-10.3048
နေခဲ့တယ်။	-10.3049
ဘောင်	-10.3052
ဖူးတဲ့	-10.3055
▁ညွှန်ပြ	-10.3055
26	-10.3057
▁ကယ်တင်	-10.3064
▁nearby	-10.3065
▁တစ်ကြိမ်	-10.3072
အလယ်ပိုင်း	-10.3075
▁လုံလောက်သော	-10.3078
▁initiative	-10.308
▁decline	-10.3085
အကျဉ်း	-10.3089
▁သူ့လက်	-10.3093
▁wine	-10.3096
လန်း	-10.3096
▁magazine	-10.3097
▁မည်သူမျှ	-10.31
▁hong	-10.3103
အသိုင်းအဝိုင်း	-10.3106
မြူ	-10.3107
▁theater	-10.3109
water	-10.311
▁series	-10.3113
▁obvious	-10.3114
▁အနီရောင်	-10.3123
ခံတပ်	-10.3123
▁ကြီးကြပ်	-10.3124
▁daughter	-10.3131
▁James	-10.3132
အရှိဆုံး	-10.3133
▁fear	-10.3135
ခေါ်ဆို	-10.3135
မင်	-10.3136
▁သိသာထင်ရှားသော	-10.314
ရလဒ်များ	-10.3143
▁jerusalem	-10.3148
▁ကျယ်ပြန့်သော	-10.315
ပယ်	-10.3164
35	-10.3169
ix	-10.3176
position	-10.3179
တိုက်ခိုက်	-10.3179
ချဉ်းကပ်မှု	-10.318
ကော်ပိုရေးရှင်း	-10.3183
▁responsible	-10.3183
▁ဝါရှင်တန်	-10.3183
ကုသ	-10.3199
▁principle	-10.32
▁science	-10.32
▁robert	-10.3203
ရှက်	-10.321
▁Slate	-10.3217
▁မည်သူ	-10.3225
▁county	-10.3226
▁participants	-10.3226
▁hurt	-10.3226
place	-10.3226
▁evaluation	-10.3227
▁warm	-10.3231
ခို	-10.3233
စော	-10.3233
အကဲဖြတ်	-10.3233
▁fiscal	-10.3234
▁refuse	-10.3243
▁mix	-10.3247
▁ဝမ်းနည်း	-10.3252
▁track	-10.3254
တယ်ထင်တယ်	-10.3263
▁Act	-10.3269
stream	-10.3269
▁Je	-10.3274
▁Miss	-10.3276
▁truth	-10.3277
▁playing	-10.3278
89	-10.3281
▁လက်ခံရရှိ	-10.3281
▁centuries	-10.3286
▁မှတ်ချက်များ	-10.3295
အပတ်	-10.3296
အကြောင်းအရာ	-10.3296
▁served	-10.3296
စောင်	-10.33
မဂ္ဂဇင်း	-10.3303
▁စွန့်စား	-10.3304
ခွဲခြမ်းစိတ်ဖြာ	-10.3306
ပြာ	-10.3309
▁candidate	-10.3312
မလဲ။	-10.3314
▁ပုဒ်မ	-10.3315
ware	-10.3319
▁commercial	-10.3321
ဇီ	-10.3321
ဖွဲ့	-10.3331
▁ဒီမိုကရက်	-10.3338
▁barr	-10.3342
သွယ်	-10.3346
▁giving	-10.3347
ဘယ်လို	-10.3354
▁basic	-10.3354
ကြေညာ	-10.3356
စက်မှုလုပ်ငန်း	-10.3356
mbo	-10.3364
▁ဟုတ်ကဲ့	-10.3364
ami	-10.3367
▁entrance	-10.3373
▁sword	-10.3373
▁ငြင်းခုံ	-10.3373
လူမျိုးများသည်	-10.338
based	-10.3381
နှစ်ဦး	-10.3382
တွေရှိတယ်။	-10.3382
▁appeal	-10.3382
ဝင်ပေါက်	-10.3382
▁swi	-10.3393
16	-10.3397
loo	-10.3398
▁purchase	-10.3399
▁property	-10.3402
သာမက	-10.3404
▁ဒါဆို	-10.3406
▁associated	-10.3409
dding	-10.3416
▁worse	-10.3417
45	-10.3422
▁smile	-10.3422
▁typical	-10.3426
▁adopt	-10.3426
▁empire	-10.3434
▁hair	-10.3435
▁ငါ့အတွက်	-10.3438
နေသော်လည်း	-10.3439
▁သစ်သား	-10.3445
▁ready	-10.345
▁handle	-10.3451
iff	-10.3452
▁finance	-10.3452
law	-10.3454
hon	-10.3454
▁raised	-10.3464
ငြင်း	-10.3469
▁california	-10.347
▁constant	-10.347
ဖြေရှင်းရန်	-10.3478
▁improvement	-10.3478
ဝှက်	-10.3478
▁discount	-10.3478
မှတစ်ဆင့်	-10.3479
▁အရင်က	-10.3484
▁Mc	-10.3487
▁Ke	-10.3492
▁yourself	-10.3496
▁စိန့်	-10.3496
ello	-10.35
သဘောတူ	-10.3503
တံဆိပ်	-10.3505
▁Legal	-10.3506
ကြည့်ပါ။	-10.351
စွမ်းအင်	-10.3514
▁anymore	-10.3514
▁flower	-10.3514
▁မြို့၏	-10.3515
ရမယ်ဆိုတာ	-10.3516
▁ဟို	-10.3517
▁progress	-10.3523
▁attraction	-10.3525
▁သူတို့ဟာ	-10.3531
ဖိနပ်	-10.3532
ကြီးမားသော	-10.354
▁weekend	-10.3544
တနင်္ဂနွေ	-10.3549
▁discussion	-10.355
အများအပြားကို	-10.3551
▁topic	-10.3552
▁cafe	-10.3557
နှစ်ခုလုံး	-10.3558
▁strange	-10.356
မြို့တော်	-10.3564
ပြုလုပ်ရန်	-10.3567
အငြင်းပွား	-10.3567
▁roll	-10.3571
▁citizen	-10.3576
▁ရေကူး	-10.3578
▁ရာစုတွင်	-10.358
▁မီတာ	-10.3581
လက်ရာများ	-10.3581
▁domestic	-10.3585
▁explore	-10.3586
နေဆဲဖြစ်သည်။	-10.3586
ပေမဲ့	-10.3589
▁defend	-10.359
ထီး	-10.3593
တာထက်	-10.3597
တဲ့သူတွေ	-10.3597
စည်	-10.3599
သူဖြစ်သည်။	-10.3603
မခံ	-10.3606
▁temp	-10.3606
သြ	-10.3606
ကာကွယ်	-10.3616
ငွေ့	-10.3617
▁agreed	-10.3619
▁push	-10.3621
▁reading	-10.3622
▁engine	-10.363
▁narrow	-10.363
▁add	-10.3632
▁conference	-10.3639
▁england	-10.3639
▁editor	-10.3639
▁chief	-10.3639
▁catch	-10.3649
▁စိတ်လှုပ်ရှား	-10.3652
▁heavy	-10.3657
▁ဆောင်းရာသီ	-10.3657
ပျံ	-10.3658
▁pool	-10.3659
စိုက်ပျိုး	-10.3665
▁criminal	-10.3666
သတိရ	-10.3666
နှစ်ဆယ်	-10.3673
ဒုက္ခ	-10.3674
ဆန်းသစ်	-10.3678
နိုင်ဘူး။	-10.3678
▁earlier	-10.3684
သည်ဖြစ်စေ	-10.3686
▁video	-10.3693
▁We	-10.3694
▁continued	-10.3696
အိုး	-10.3699
▁frequent	-10.3702
▁multiple	-10.3702
▁absolutely	-10.3715
▁march	-10.3716
▁forward	-10.3717
▁ဟုခေါ်သော	-10.3723
▁kal	-10.3725
စုဆောင်း	-10.3727
▁element	-10.3729
▁အရောင်း	-10.3729
▁match	-10.3734
▁admit	-10.3738
▁မြှင့်တင်ရန်	-10.3741
သုံးသပ်	-10.3742
▁အရှိန်	-10.3748
ဘူတာ	-10.3756
▁ဖော်ပြသည်။	-10.3759
ပြောပြ	-10.3762
▁larger	-10.3763
ရင်ဆိုင်	-10.3765
ကြည်	-10.3774
▁survey	-10.3774
▁stories	-10.3783
▁restrict	-10.3784
ဖြစ်အောင်	-10.3789
အစိတ်အပိုင်း	-10.3804
▁expand	-10.3805
▁ပြောခဲ့သည်	-10.3807
▁Bu	-10.381
▁ငါထင်တယ်	-10.381
နှုတ်	-10.3811
▁အကြီးတန်း	-10.3811
bound	-10.3813
▁jack	-10.3814
မျှော်လင့်ချက်	-10.382
ပိုက်	-10.3821
▁print	-10.3834
▁advance	-10.3838
▁application	-10.3838
နေကြသည်။	-10.3839
ရာခိုင်နှုန်း	-10.3842
သခင်	-10.3842
▁Dave	-10.3845
▁corporation	-10.3847
တစ်ဦးဖြစ်သည်။	-10.3855
▁bull	-10.3863
▁married	-10.3866
▁၄င်း	-10.3866
▁useful	-10.3866
ကြိုးပမ်းမှု	-10.3866
▁သိရှိ	-10.3867
▁stopped	-10.3867
state	-10.3869
ငြိမ်	-10.3872
ရှိမရှိ	-10.3873
▁daily	-10.3875
▁rise	-10.3876
▁wonderful	-10.3876
ပုံတစ်ပုံ	-10.3884
ပါဘူး၊	-10.3886
▁eastern	-10.3895
cious	-10.3896
▁မည်သည့်အရာ	-10.3897
▁cash	-10.39
▁Com	-10.3901
▁အထွေထွေ	-10.3902
eff	-10.3903
အခါ	-10.3903
▁watched	-10.3905
▁ဆက်သွယ်	-10.3907
28	-10.3908
▁ပင်မ	-10.3909
▁proper	-10.391
▁2002	-10.3917
▁ဟောင်ကောင်	-10.3921
ကြည့်ရှုရန်	-10.3923
▁multi	-10.3933
ဆန့်ကျင်	-10.3934
▁agreement	-10.3939
▁ငှားရမ်း	-10.3939
▁ထွက်ပေါ်လာ	-10.3949
▁အသက်ရှင်	-10.3953
လည်ပတ်မှု	-10.3954
load	-10.3957
▁target	-10.3958
ဖိအား	-10.3958
အဆောက်အအုံ	-10.396
နေပုံရ	-10.396
ကျင်း	-10.396
matic	-10.3965
▁favor	-10.3966
အဝတ်အစား	-10.3967
▁protest	-10.3967
▁လူကြိုက်များ	-10.3976
25	-10.3978
▁Or	-10.3981
▁bag	-10.3984
▁အဖြစ်အပျက်	-10.3986
အကြာတွင်	-10.3988
▁majority	-10.399
▁drop	-10.3999
ခွင့်မပြု	-10.4002
▁tur	-10.4003
▁communication	-10.4004
▁ဂျာမန်	-10.4004
သနည်း။	-10.4004
▁file	-10.4006
▁estimated	-10.4006
▁phil	-10.4009
▁egypt	-10.4013
▁variety	-10.4014
▁ကယ်လီဖိုးနီးယား	-10.4014
▁suffer	-10.4014
▁foundation	-10.4015
ေးကွက်	-10.402
▁ငါ့ရဲ့	-10.402
▁ပြီးမြောက်	-10.4021
ရှင်သန်	-10.4022
▁therefore	-10.4023
▁attend	-10.4024
ဝယ်ယူ	-10.4024
စင်း	-10.4027
▁CIO	-10.4032
▁opportunity	-10.4032
▁ကြီးကျယ်ခမ်းနား	-10.4032
29	-10.4038
cept	-10.4039
▁politics	-10.4042
သြဇာ	-10.4043
▁followed	-10.4047
▁greater	-10.4047
လုပ်ချင်	-10.4048
▁destroyed	-10.4052
▁directly	-10.4062
23	-10.4068
construct	-10.4069
▁choose	-10.407
cker	-10.407
rated	-10.4074
နေစဉ်	-10.4074
ပေါ်မှ	-10.4083
အလေ့အကျင့်	-10.4083
17	-10.4084
▁occur	-10.4086
▁တစ်ခါတစ်ရံ	-10.4088
▁remark	-10.409
▁spain	-10.4096
▁ပြည်သူ	-10.4101
ကြည့်ရတာ	-10.4101
▁တစ်နာရီ	-10.4107
▁လာမည့်	-10.4111
ဖြည့်	-10.4115
▁festival	-10.4117
▁providing	-10.4117
ကျူးလွန်	-10.4117
▁မှားယွင်း	-10.4117
19	-10.4119
▁corner	-10.4119
▁historical	-10.412
▁လူမည်း	-10.4126
မို	-10.4126
▁မိုက်မဲ	-10.4126
မ္မ	-10.4126
▁နာမည်ကြီး	-10.4132
သမိုင်းကြောင်း	-10.4133
▁activity	-10.4135
▁software	-10.4135
ယဉ်ကျေးမှု	-10.4136
▁occasion	-10.4145
ပြဇာတ်	-10.4157
▁argue	-10.4165
▁defense	-10.4174
နွေး	-10.4183
ဆစ်	-10.4183
သတိပေးချက်	-10.4184
မြင်ကွင်း	-10.4184
▁Gi	-10.4187
ခုံ	-10.4189
▁sleep	-10.4192
အမေရိကန်	-10.4194
▁balance	-10.4195
▁apartment	-10.4202
▁search	-10.4202
အမျိုးသမီး	-10.4216
▁hanson	-10.4221
vy	-10.4221
ဂျူ	-10.4224
aging	-10.4224
▁conservative	-10.423
▁strategic	-10.423
▁sudden	-10.423
လူမျိုးများ	-10.4237
အနေအထား	-10.424
▁လူ့	-10.4247
▁တော်ဝင်	-10.4248
▁တွေ့ရ	-10.425
▁အဆိပ်	-10.4258
ux	-10.4259
▁officer	-10.426
▁ကြိုးစားနေ	-10.4263
▁yard	-10.4267
▁caught	-10.4268
▁ဘီလီယံ	-10.4269
how	-10.4276
▁television	-10.4278
▁rue	-10.4282
mate	-10.4285
ချဲ့ထွင်	-10.4287
▁adjust	-10.4287
▁minister	-10.4288
ဘေ	-10.429
▁အော်ဟစ်	-10.4297
ပြင်းပြင်းထန်ထန်	-10.4297
▁brief	-10.4298
95	-10.4301
▁ရယ်စရာကောင်း	-10.4304
ပုဂ္ဂိုလ်	-10.4306
5,000	-10.4307
▁သေးငယ်	-10.431
ကျယ်ပြန့်	-10.4314
▁energy	-10.4316
အများကြီးရှိတယ်။	-10.4318
▁တုန်လှုပ်	-10.4318
ကလပ်	-10.4319
ပင်လယ်	-10.4326
script	-10.4326
ဝတ်စုံ	-10.433
ညှိ	-10.4333
နှင့်ပတ်သက်သည့်	-10.4336
ယောင်	-10.434
ိုင်တွယ်ဖြေရှင်း	-10.4341
ological	-10.4341
ဖြစ်သူ	-10.4347
တုံ့ပြန်	-10.4348
အနုပညာရှင်	-10.435
style	-10.4354
▁Federal	-10.4355
▁fishing	-10.4358
▁(19	-10.4359
▁ဤအရာ	-10.4362
▁council	-10.4364
▁minor	-10.4368
ထက်ပို	-10.4371
ဝီ	-10.4371
clock	-10.4373
စစ်ဆေးမှု	-10.4378
ထွင်း	-10.4384
▁မဟာဗျူဟာ	-10.4384
▁affected	-10.4392
▁အထိမ်းအမှတ်	-10.4393
ညာ	-10.4397
စွမ်းဆောင်ရည်	-10.4399
▁throw	-10.4399
▁please	-10.4403
▁အပြောင်းအလဲများ	-10.4404
ular	-10.441
▁ရွှေ့ပြောင်း	-10.4413
▁ကျိုးကြောင်း	-10.4413
တဲ့လူတွေ	-10.4422
တွေအကြောင်း	-10.4423
ရမလဲ	-10.443
▁ပြသထားသည်။	-10.4431
▁arab	-10.4431
▁ယေဘုယျအားဖြင့်	-10.4433
▁ဝန်ဆောင်မှုပေး	-10.4434
▁Robert	-10.4435
မိုင်	-10.4435
J	-10.4435
▁ဟုတ်လား	-10.4436
▁ပိုဆိုး	-10.4445
▁moral	-10.4446
▁fit	-10.4451
▁ပြောင်းရွှေ့	-10.4451
ခွံ	-10.4452
▁ကုန်သွယ်မှု	-10.4461
▁abuse	-10.4465
▁stage	-10.4471
▁မသေချာ	-10.4477
▁စိတ်ပျက်	-10.448
▁proposal	-10.4481
▁representation	-10.4484
သုံးသပ်ချက်	-10.4489
▁လူမှုရေး	-10.4491
စွမ်းအား	-10.4493
▁hang	-10.4495
▁အလုပ်အကိုင်	-10.45
▁instance	-10.45
▁predict	-10.4501
စတာ	-10.4509
onald	-10.4517
ပိုမို	-10.4523
ရာနေရာ	-10.4526
▁ပျက်ကွက်	-10.453
မား	-10.4534
လျက်ရှိသည်။	-10.4534
ပုံး	-10.4534
ချမှတ်	-10.4535
▁protection	-10.4537
မဟုတ်ဘူးလို့	-10.4542
ဝါဒီ	-10.4548
ဆီလျော်	-10.4549
▁ထိခိုက်စေ	-10.455
▁reached	-10.4551
▁exchange	-10.4559
▁sculpture	-10.4559
gger	-10.456
▁straight	-10.456
ချိတ်	-10.4561
▁fashion	-10.4578
▁rural	-10.4579
လုပ်ရတာ	-10.4581
▁funny	-10.4583
ဘတ်ဂျက်	-10.4585
▁discussed	-10.4585
▁၁၅	-10.4587
အေဂျင်စီများ	-10.459
▁assist	-10.4593
▁ထပ်မံ	-10.4599
စတိုးဆိုင်	-10.4599
▁apply	-10.4599
▁dance	-10.46
mail	-10.4602
▁democrat	-10.4603
▁outcome	-10.4609
▁လူတွေကို	-10.4617
ဧကရာဇ်	-10.4618
ယက်	-10.4621
နောက်ကျ	-10.4623
U	-10.4627
▁interior	-10.4628
စရိတ်	-10.4629
ဖွယ်ကောင်း	-10.4633
▁အဖြူရောင်	-10.4638
အလေးချိန်	-10.4639
▁ကျဆင်းသွား	-10.4639
▁caused	-10.4642
▁iii	-10.4643
▁prop	-10.4645
▁flu	-10.4647
▁thus	-10.4648
▁violence	-10.4648
▁လှည့်ပတ်	-10.4648
▁အသက်ကြီး	-10.4649
ဖ်	-10.465
သိပ္ပံ	-10.4652
မရှိခဲ့ပါ။	-10.4663
▁existing	-10.4669
▁career	-10.4677
11	-10.4683
သတိထား	-10.4683
▁affair	-10.4688
▁worry	-10.4688
91	-10.4689
သိမ်းဆည်း	-10.4696
▁အကျုံးဝင်	-10.4698
▁permit	-10.4698
▁representative	-10.4699
▁ဒေသဆိုင်ရာ	-10.4699
▁unless	-10.47
▁entity	-10.4701
အရာများကို	-10.4704
▁border	-10.4708
စောင်း	-10.4713
▁eventually	-10.4718
▁နံနက်	-10.4718
▁baby	-10.4718
▁image	-10.4721
သလိုမျိုး	-10.4723
▁Ex	-10.4726
ဘတ်စ်ကား	-10.4728
▁mount	-10.4736
▁ရှောင်ရှား	-10.4738
▁Tu	-10.4738
ဧည့်	-10.4746
▁ပြန်လာ	-10.4753
▁hire	-10.4774
stein	-10.478
gree	-10.4782
hood	-10.4786
▁hearing	-10.4786
▁version	-10.4788
သင့်တယ်လို့	-10.4792
အနီးတွင်	-10.4795
သရုပ်ဆောင်	-10.4798
မွေးဖွား	-10.4799
▁ပါဝင်ပါသည်။	-10.4804
ဟိုတယ်	-10.4817
ဒဏ္ဍာရီ	-10.4818
မျှော်စင်	-10.4818
▁မကြာမီ	-10.4818
စျေးကြီး	-10.4821
တစ်ရပ်	-10.4825
▁လုံးဝမ	-10.4825
ဘုန်း	-10.4828
▁OMB	-10.4828
▁စကော့တလန်	-10.4828
▁bird	-10.4832
▁၁၂	-10.4834
▁အခိုင်အမာ	-10.4835
နေတုန်း	-10.4837
အိပ်	-10.4838
▁Shi	-10.4842
ထုတ်ပြန်ချက်	-10.4843
နိုင်ပေမယ့်	-10.4845
▁sum	-10.4862
▁provision	-10.4869
▁Mont	-10.4875
လွှမ်းမိုး	-10.4876
ဆိပ်	-10.4879
ဖြစ်လာခဲ့သည်။	-10.4894
မိခင်	-10.4896
ဂို	-10.4899
မှတဆင့်	-10.4899
▁နာကျင်	-10.4909
▁coffee	-10.4909
▁ဝမ်းသာ	-10.491
▁ကြိုက်တယ်။	-10.4914
▁parties	-10.4914
88	-10.4915
55	-10.4918
▁ယူဆောင်လာ	-10.492
စျေးဝယ်	-10.4922
▁1980	-10.4928
ကော်လံ	-10.493
မျှတ	-10.4931
▁failed	-10.4933
▁compared	-10.4938
အကွာအဝေး	-10.494
▁fresh	-10.494
ကွေ့	-10.494
▁မည်ကဲ့သို့	-10.4943
front	-10.4947
လျှံ	-10.495
▁positive	-10.495
▁အိုင်ယာလန်	-10.4961
ကြော	-10.4966
▁အလွယ်တကူ	-10.4971
▁တောင်ကုန်း	-10.4973
ခေါက်	-10.4981
လေးခု	-10.4981
▁regarding	-10.4988
▁ဆိုလိုတာက	-10.499
▁အတွင်းပိုင်း	-10.499
▁ငါသိတယ်။	-10.499
14	-10.4997
▁jamaica	-10.5002
obb	-10.5002
ချင်ဘူး။	-10.5003
▁စစ်တမ်း	-10.5004
▁partner	-10.5004
▁shown	-10.5011
▁Kal	-10.5016
dom	-10.502
▁လျင်မြန်စွာ	-10.5022
ရင်းနှီး	-10.5028
▁ကောင်းပြီ၊	-10.503
ရွှေ	-10.5032
အကျိုးစီးပွား	-10.5033
▁အငြိမ်းစားယူ	-10.5033
▁task	-10.5034
ထင်ရှား	-10.5038
▁အုပ်ချုပ်	-10.504
အုပ်ချုပ်မှု	-10.504
▁တရားရေးဆိုင်ရာ	-10.5043
စဥ်	-10.5043
ounce	-10.5044
▁poll	-10.5051
▁impossible	-10.5053
▁examine	-10.5053
▁double	-10.5054
ကောင်စီ	-10.5054
▁အိမ်ပြန်	-10.5055
life	-10.5057
▁ခေါင်းစဉ်	-10.5058
▁cultural	-10.5064
ကြမ်းပြင်	-10.5066
ဟင့်အင်း	-10.5074
▁သက်ကြီးရွယ်အို	-10.5074
▁divers	-10.5076
▁contribution	-10.5084
▁Lake	-10.5084
▁မှတ်တမ်းတင်	-10.5085
အကြိုက်ဆုံး	-10.5085
▁Par	-10.5085
တရားရုံး	-10.5085
▁italy	-10.5086
▁clearly	-10.5086
အချိန်ဇယား	-10.5088
▁အဲဒီ့	-10.509
မျှော်လင့်	-10.5092
▁ပြုတ်ကျ	-10.5095
illa	-10.5102
္ဌာန်း	-10.5103
▁သေချာပါတယ်။	-10.5104
▁technical	-10.5105
ပေမည်။	-10.5105
▁immediately	-10.5112
▁efficient	-10.5115
▁spirit	-10.5115
လို့ရတယ်။	-10.5123
▁exercise	-10.5126
▁africa	-10.5126
▁victim	-10.5136
▁အပြည့်အဝ	-10.5147
▁Louis	-10.5147
ထုပ်	-10.515
▁ထားရှိ	-10.5155
▁grew	-10.5157
hole	-10.5158
▁honor	-10.5158
▁ကာကွယ်ရေး	-10.5159
ကောက်ခံ	-10.5161
▁cast	-10.5162
▁bru	-10.5164
ကွန်ရက်	-10.5165
▁ငါသိတယ်	-10.5167
▁vegas	-10.5168
▁သက်ရောက်မှုရှိ	-10.5168
▁trail	-10.517
▁indicate	-10.5173
▁တခါတရံ	-10.5178
လျှော့ချ	-10.5178
▁ရိုးရိုး	-10.5179
▁observe	-10.518
▁sunday	-10.518
▁သမိုင်းဝင်	-10.5181
မရရှိ	-10.5182
တွေ့ခဲ့ရ	-10.5187
▁ဖြစ်ရပ်လေ့လာမှု	-10.5188
အများပြည်သူ	-10.5189
▁မီးခိုး	-10.5191
▁ထိုသို့သော	-10.5199
65	-10.52
ipped	-10.5204
writer	-10.5207
NT	-10.5209
ချိုင့်ဝှမ်း	-10.5209
▁assumption	-10.5209
ကန့်ကွက်	-10.521
သဘောပေါက်	-10.5213
တုန်	-10.5219
▁လူအများ	-10.522
အလှ	-10.5221
ဖြစ်ပေါ်	-10.5228
▁acquisition	-10.523
▁august	-10.523
▁newsweek	-10.523
ကျန်းမာရေး	-10.5234
▁မြေပြင်	-10.5236
▁originally	-10.5239
▁imagine	-10.5241
▁တက္ကဆက်	-10.5241
▁jesus	-10.5241
▁Mr	-10.5249
ကျူးကျော်	-10.5249
▁သယ်ဆောင်	-10.5252
တိရိစ္ဆာန်	-10.5262
▁weight	-10.5267
▁sitting	-10.5267
ချ်	-10.5272
ဝါသနာ	-10.5273
▁ဖြတ်ကျော်	-10.5273
ာ့ခ်	-10.5274
▁အုပ်ချုပ်ရေး	-10.5276
▁jury	-10.5276
▁emperor	-10.5283
▁identified	-10.5283
▁ticket	-10.5283
▁speech	-10.5283
▁လျှော့ချရန်	-10.5289
▁shrine	-10.5294
ယူဆချက်	-10.5298
▁stick	-10.5298
▁အပြင်မှာ	-10.5298
မှာမဟုတ်ဘူး။	-10.5306
ဘဏ္ဍာ	-10.5316
▁earth	-10.5317
ရည်ရွယ်ချက်	-10.5319
ပျက်စီး	-10.532
▁burden	-10.5327
18	-10.5328
တုတ်	-10.5333
▁architecture	-10.5337
▁ဆွဲဆောင်မှုရှိ	-10.534
▁၀င်ငွေ	-10.5347
▁july	-10.5349
▁mass	-10.5357
▁behavior	-10.5357
▁prince	-10.5359
ကုသမှု	-10.5363
အကန့်အသတ်	-10.5368
▁Hanson	-10.5368
▁accus	-10.537
ဘုတ်	-10.5386
▁မြို့တွင်း	-10.5388
▁ကျွန်တော်ထင်ပါ	-10.5401
▁ဖြစ်ပေါ်စေ	-10.5405
စွန့်	-10.541
▁surplus	-10.5422
▁bath	-10.5422
▁တခြားသူတွေ	-10.5425
ထွေး	-10.5432
▁jane	-10.5433
▁သိလား	-10.5438
ယ်စားလှယ်လောင်း	-10.5442
စကားပြော	-10.5442
▁regard	-10.5445
အလေ့အကျင့်များ	-10.5449
48	-10.5457
▁teacher	-10.546
ဝန်ထုပ်ဝန်ပိုး	-10.5465
ဖြစ်ကောင်းဖြစ်	-10.5466
တစ်ချက်	-10.5467
▁comfort	-10.5475
▁pack	-10.5476
▁အရာအားလုံးကို	-10.5477
အရာရှိများ	-10.5479
▁cool	-10.5479
▁တရားမျှတ	-10.5483
▁moving	-10.5497
▁birth	-10.5508
▁တိုင်းပြည်	-10.5508
တေး	-10.5512
▁ရဲတိုက်	-10.5514
▁physical	-10.5519
funded	-10.5519
▁via	-10.552
မည်ဖြစ်ပါသည်။	-10.5522
▁ကျော်လွန်	-10.5522
97	-10.5527
▁dinner	-10.5529
▁raise	-10.5529
သကဲ့သို့	-10.553
▁corp	-10.5532
▁ဒီလောက်	-10.5538
▁completed	-10.554
ချဉ်းကပ်	-10.5544
ရှည်လျား	-10.5551
▁golf	-10.5552
▁desert	-10.5552
▁ruin	-10.5554
▁အားပေး	-10.5554
အကြံပြုချက်	-10.5556
▁ဖြစ်နိုင်တယ်။	-10.5561
▁virgin	-10.5562
▁easier	-10.5562
▁writing	-10.5562
▁ကနဦး	-10.5562
အရပ်	-10.5564
▁mill	-10.5564
ပါလိမ့်မယ်။	-10.5566
▁ignore	-10.5574
▁shall	-10.5578
အရည်အသွေး	-10.558
▁accident	-10.5584
▁advantage	-10.5584
▁500	-10.5585
ကိရိယာများ	-10.5586
▁responsibility	-10.5595
▁survive	-10.5595
ဗုံး	-10.5595
▁snow	-10.5597
▁title	-10.5604
ကိစ္စရပ်များ	-10.5605
▁intended	-10.5606
psych	-10.5608
▁consistent	-10.5609
မစ်ရှင်	-10.5618
ရှိတယ်ဆိုတာ	-10.562
▁centre	-10.5622
▁အသုံးပြု၍	-10.5632
▁ပြစ်ဒဏ်	-10.5638
မုန်တိုင်း	-10.5638
▁expense	-10.5639
▁transfer	-10.5641
▁screening	-10.5645
▁mosque	-10.565
ease	-10.565
▁taste	-10.5658
▁michael	-10.566
▁employee	-10.5662
မှုများကြောင့်	-10.5682
▁message	-10.5682
▁contact	-10.5682
စေချင်	-10.5684
▁ဒါပဲ	-10.5685
▁ရီပတ်ဘလီကန်	-10.5685
▁screen	-10.5687
ဉ	-10.5691
လုပ်ခဲ့တာ	-10.5694
နတ်ဘုရား	-10.5694
▁content	-10.5694
▁ဒီဇိုင်းထုတ်ထား	-10.5701
ပေါ်သို့	-10.5705
▁prepared	-10.5714
ဧ	-10.5715
▁technique	-10.5715
▁biggest	-10.5715
▁ငါမင်းကို	-10.5716
▁steel	-10.5717
▁mag	-10.5725
▁adult	-10.5727
▁Mary	-10.5728
ဖွယ်ရာ	-10.5729
▁fail	-10.5734
▁implementation	-10.5736
▁competition	-10.5738
ဖောင်း	-10.5738
ဆဲဖြစ်သည်။	-10.5739
▁starr	-10.574
ဖောက်သည်များ	-10.5742
▁attract	-10.5743
ဇ်	-10.5746
▁argument	-10.5749
▁အပြန်အလှန်	-10.5749
▁ဖြစ်နိုင်ခြေ	-10.5756
ပျော်စရာကောင်း	-10.5758
▁တင်သွင်း	-10.576
▁draft	-10.5775
မျိုးစုံ	-10.5775
▁အခြေခံ၍	-10.5782
▁senate	-10.5782
မှာရှိတဲ့	-10.5783
နိုင်ခြေ	-10.5787
▁extremely	-10.5791
▁oldest	-10.5791
ဝန်း	-10.5792
▁traffic	-10.5793
▁breath	-10.5793
ပါနဲ့။	-10.5793
▁russian	-10.5802
▁holy	-10.5803
သွားရောက်လည်ပတ်	-10.5804
mouth	-10.5816
အပြည့်	-10.5823
▁relax	-10.5827
▁describe	-10.5829
လျား	-10.583
▁tall	-10.583
ဆော့ဖ်ဝဲ	-10.5838
အပြုအမူ	-10.5838
▁neighborhood	-10.5838
ခြင်းမရှိပေ။	-10.5841
အစ်ကို	-10.5843
▁ရောက်ရှိလာ	-10.5844
အကျိုးအမြတ်	-10.5849
▁shoot	-10.586
▁william	-10.586
▁pressure	-10.5864
▁thorn	-10.5872
ကိုလိုနီ	-10.5872
အစီရင်ခံ	-10.5873
▁သေချာစေရန်	-10.5874
▁တတ်နိုင်	-10.5876
▁brand	-10.588
ခန္ဓာကိုယ်	-10.5882
ချာ	-10.5892
မွေးဝမ်းကြောင်း	-10.5894
▁landscape	-10.5894
▁microsoft	-10.5894
▁စွန့်လွှတ်	-10.5894
သားသမီး	-10.5896
▁prime	-10.5902
▁ထိန်းထား	-10.5911
▁overall	-10.5915
တစ်စီး	-10.5919
▁conversation	-10.5928
▁စွန့်ပစ်	-10.5928
▁အောင်ပွဲ	-10.5929
▁movement	-10.5938
▁compliance	-10.5939
လျှို	-10.5939
▁မအောင်မြင်	-10.5942
အခြား	-10.5946
▁radio	-10.595
▁dollar	-10.595
ပျော့ပျောင်း	-10.595
▁chapel	-10.595
▁counsel	-10.5961
လာသည်နှင့်အမျှ	-10.5982
▁industrial	-10.5984
▁စိန်ခေါ်မှု	-10.5984
▁plain	-10.5986
▁gather	-10.5991
▁fifty	-10.5995
▁susan	-10.5996
▁client	-10.5997
▁2010	-10.5999
▁described	-10.6009
▁Bush	-10.6011
▁ဆောက်လုပ်ရေး	-10.6015
ရှာတွေ့	-10.6018
▁spread	-10.6018
စာရင်းစစ်များသည်	-10.6019
▁grass	-10.6019
သင့်သည်ဟု	-10.6023
ဖော်ပြချက်	-10.6028
▁actual	-10.6029
▁revolution	-10.603
▁confirm	-10.6041
▁flexibility	-10.6041
▁direction	-10.6041
▁opera	-10.6043
stand	-10.6046
▁ပါရီ	-10.605
▁chose	-10.605
▁cup	-10.6051
သတ္တု	-10.6052
▁complain	-10.6052
▁လျော့နည်း	-10.6053
▁နင်	-10.6059
မီးဖို	-10.6067
ဦးခေါင်း	-10.6069
▁mistake	-10.6075
▁lunch	-10.6075
▁အဆိုပြုချက်	-10.6076
34	-10.6077
▁june	-10.6086
▁ဘုရားသခင်	-10.6087
▁unlike	-10.6094
▁ku	-10.6095
▁Newsweek	-10.6098
▁စူးစမ်းလေ့လာ	-10.6098
▁ဂုဏ်ယူ	-10.6099
ထိုင်ခုံ	-10.6099
လုပ်နေတာ	-10.6107
▁muslim	-10.611
▁ရနိုင်	-10.6112
66	-10.6113
scale	-10.6114
▁ပြန်သွား	-10.6117
▁generat	-10.6123
ဦးထုပ်	-10.6124
ပါပဲ၊	-10.6126
ခွာ	-10.613
▁powerful	-10.6132
▁tape	-10.6132
▁ပုံမှန်အားဖြင့်	-10.6136
နှုန်းထားများ	-10.6137
ဗားရှင်း	-10.6144
▁ဘယ်သောအခါမှ	-10.6156
ပြိုကျ	-10.6156
စီစဉ်	-10.6162
▁consumer	-10.6167
သဘောမတူ	-10.6167
▁novel	-10.6168
▁၅၀	-10.6182
▁David	-10.619
▁clothes	-10.6191
▁အဆိုပြု	-10.6196
▁ချီးကျူး	-10.6202
တေ	-10.6208
လှိုင်း	-10.6222
ဆန်းကြယ်	-10.6225
စတိုင်	-10.6234
▁တွေ့ရှိခဲ့သည်။	-10.6235
▁shift	-10.6239
ဇာတ်ကောင်	-10.6248
▁capture	-10.6249
86	-10.6249
▁ပန်းပု	-10.6249
သုတ်	-10.6249
▁ထင်မြင်	-10.6251
▁ကုန်ပစ္စည်း	-10.6252
နှင့်ပတ်သက်သော	-10.6253
▁ကောင်မလေး	-10.626
▁depict	-10.6261
စိုးရိမ်	-10.6269
▁ကော်ဖီဆိုင်	-10.6272
ဆော့	-10.6272
▁ဖက်ဒရယ်အစိုးရ	-10.6275
ဥာဏ်	-10.6283
▁အရေးမကြီး	-10.6283
▁importance	-10.6285
စာရင်းစစ်	-10.6287
▁hung	-10.6293
မရှိဘူးလို့	-10.6306
မတတ်နိုင်	-10.6307
▁symbol	-10.6307
ကိုဖြတ်၍	-10.6309
ဟူ	-10.6312
98	-10.633
ibility	-10.633
▁pollution	-10.633
▁grantees	-10.633
စည်ကား	-10.6333
68	-10.6337
▁martin	-10.6345
▁ပေးချေ	-10.6346
မယ်ထင်တယ်	-10.635
▁incentive	-10.6354
▁promise	-10.6354
လုနီးပါး	-10.6355
▁တစ်နှစ်လျှင်	-10.6358
ရယူရန်	-10.6361
▁legislation	-10.6366
ခမ်းနား	-10.6376
▁ခံစားရတယ်။	-10.638
known	-10.6383
မကြိုက်ဘူး။	-10.6386
▁capacity	-10.6389
▁investigation	-10.6389
▁manufacturing	-10.6389
▁otherwise	-10.6389
▁wage	-10.639
ငြိမ်သက်	-10.6391
87	-10.6396
ခြိမ်းခြောက်	-10.6397
▁စစ်မှန်သော	-10.6399
32	-10.64
www	-10.6402
▁decide	-10.6403
▁ရီပတ်ဘလစ်ကန်	-10.6413
▁iraq	-10.6413
▁သေချာပေါက်	-10.6422
ဖွား	-10.6424
▁ဘယ်တုန်းကမှ	-10.6425
ငါ့	-10.6432
▁unique	-10.6432
ဆက်သွယ်ရေး	-10.6435
▁golden	-10.6436
▁anywhere	-10.6437
▁monitor	-10.6437
02	-10.6441
ပြည့်စုံ	-10.6442
▁ထုတ်ပေး	-10.6444
နု	-10.6446
အခက်အခဲ	-10.6448
၃၀	-10.645
▁recognized	-10.6456
့စ်	-10.6457
▁အီရတ်	-10.646
▁လေ့ကျင့်ခန်း	-10.6461
▁debate	-10.6463
လွှင့်	-10.6469
ဓာတု	-10.6472
အင်တာဗျူး	-10.6472
▁gift	-10.6473
board	-10.6474
▁roof	-10.6477
▁assess	-10.6481
▁ဗီဒီယို	-10.6484
ကျမ်း	-10.6487
▁concept	-10.6489
လွှမ်းခြုံ	-10.6496
99	-10.6497
▁greatest	-10.6505
ခြယ်	-10.6508
အာရုံစူးစိုက်မှု	-10.6508
▁advice	-10.6508
▁ဘေးကင်း	-10.6508
▁Grand	-10.6509
▁defeat	-10.651
▁register	-10.652
▁pursu	-10.6521
▁journal	-10.6523
▁စတင်ခဲ့	-10.6526
သင်္ကေတ	-10.6532
▁ပြိုင်ဆိုင်မှု	-10.6532
သုံးဆယ်	-10.6535
မွမ်းမံ	-10.6544
▁welfare	-10.6544
▁ရုတ်တရက်	-10.6544
▁climb	-10.6544
▁ဟေး	-10.6553
▁စိုက်ကြည့်	-10.6556
▁conflict	-10.6568
▁ပရော်ဖက်ရှင်နယ်	-10.6568
33	-10.657
▁student	-10.6572
▁rulemaking	-10.658
▁1994	-10.658
ညံ့ဖျင်း	-10.6592
မှီခို	-10.6592
▁မြို့ပြ	-10.6599
▁ခေါင်းညိတ်	-10.6604
▁australia	-10.6604
▁repeat	-10.6607
▁မီးလောင်	-10.6613
▁lady	-10.6614
▁အင်္ဂလန်	-10.6616
▁အံ့အားသင့်	-10.6616
▁housing	-10.6616
▁တိုက်ခန်း	-10.6618
▁magic	-10.6621
ခြေထောက်	-10.6625
▁surrounding	-10.6628
▁smoke	-10.6629
▁ဆွဲထုတ်	-10.663
ငြီးငွေ့	-10.664
▁တိုးချဲ့	-10.6641
▁worst	-10.6641
မပါဘဲ	-10.6642
သွန်	-10.6647
▁london	-10.6653
▁remove	-10.6653
▁ပြန်လည်ပြင်ဆင်	-10.6657
▁congressional	-10.6665
▁laugh	-10.667
LS	-10.6677
▁Port	-10.6681
လှေကား	-10.6682
▁ညနေ	-10.6685
တီထွင်	-10.6688
အကြမ်းဖက်မှု	-10.6688
ဟေ	-10.6692
▁tree	-10.6699
▁Service	-10.6701
▁vehicle	-10.6701
▁Starr	-10.6701
▁ယောက်ျားလေး	-10.6707
67	-10.6712
▁institution	-10.6713
▁marriage	-10.6713
▁အသားတင်	-10.6714
lope	-10.6715
▁command	-10.6717
အမျိုးသား	-10.6724
လုပ်ဖော်ကိုင်ဖက်	-10.6726
▁Vegas	-10.6726
▁ဖုံးအုပ်	-10.6726
▁ဝေးကွာ	-10.6726
▁leaving	-10.6727
▁vice	-10.6728
င်းနှီးမြှုပ်နှံ	-10.6737
▁players	-10.6742
ယ်ကျယ်ပြန့်ပြန့်	-10.675
▁စွပ်စွဲ	-10.6756
▁celebrate	-10.6762
▁religion	-10.6762
▁dramatic	-10.6775
▁ချိန်ညှိ	-10.6775
stone	-10.6775
▁Park	-10.6776
စရာကောင်းတဲ့	-10.678
▁တောင်တက်	-10.678
▁medieval	-10.6787
▁female	-10.6787
▁status	-10.6787
▁အလှဆင်ထား	-10.6789
▁queen	-10.6792
အန္တရာယ်များ	-10.6798
▁leadership	-10.6802
▁ရေခဲ	-10.6807
▁conclusion	-10.6811
▁football	-10.6811
▁unfortunate	-10.6811
▁dream	-10.6812
နယူး	-10.6812
▁ကျဉ်းမြောင်း	-10.6824
▁angeles	-10.6824
▁ထိတွေ့	-10.6824
▁gene	-10.683
▁အာရှ	-10.683
▁governor	-10.6836
▁solution	-10.6836
▁လျှော့စျေး	-10.6838
▁trend	-10.6841
▁sister	-10.685
နေတယ်ဆိုတာ	-10.6851
▁သု	-10.6854
▁mur	-10.6856
အမှတ်တရ	-10.6861
ဒီမိုကရေစီ	-10.6861
▁Post	-10.6863
အသက်အရွယ်	-10.6872
▁plenty	-10.6873
▁strength	-10.6873
▁များသောအားဖြင့်	-10.6873
▁၁၄	-10.6881
ပြောင်းလဲမှုများ	-10.6881
BA	-10.6882
တင်းကျပ်	-10.6886
အကျော်ကြားဆုံး	-10.6886
▁photograph	-10.6886
မမှတ်မိ	-10.689
▁guarantee	-10.6898
▁mortality	-10.6898
▁changing	-10.6898
▁လျှပ်စစ်	-10.6898
deem	-10.691
▁negative	-10.6911
▁တက်လာ	-10.6911
book	-10.6913
တိမ်	-10.6915
▁massive	-10.6915
အဓိက	-10.6919
▁အံ့သြစရာကောင်း	-10.692
▁planned	-10.6929
အိပ်မက်	-10.6936
▁ကျွန်တော့်ရဲ့	-10.6938
▁ဝင်ငွေနည်း	-10.6946
▁connection	-10.6947
▁ဆိုပါတယ်။	-10.6948
▁အိမ်တွင်း	-10.6948
▁sentence	-10.6952
▁ပြုလုပ်ခဲ့	-10.6957
ယှဉ်	-10.6959
▁afraid	-10.696
▁suppose	-10.6962
metric	-10.6963
ယဉ်	-10.6964
▁package	-10.6964
ရှားပါး	-10.6965
ဗိသုကာလက်ရာ	-10.6965
36	-10.6968
▁neighbor	-10.6985
▁ဒေသတွင်း	-10.6986
မူကြမ်း	-10.6988
သတ်မှတ်ထား	-10.699
ရှ်	-10.6995
▁familiar	-10.6998
ဝဘ်ဆိုက်	-10.6998
▁tradition	-10.6999
Martin	-10.7
ခွင့်ပြုချက်	-10.7005
ဝန်းကျင်	-10.7009
▁santa	-10.7009
▁၄၀	-10.7014
▁extend	-10.7023
▁copy	-10.7023
▁မေးခွန်းထုတ်	-10.703
▁decrease	-10.7036
▁reveal	-10.7036
နေချိန်တွင်	-10.7038
ရုံးခန်း	-10.7041
▁manner	-10.7048
▁အထက်တန်းကျောင်း	-10.7049
ဓား	-10.705
▁အကဲဖြတ်ခြင်း	-10.7051
အုပ်ချုပ်ရေးမှူး	-10.7052
▁highest	-10.706
income	-10.7065
ခဲ့ပါသည်	-10.7068
▁အချိန်အတော်ကြာ	-10.7074
▁harm	-10.7074
▁အကြီးမားဆုံး	-10.7074
▁အလယ်ခေတ်	-10.7074
အနှံ့	-10.7074
ခရက်ဒစ်	-10.7086
ဒီဇိုင်း	-10.7092
ကတိကဝတ်	-10.7099
▁အထောက်အကူဖြစ်စေ	-10.7112
တစ်ခုဖြစ်သည့်	-10.7114
ရုပ်ပုံ	-10.7124
မြှောက်	-10.7124
▁chapter	-10.7124
▁ထိရောက်သော	-10.713
▁illegal	-10.7137
▁မှတ်ချက်ပေး	-10.7138
ကွပ်	-10.7138
▁လှည့်စား	-10.7138
ရက်သတ္တပတ်	-10.715
းးးးးးးးးးးးးးး	-10.7151
▁ဂျပန်နိုင်ငံ	-10.7151
▁လိုလား	-10.7153
▁facilities	-10.7163
▁opposite	-10.7163
▁ငြိမ်းချမ်းရေး	-10.7163
▁entertainment	-10.7165
ရှူ	-10.7166
မျက်နှာစာ	-10.7167
▁vacation	-10.7175
▁ကွယ်လွန်	-10.7175
ကိုးကွယ်	-10.7176
စေချင်တယ်။	-10.7182
▁pattern	-10.7188
▁ထူထောင်	-10.7188
ရတနာ	-10.7188
▁ရှည်လျားသော	-10.7189
▁ရှုမြင်	-10.7191
▁shut	-10.7201
sufficient	-10.7201
▁pleasant	-10.7201
▁twice	-10.7201
▁ဆား	-10.7205
▁ultimate	-10.7214
▁gotten	-10.7214
ဆိုဒ်	-10.7216
▁smart	-10.7229
၏တောင်ဘက်	-10.723
▁safety	-10.7231
▁စီမံခန့်ခွဲရေး	-10.7236
▁peak	-10.7237
▁အသုံးမပြု	-10.7239
▁အခွင့်အာဏာ	-10.724
▁တာဝန်ခံမှု	-10.724
38	-10.7244
လာစေရန်	-10.7245
37	-10.725
အငြိမ်းစား	-10.7252
▁distinct	-10.7252
ငါတို့	-10.7252
▁interpret	-10.7265
▁စုံစမ်းစစ်ဆေး	-10.7266
▁ဘာပဲဖြစ်ဖြစ်	-10.7267
ထည့်ထား	-10.7274
▁relevant	-10.7278
နေတာကြောင့်	-10.728
▁quick	-10.7283
▁edge	-10.7284
▁မှန်ကန်သော	-10.7287
▁install	-10.7288
▁scenario	-10.7291
▁phase	-10.7291
ridge	-10.7292
ရည်မှန်းချက်များ	-10.7301
▁ပေါက်ကွဲ	-10.7304
▁irish	-10.7307
▁rough	-10.7314
▁အကြံပြုချက်များ	-10.7319
▁Jane	-10.7322
▁essential	-10.733
▁text	-10.733
▁dangerous	-10.7331
ပေးချေမှု	-10.7341
▁Microsoft	-10.7343
တော်လှန်ရေး	-10.7343
▁လူမျိုးရေး	-10.7345
▁တည်ရှိနေ	-10.7349
▁arrest	-10.7356
▁reference	-10.7359
▁richard	-10.7374
▁၁၁	-10.7377
▁အရေးကြီးပါသည်။	-10.738
▁neither	-10.7382
▁အီလက်ထရွန်းနစ်	-10.7382
မယ်ဆိုရင်	-10.7383
ographic	-10.7384
▁supply	-10.7395
▁amazing	-10.7395
နွေဦး	-10.7395
▁သာမန်	-10.7396
▁failure	-10.7397
▁cavendish	-10.7408
▁White	-10.7408
စာရင်းအင်း	-10.7408
▁harbor	-10.7408
▁minute	-10.7409
▁requirement	-10.741
▁ရူးသွပ်	-10.7421
▁launch	-10.7421
▁မူရင်း	-10.7422
▁ထားခဲ့	-10.7427
▁သိပ္ပံပညာ	-10.7429
အပျက်အစီး	-10.7434
တာဝန်ယူ	-10.7443
▁corporate	-10.7447
▁enforce	-10.7447
▁gallery	-10.7461
▁suspect	-10.7463
▁ပြန်လည်တည်ဆောက်	-10.7468
ပစ်လိုက်	-10.747
မြောင်း	-10.7474
▁မော်တော်	-10.7474
▁စီရင်ချက်	-10.7476
72	-10.7481
▁ကြီးထွားလာ	-10.7482
▁ပိုလန်	-10.7483
▁coverage	-10.7484
▁library	-10.7487
OP	-10.7487
မြည်	-10.7487
▁glad	-10.7488
ဆုံ	-10.7494
▁driver	-10.7495
နှင့်အညီ	-10.7496
အသိုက်အဝန်း	-10.75
▁consult	-10.75
▁မျိုးဆက်	-10.7502
ပုံရတယ်။	-10.7507
တံတိုင်း	-10.7513
ပခုံး	-10.7513
▁tiny	-10.7514
▁egyptian	-10.7514
ပထမဆုံး	-10.7515
▁flow	-10.7516
▁စိတ်ပူ	-10.7526
သေတ္တာ	-10.7527
▁yesterday	-10.7527
▁liberal	-10.7527
▁သဘာဝပတ်ဝန်းကျင်	-10.7529
▁shape	-10.7531
ဘောင်းဘီ	-10.754
▁numerous	-10.754
▁primary	-10.754
အခြေခံဥပဒေ	-10.7552
မျဉ်း	-10.7552
ဖျော့	-10.7553
▁ဟုတ်ပြီ	-10.7554
▁saturday	-10.7566
တရားစွဲဆို	-10.7566
ညီညွတ်	-10.7566
▁အနိုင်ယူ	-10.7567
▁forget	-10.7569
ပုံပြင်	-10.7572
▁employer	-10.7575
view	-10.7579
▁dublin	-10.758
▁secretary	-10.7583
▁လူဖြူ	-10.7586
▁ဆက်စပ်မှု	-10.7589
▁appreciate	-10.7593
▁နယူးယောက်	-10.7593
▁အဆိုးဆုံး	-10.7593
▁နေ့တိုင်း	-10.7597
ပျင်း	-10.7603
▁website	-10.7606
under	-10.7608
▁madeira	-10.7614
▁ဆိုလိုတာ	-10.7618
▁faith	-10.762
သူရဲကောင်း	-10.762
▁ကျင့်သုံး	-10.762
အဖွဲ့ဝင်များ	-10.762
42	-10.7631
ဖြန့်ဝေ	-10.7633
▁ရှေးခေတ်	-10.7635
▁arrange	-10.7646
▁escape	-10.7646
စာဖတ်သူ	-10.7653
▁အတော်လေး	-10.766
▁အမှန်တရား	-10.7663
ologist	-10.7668
utter	-10.767
▁driving	-10.7673
ကော့	-10.7677
▁kingdom	-10.7688
ကြော်ငြာ	-10.7699
တစ်စုံတစ်ရာ	-10.77
ဖခင်	-10.77
▁dozen	-10.7701
တောင်းခံ	-10.7706
▁paul	-10.771
ခိုင်မာ	-10.7712
▁Madeira	-10.7714
▁hindu	-10.7714
ခုံး	-10.7715
▁accountability	-10.7717
▁လူတော်တော်များ	-10.7722
▁cuba	-10.7736
▁afternoon	-10.7741
ကုဒ်	-10.7741
▁ဖုံးကွယ်ထား	-10.7754
▁professor	-10.7754
▁error	-10.7754
▁opportunities	-10.7768
▁ဖြည့်ဆည်းပေး	-10.7772
▁လွတ်လပ်သော	-10.7773
▁သဘောတူညီ	-10.7773
▁ဆောက်လုပ်	-10.7775
လမ်းလျှောက်	-10.778
ဖြုတ်	-10.7781
▁accurate	-10.7781
▁component	-10.7781
▁ကျွမ်းကျင်မှု	-10.7784
▁ဆီး	-10.7788
▁accomplish	-10.7795
▁convert	-10.7811
▁incident	-10.7822
▁အိုကေ	-10.7836
▁volunteer	-10.7836
သပ်ရပ်	-10.7836
▁vast	-10.7844
▁ပြီးခဲ့သည့်	-10.7847
စက္ကူ	-10.7849
▁storm	-10.785
▁လူသတ်မှု	-10.785
▁ယှဉ်ပြိုင်	-10.785
လျှော	-10.7857
ကမ္ဘာပေါ်တွင်	-10.7863
အလွန်အကျွံ	-10.7863
▁ငယ်ရွယ်	-10.7863
▁လစ်ဘရယ်	-10.7863
▁ညာဘက်	-10.7863
▁divide	-10.7863
▁မျက်နှာဖုံး	-10.7864
ရည်အချင်းပြည့်မီ	-10.7867
▁jewel	-10.7872
ပန်းချီကား	-10.7876
စွပ်	-10.7877
▁piazza	-10.7877
▁ဆက်စပ်နေ	-10.7878
စောင့်ရှောက်	-10.7887
မင်္ဂလာ	-10.789
▁ဟိန္ဒူ	-10.789
▁bureau	-10.789
▁အယ်လ်	-10.789
▁အန္တရာယ်ရှိ	-10.7896
▁ခန့်မှန်းခြေ	-10.7896
အဆင်သင့်ဖြစ်	-10.7901
39	-10.7903
▁participate	-10.7904
▁ရယ်မော	-10.7904
▁engineering	-10.7904
အခြေစိုက်	-10.7904
▁တစ်ယောက်တည်း	-10.7905
ဝန်ထမ်း	-10.7906
85	-10.7912
related	-10.7915
▁မေလ	-10.7916
မဟာမိတ်	-10.7918
▁friday	-10.7918
▁stretch	-10.7918
▁russia	-10.7921
လေးနက်	-10.7928
▁january	-10.7932
လေလံ	-10.7934
▁impressive	-10.7945
▁april	-10.7946
▁ကျွမ်းကျင်သူ	-10.7949
lift	-10.7951
▁$3	-10.7954
စျေးကွက်	-10.7959
▁Santa	-10.7964
▁အကြံပြုထားသည်။	-10.7972
▁ကြီးပြင်းလာ	-10.7973
▁fellow	-10.7976
▁jump	-10.7983
အနီးရှိ	-10.7984
ဂြိုလ်	-10.7987
▁George	-10.7987
▁edinburgh	-10.7987
▁sample	-10.7987
▁marble	-10.7993
▁finger	-10.7999
မြုပ်	-10.8001
▁William	-10.8001
▁audience	-10.8001
▁အမိန့်ပေး	-10.8005
aux	-10.8011
ဥက္က	-10.8015
ဝိညာဉ်	-10.8015
အခမ်းအနား	-10.8015
▁constitution	-10.8015
▁စက်တင်ဘာ	-10.8015
၏မြောက်ဘက်	-10.8017
▁portion	-10.8019
▁ထိုင်နေ	-10.8032
▁advise	-10.8036
လက်နက်	-10.8039
▁facility	-10.8043
▁dedicated	-10.8043
▁အပြာရောင်	-10.8043
▁promote	-10.8043
49	-10.8051
စျေး	-10.8052
▁ထောက်ပြ	-10.8053
▁bright	-10.8054
▁အံ့သြစရာ	-10.8055
▁medicare	-10.8057
▁privacy	-10.8057
▁distance	-10.8057
▁အားနည်းချက်	-10.8057
စတုရန်း	-10.807
▁ခြေရာခံ	-10.807
▁လန်ဒန်	-10.807
▁လှေကားထစ်	-10.807
▁နှုတ်ဆက်	-10.8071
▁jews	-10.8071
▁အကြမ်းဖက်	-10.8072
▁guidance	-10.8084
▁vandemeyer	-10.8084
▁Susan	-10.8085
▁ဟာသ	-10.8091
▁သာလွန်	-10.8095
responsibilities	-10.8098
▁အနီးနားရှိ	-10.8098
▁ခမ်းနားသော	-10.81
▁အာဖရိက	-10.8113
ငါးဆယ်	-10.8114
▁ရိုးရှင်းသော	-10.8119
စုစည်းမှု	-10.8123
အစစ်အမှန်	-10.8127
▁productivity	-10.8127
▁restored	-10.8127
▁teen	-10.813
▁အထက်လွှတ်တော်	-10.8131
▁native	-10.8134
▁recognize	-10.8136
မြှင့်	-10.8137
▁contribute	-10.8141
အမှုဆောင်အရာရှိ	-10.8147
မဲဆန္ဒရှင်	-10.8155
▁dropped	-10.8156
▁ခေတ်သစ်	-10.8161
လွန်ကဲ	-10.8169
▁1960	-10.8177
▁tele	-10.8189
▁အလိုအလျောက်	-10.8197
▁အဆိုအရ	-10.8197
▁monday	-10.8201
▁ideal	-10.821
▁herself	-10.8211
▁ပေါ်တူဂီ	-10.8211
▁permanent	-10.8211
▁စုဆောင်းငွေ	-10.8219
▁politician	-10.8225
▁National	-10.8225
▁ခွဲခြားသတ်မှတ်	-10.8228
ပရောဂျက်	-10.8239
လူဦးရေ	-10.8239
ကြောက်ရွံ့	-10.824
ညီလာခံ	-10.824
▁ဆေးဘက်ဆိုင်ရာ	-10.824
▁pray	-10.824
စွက်ဖက်	-10.8245
▁ဆိုးရွားသော	-10.8246
▁အခြေခံအားဖြင့်	-10.8246
မွှေး	-10.8254
▁Medicare	-10.8254
▁Richard	-10.8254
84	-10.826
▁1993	-10.8268
▁gdp	-10.8269
ပရိုဂရမ်များ	-10.8272
▁အလွန်ကောင်းမွန်	-10.8274
တွေ့ရှိချက်များ	-10.8277
▁apparently	-10.8282
▁september	-10.8282
▁ဇွန်လ	-10.8282
▁silver	-10.8297
▁ပိုင်းခြား	-10.8297
▁blow	-10.8304
▁approved	-10.8311
▁ဆင်တူ	-10.8312
ဝင်ရောက်စွက်ဖက်	-10.8317
▁substantial	-10.8325
▁consist	-10.8327
62	-10.8328
▁patient	-10.8339
▁instrument	-10.834
▁settlement	-10.834
▁မိမိကိုယ်ကို	-10.834
▁indeed	-10.8345
သူများထံ	-10.8349
▁physi	-10.8353
ဂိုဏ်း	-10.8354
▁extent	-10.8354
ကလွဲလို့	-10.8356
▁sexual	-10.8356
2,000	-10.8359
▁အမျိုးမျိုးသော	-10.8359
▁1970	-10.8366
▁selection	-10.8368
မိဘတွေ	-10.8371
▁စုံစမ်း	-10.8378
စကျင်ကျောက်	-10.8383
▁အမြတ်အစွန်း	-10.8383
ဓလေ့	-10.8398
▁giant	-10.84
အကျိုးဆက်	-10.8405
ချဲ့	-10.8412
▁magnificent	-10.8412
▁freedom	-10.8413
နီးစပ်	-10.8419
▁ဘုံ	-10.8423
▁retire	-10.8425
▁ပျံသန်း	-10.8426
▁chamber	-10.8428
▁မြေအောက်	-10.8434
အပြီးတွင်	-10.8437
▁FGD	-10.8441
▁score	-10.8448
▁mosaic	-10.8455
▁ဖျက်သိမ်း	-10.8455
▁determin	-10.8469
ဆယ့်နှစ်	-10.847
82	-10.8478
▁proceed	-10.8484
တစ်ဦးတည်း	-10.8497
▁somewhere	-10.8499
▁fgd	-10.8499
empt	-10.8501
field	-10.8513
▁worried	-10.8513
အလင်းရောင်	-10.8514
အခြေချ	-10.8514
▁retain	-10.8514
▁becoming	-10.8514
▁panel	-10.8515
▁cete	-10.8523
▁ကောင်းပါတယ်။	-10.8539
▁ယေရှု	-10.8543
▁swimming	-10.8543
▁တည်းခို	-10.8543
▁shock	-10.8543
ထုတ်လုပ်သူ	-10.8549
ဖွံ့ဖြိုး	-10.855
▁strip	-10.8556
ရလဒ်	-10.8561
▁ခြိမ်းခြောက်မှု	-10.8562
▁mandate	-10.8583
နဲ့တူတယ်	-10.8584
းးးးးးးးးးးးး	-10.8586
▁october	-10.8587
▁ရံဖန်ရံခါ	-10.8587
▁မြင်းစီး	-10.8587
▁democratic	-10.8594
မဲဆွယ်စည်းရုံး	-10.8601
စပျစ်	-10.8602
▁conclude	-10.8602
▁ဘုန်းကြီး	-10.8602
▁attractive	-10.8606
န္တ	-10.8614
တွယ်	-10.8616
▁ပျောက်ကွယ်သွား	-10.8616
▁ဝန်းရံ	-10.8616
ရှိသေးတယ်	-10.8617
▁sharp	-10.8617
▁carrier	-10.8617
▁ရုပ်ပိုင်း	-10.8617
▁awful	-10.8618
▁Cete	-10.862
▁ကုန်ဆုံး	-10.862
ရေတွက်	-10.8629
▁ကျူးဘား	-10.8631
ကျင့်ဝတ်	-10.8635
အသုံးအနှုန်း	-10.8646
▁တတ်နိုင်သမျှ	-10.8647
▁speed	-10.8647
▁renaissance	-10.8661
▁length	-10.8661
▁ဟေ့	-10.8664
▁fraud	-10.8665
IV	-10.8673
▁announced	-10.8675
▁ဧပြီလ	-10.8675
▁installation	-10.8679
worth	-10.8684
အာရုံစိုက်	-10.8685
rving	-10.8692
တစ်လျှောက်လုံး	-10.8694
▁အာရပ်	-10.87
▁စက်ဘီး	-10.8705
▁treasure	-10.8705
စက္ကန့်	-10.872
▁strategy	-10.872
▁carried	-10.8721
▁league	-10.8735
▁ယေဘူယျအားဖြင့်	-10.8736
▁သန့်ရှင်းသော	-10.8738
▁deficit	-10.875
▁ငြင်းပယ်	-10.875
သေးသေးလေး	-10.875
▁တိကျသော	-10.8755
ပြန်လည်သုံးသပ်	-10.8755
▁lincoln	-10.8765
အပြင်ဘက်တွင်	-10.8765
▁Dublin	-10.878
▁Edinburgh	-10.878
▁အာကာသ	-10.878
▁witness	-10.878
▁carved	-10.8781
▁disease	-10.8783
▁အလယ်အလတ်	-10.8795
▁ရောနှော	-10.8795
▁welcome	-10.8795
▁စည်းရုံး	-10.8795
▁salt	-10.8796
ရှေးဟောင်းသုတေသန	-10.8799
▁လေထုညစ်ညမ်းမှု	-10.881
▁calm	-10.8811
▁လွှဲပြောင်းပေး	-10.8825
▁subsid	-10.883
▁လွှတ်တော်	-10.8837
▁odd	-10.8839
ပျံ့နှံ့	-10.884
▁ပြည့်လွန်နှစ်	-10.884
▁surrounded	-10.884
▁ဟဲဟဲ	-10.884
▁စိမ်းလန်း	-10.884
စရာမလို	-10.8845
▁နှိမ့်ချ	-10.8855
▁supreme	-10.8855
▁ဂျမေကာ	-10.8855
ဗိုက်	-10.887
ရုပ်ပွားတော်	-10.887
▁illustrat	-10.887
▁မင်းငါ့ကို	-10.887
လျော်ကြေး	-10.8872
▁ထပ်လောင်း	-10.8873
ဖိုင်	-10.8875
▁ရယ်စရာ	-10.8878
▁ကောက်ချက်ချ	-10.8885
ကြီးထွား	-10.8891
▁စည်းကမ်းချက်	-10.8895
▁execut	-10.8897
အတားအဆီး	-10.8901
တို့ကိုယ်သူတို့	-10.8906
ပြဌာန်း	-10.8916
bbed	-10.8924
▁IRS	-10.8931
▁ကြည်နူး	-10.8931
▁nodded	-10.8931
▁basically	-10.8933
▁communities	-10.8946
တယ်ဆိုရင်	-10.8948
▁scotland	-10.8962
▁presence	-10.8962
▁တရုတ်နိုင်ငံ	-10.8967
▁neat	-10.8969
▁sorry	-10.8977
▁ကနေဒါ	-10.8978
▁ငို	-10.8982
ယောက်ျား	-10.8986
▁ကော်ပိုရိတ်	-10.8992
▁shadow	-10.8992
▁monica	-10.8995
▁villa	-10.9006
▁အဆက်မပြတ်	-10.9008
▁Gothic	-10.9008
▁worship	-10.9008
▁gothic	-10.9008
▁အရပ်ဘက်	-10.9008
▁shore	-10.9015
56	-10.9022
သိမ်မွေ့	-10.9023
▁ဂရုတစိုက်	-10.9023
▁ပြောကြားခဲ့သည်	-10.9027
နီးယား	-10.903
▁catholic	-10.9038
▁ရှုံးနိမ့်	-10.9038
▁ဆန်းစစ်	-10.9038
▁reserve	-10.9048
▁historic	-10.9048
▁loud	-10.905
▁ပါဝင်သူများ	-10.9051
ကြွေးမြီ	-10.9054
▁poverty	-10.9054
▁စားသုံးသူ	-10.9054
▁operating	-10.9057
▁vision	-10.906
▁ကျော	-10.9067
▁advertising	-10.9069
▁succeed	-10.9069
ဗျူရို	-10.9085
အကျပ်အတည်း	-10.9085
သတိမထားမိ	-10.9085
▁amendment	-10.9085
▁channel	-10.9085
▁terror	-10.9085
▁House	-10.9087
▁မတ်လ	-10.9088
တစ်ပုဒ်	-10.9092
▁steve	-10.9094
▁crash	-10.9101
▁publish	-10.9115
▁အိမ်ဖြူတော်	-10.9116
▁ခိုင်မာသော	-10.9118
▁hide	-10.9128
ပါမောက္ခ	-10.9131
▁အကျဉ်းချုပ်	-10.9131
မျှော်လင့်ပါတယ်။	-10.9137
▁upset	-10.9137
▁detect	-10.9137
▁approximately	-10.9147
▁လိမ်လည်မှု	-10.9147
▁မကြာခင်	-10.9147
ထည့်သွင်း	-10.9153
မိန့်ခွန်း	-10.9162
▁မည်သည့်အခါမျှ	-10.9162
▁preserve	-10.9169
▁desire	-10.917
▁destination	-10.9178
▁introduce	-10.9178
လှုံ့ဆော်	-10.9191
▁ဂျူးလူမျိုး	-10.9192
တည်နေရာ	-10.9192
ိပက္ခ	-10.9193
▁ဆက်လက်လုပ်ဆောင်	-10.9201
▁လောင်းကစား	-10.921
▁plus	-10.9211
▁electricity	-10.9213
▁hollywood	-10.9225
▁leather	-10.9225
▁စေတနာ့ဝန်ထမ်း	-10.9225
သူဌေး	-10.924
ကြီးကြပ်ရေး	-10.9256
▁manufacture	-10.9256
ကုပ်	-10.9256
ဖြောင့်	-10.9259
▁ခမ်းနားထည်ဝါသော	-10.9272
▁တစ်ချိန်လုံး	-10.9272
▁engagement	-10.9276
လုပ်သားများ	-10.9282
ဗိမာန်	-10.9288
▁ဖယ်ထုတ်	-10.9288
ပွင့်လင်း	-10.929
ဘယ်တော့မှ	-10.9298
ကက်သလစ်	-10.9304
▁ပြည့်နှက်နေ	-10.9304
▁ဆင်းသက်လာ	-10.9304
▁မြို့လယ်	-10.931
ုလိုက်အပြုံလိုက်	-10.9319
လိုင်စင်	-10.9319
မှစ၍	-10.932
▁strict	-10.932
▁၁၃	-10.9334
▁American	-10.9335
▁rennie	-10.9335
▁troops	-10.9335
▁ဟောပြော	-10.9336
▁specifically	-10.9339
လွှတ်တော်အမတ်	-10.9341
96	-10.9349
▁holiday	-10.9351
ထုတ်လွှင့်	-10.9355
အမြဲတမ်း	-10.9365
အမှတ်အသား	-10.9367
▁စိုက်ပျိုးရေး	-10.9368
▁ဖမ်းဆီး	-10.9383
▁guilty	-10.9383
▁အလုံးစုံ	-10.9383
မည်မဟုတ်ကြောင်း	-10.9383
▁တစ်စုံတစ်ခု	-10.9383
▁compete	-10.9387
▁journalist	-10.9395
အုပ်စိုး	-10.9399
▁struggle	-10.9399
▁strike	-10.9399
အဘိုး	-10.94
မုတ်	-10.94
ddle	-10.9405
▁operate	-10.9412
▁somewhat	-10.9415
မိတ္တူ	-10.9415
ဗိုလ်ချုပ်	-10.9416
▁ကားမောင်း	-10.9421
▁ဇူလိုင်လ	-10.9432
▁fuel	-10.9432
▁တက်ရောက်	-10.9442
▁preamble	-10.9447
လွဲမှား	-10.9448
ဖြစ်နိုင်ချေ	-10.9456
၎	-10.9463
ခိုင်ခံ့	-10.9463
အကြီးအကဲ	-10.9463
▁transaction	-10.9463
▁သတ်ဖြတ်	-10.9464
▁Rennie	-10.9479
▁approval	-10.9479
▁francis	-10.9479
▁စိစစ်	-10.9479
▁ဂျော့	-10.9479
▁ဖက်ရှင်	-10.948
▁ဖျော်ဖြေရေး	-10.948
▁ကြိုဆို	-10.9481
▁branch	-10.9481
အမွေအနှစ်	-10.9495
▁chicago	-10.9495
▁merchant	-10.9495
▁rapid	-10.9495
▁စမ်းကြည့်	-10.95
▁christmas	-10.9511
ကင်းမဲ့	-10.9516
▁background	-10.9527
▁reliability	-10.9527
▁scandal	-10.9527
▁အခြေချနေထိုင်	-10.9527
▁ဖြစ်နိုင်ချေရှိ	-10.9535
ဇန်နဝါရီ	-10.9544
▁advocate	-10.9544
တွန့်	-10.9544
▁ဆေးဝါး	-10.9546
ဖွင့်ဆိုချက်	-10.9558
▁ရုန်းကန်	-10.956
▁bottom	-10.956
▁explanation	-10.956
▁regardless	-10.9562
အလှဆင်	-10.9577
နဲ့အတူ	-10.9579
မျက်နှာပြင်	-10.9582
▁valid	-10.9598
▁facade	-10.9609
▁တစ်ယောက်ယောက်က	-10.962
▁madrid	-10.9625
▁practical	-10.9625
▁ခံနိုင်ရည်	-10.9625
▁ဒီဇင်ဘာ	-10.9641
▁အကာအကွယ်ပေး	-10.9641
▁အီးမေးလ်	-10.9641
▁applied	-10.9641
▁impose	-10.9642
▁occurred	-10.9645
▁employment	-10.9661
▁photo	-10.9674
ကုန်ထုတ်စွမ်းအား	-10.9674
▁ought	-10.9674
▁reducing	-10.9674
ငြိမ်းချမ်း	-10.969
▁Vandemeyer	-10.969
▁gonna	-10.9691
▁ထွက်ပြေး	-10.9691
▁shook	-10.9694
သက်ရောက်မှု	-10.97
▁atmosphere	-10.9707
▁demonstrate	-10.9707
▁definition	-10.9723
ဦးနှောက်	-10.9723
▁anybody	-10.9723
ဆိုသော်	-10.9725
▁blade	-10.9745
▁ယေဘူယျ	-10.9755
▁absorb	-10.9756
rink	-10.9757
oku	-10.9771
▁ကြောက်မက်ဖွယ်	-10.9773
▁Howard	-10.9778
▁မကြာသေးမီ	-10.9786
▁acid	-10.9788
▁disagree	-10.9789
▁clinic	-10.9793
▁ထက်မြက်	-10.9806
ကွန်မြူနစ်	-10.9806
▁journey	-10.9806
ထုပ်ပိုး	-10.9807
ရက်စက်ကြမ်းကြုတ်	-10.9823
▁graduate	-10.9823
▁characteristic	-10.9824
makers	-10.9829
အတွေ့အကြုံ	-10.9829
တွေးခေါ်	-10.9838
▁britain	-10.9839
conscious	-10.9841
▁fascinating	-10.9856
▁strategies	-10.9856
▁ဒေါက်တာ	-10.9856
အခြားရွေးချယ်စရာ	-10.9856
▁belief	-10.9856
▁ပန်းချီကားများ	-10.9856
ဂြိုဟ်	-10.9873
▁peninsula	-10.9873
▁chateau	-10.9873
▁လယ်သမား	-10.9873
▁အမှတ်အသားပြု	-10.989
▁hypo	-10.989
▁poison	-10.9906
ရှင်းရှင်း	-10.9913
▁သေဆုံးသွား	-10.9916
▁economist	-10.9923
▁baseball	-10.994
▁extensive	-10.994
▁ocean	-10.994
▁ပြည့်နေ	-10.9941
▁thick	-10.9948
▁gentle	-10.9951
▁မြန်မြန်	-10.9957
1,000	-10.9957
▁urban	-10.9958
▁စံပြ	-10.997
များအကြား	-10.9977
raising	-10.9977
▁ဆရာမ	-10.9989
▁malaysia	-10.9991
▁attitude	-10.9991
သင်ခန်းစာ	-10.9991
▁architect	-11.0006
▁ဆုပ်ကိုင်ထား	-11.0008
▁parliament	-11.0025
▁contrast	-11.0025
▁sultan	-11.0025
▁honest	-11.0025
အင်္ဂါရပ်	-11.0027
တည်ထောင်	-11.0028
နက်ရှိုင်း	-11.0042
▁Michael	-11.0042
▁evaluate	-11.0042
aving	-11.0049
▁blame	-11.0049
▁christ	-11.005
လောက်ရှိပြီ	-11.0053
▁ကြယ်	-11.0056
▁မနှစ်က	-11.0058
▁criteria	-11.0059
▁mexico	-11.0059
▁SCR	-11.0059
▁ဒုက္ခရောက်	-11.0059
▁trading	-11.0059
▁fought	-11.0076
▁silent	-11.0076
▁ခြေလျင်	-11.0076
စွဲမက်ဖွယ်ကောင်း	-11.0093
▁enhance	-11.0093
▁plaza	-11.0093
မည့်အစား	-11.0108
▁ရေငုပ်	-11.011
▁consumption	-11.011
▁technologies	-11.011
▁ထွင်းထုထား	-11.011
▁solve	-11.0119
ယွင်း	-11.0127
▁global	-11.0127
▁medicine	-11.0127
▁ဖွဲ့စည်းထား	-11.0134
နက်နဲ	-11.014
▁electric	-11.014
▁ခေတ္တ	-11.0144
▁fifteen	-11.0144
GDP	-11.0144
ဂုဏ်သိက္ခာ	-11.0161
အယ်ဒီတာ	-11.0161
▁independence	-11.0161
▁possibly	-11.0161
▁stewardship	-11.0161
▁တစ်ခါတလေ	-11.0161
နှင့်ပတ်သက်ပြီး	-11.0164
▁flood	-11.0165
ကိုယ်စားပြု	-11.0169
▁dirt	-11.0176
awn	-11.0177
ပရိဘောဂ	-11.0179
▁ဒေသန္တရ	-11.0179
▁မြင့်မြတ်သော	-11.0179
▁clothing	-11.0179
▁transform	-11.0181
နှောင့်နှေး	-11.0196
▁reputation	-11.0196
▁origin	-11.0199
ပိုက်ဆံ	-11.0205
ပျော့	-11.0213
▁cynthia	-11.0213
▁ceiling	-11.0213
▁buried	-11.0213
ပုံမပေါ်	-11.0213
▁ငါအဲဒါကို	-11.0213
▁flee	-11.0222
ပုဒ်	-11.0223
▁virtual	-11.0231
▁commitment	-11.0231
ဗိသုကာပညာရှင်	-11.0232
▁လှုံ့ဆော်ပေး	-11.0244
▁emotion	-11.0248
▁ပယ်ချ	-11.0248
▁ဆယ်ကျော်သက်	-11.0255
69	-11.0264
ကော်ဇော	-11.0265
▁concert	-11.0265
▁courtyard	-11.0265
▁စကားမပြော	-11.0265
▁quote	-11.0273
မြင်လိုက်ရ	-11.0278
▁ဆုတောင်း	-11.03
▁comprehensive	-11.0318
▁ဧရာမ	-11.0318
▁railway	-11.0318
▁scholar	-11.0318
▁chemical	-11.0318
▁DOD	-11.0335
▁imperial	-11.0335
▁ပြန်လည်ပြုပြင်	-11.0335
▁motivat	-11.0335
▁ခန့်အပ်	-11.0338
▁rush	-11.0338
ညနေခင်း	-11.0338
scribe	-11.0339
friend	-11.0352
▁နတ်ဆိုး	-11.0353
▁လူသိရှင်ကြား	-11.0353
▁သာမာန်	-11.0353
သေနတ်	-11.0353
လို့ရတယ်	-11.0362
▁coordinat	-11.037
▁random	-11.0371
▁empty	-11.0371
နောက်ကျော	-11.0373
▁လျှောက်သွား	-11.0385
ခွေး	-11.039
▁ထွက်ခွာသွား	-11.0398
▁Charles	-11.0406
▁fruit	-11.0406
▁talent	-11.0407
▁grave	-11.0419
▁spectacular	-11.0423
▁ခုခံကာကွယ်	-11.0423
▁unusual	-11.0423
▁beauty	-11.0423
▁ဗုဒ္ဓဘာသာ	-11.0423
လုပ်ငန်းဆောင်တာ	-11.0424
နှစ်လောက်က	-11.0426
▁december	-11.0441
ကြိုးပမ်းအားထုတ်	-11.0441
ရင်ဆိုင်နေရ	-11.0443
ဥရောပ	-11.0446
▁ပစ်ချ	-11.0458
▁description	-11.0459
▁သတ်ပစ်	-11.0459
▁repair	-11.0461
▁committed	-11.0476
▁တယ်လီဖုန်း	-11.0476
▁ရှေးအကျဆုံး	-11.0476
▁subsequent	-11.0476
▁convince	-11.0476
▁ibiza	-11.0476
▁Brown	-11.0477
▁သိမ်းဆည်းထား	-11.048
ဧည့်သည်များ	-11.0485
▁import	-11.0511
သဘောသဘာဝ	-11.0512
▁elegant	-11.0512
▁prosecut	-11.0512
▁မွေးမြူ	-11.0512
တေးဂီတ	-11.0513
▁severe	-11.0514
ကျွန်ုပ်တို့	-11.052
ဆူညံ	-11.053
▁telephone	-11.053
▁slightly	-11.053
▁everywhere	-11.0548
▁elderly	-11.0548
▁penalty	-11.0548
▁လိမ်ညာ	-11.0548
▁surge	-11.0555
တောင်တန်းများ	-11.0563
▁ကိုယ်ကျင့်တရား	-11.0566
▁decorated	-11.0566
▁disaster	-11.0566
drew	-11.0568
ထူထပ်	-11.0568
itude	-11.0582
▁adequate	-11.0584
▁recipient	-11.0584
▁instruct	-11.0584
▁chronic	-11.0584
▁ဖက်ဒရယ်အေဂျင်စီ	-11.0584
trained	-11.06
▁consequence	-11.0602
▁twelve	-11.0602
▁လိင်တူချစ်သူ	-11.0602
▁လောလောဆယ်	-11.0602
▁truly	-11.062
အရှုပ်တော်ပုံ	-11.0638
▁napoleon	-11.0638
ပါလီမန်	-11.0638
▁မလေးရှား	-11.0638
▁truck	-11.0641
▁ရပ်နေ	-11.0648
▁engage	-11.0652
▁bronze	-11.0656
▁mercury	-11.0656
▁judgment	-11.0674
▁ပါလက်စတိုင်း	-11.0674
▁ဘေ့စ်ဘော	-11.0674
▁South	-11.0674
ကြားဝင်ဆောင်ရွက်	-11.0674
▁Old	-11.0674
▁primarily	-11.0692
▁ပုဂ္ဂိုလ်ရေး	-11.0693
▁horrible	-11.071
▁retrofit	-11.071
သမဂ္ဂ	-11.071
▁praise	-11.071
▁gross	-11.0711
ခြင်	-11.0718
▁စီစဉ်ထား	-11.0723
▁Ibiza	-11.0728
▁pleasure	-11.0728
▁Hotel	-11.073
▁ဖမ်းမိ	-11.0748
မြက်ခင်း	-11.0765
နယ်နိမိတ်	-11.0765
လုံးလုံးလျားလျား	-11.0765
▁treasury	-11.0765
▁crisis	-11.0765
▁မနေ့ညက	-11.0765
▁အပေါ်ထပ်	-11.0766
▁စွဲလမ်း	-11.0767
▁နည်းစနစ်	-11.0768
▁korea	-11.0768
▁မတ်တပ်ရပ်	-11.0783
▁ပါးစပ်	-11.0784
which	-11.0788
▁မြင့်တက်လာ	-11.0802
▁အားကိုး	-11.0802
▁click	-11.0805
▁ခရစ်	-11.0821
▁cliff	-11.0822
▁possibility	-11.0838
▁ယာယီ	-11.0838
ဂျာမနီ	-11.0838
▁ယခုအချိန်တွင်	-11.0839
▁ချိုးဖောက်	-11.0839
▁deserve	-11.0846
▁confident	-11.0857
▁တရားမဝင်	-11.0857
▁guidelines	-11.0857
▁အသိပေး	-11.086
▁custom	-11.0865
ပဲဖြစ်ဖြစ်	-11.0873
▁division	-11.0875
▁bargain	-11.0875
▁ရောင်စုံ	-11.0876
▁eliminate	-11.0894
▁terrace	-11.0894
▁ဂြိုလ်သား	-11.0894
ရှေးဟောင်း	-11.0905
မက်လုံးများ	-11.0912
▁Vrenna	-11.0912
▁territory	-11.0912
▁uncertain	-11.0912
▁vrenna	-11.0912
▁ဝင်ခွင့်	-11.0928
▁surprising	-11.0931
▁devoted	-11.0931
▁device	-11.0931
▁comparison	-11.095
▁experiment	-11.095
▁florida	-11.095
▁cooper	-11.095
ကျွန်တော်တို့ရဲ့	-11.0953
▁eligible	-11.0968
▁ဂျေရုဆလင်	-11.0968
အစဉ်အလာ	-11.0968
▁silence	-11.0968
▁ပြုပြင်မွမ်းမံ	-11.0969
▁အရသာရှိ	-11.097
ခံထားရ	-11.0974
ဤ	-11.0983
▁administrative	-11.0987
▁maintenance	-11.0987
▁relation	-11.0988
▁ထင်ဟပ်စေ	-11.1002
▁crazy	-11.1006
▁observation	-11.1006
အသီးသီး	-11.1006
မည်ဆိုပါက	-11.1011
▁strychnine	-11.1024
ဆယ့်တစ်	-11.1024
▁expenditure	-11.1043
▁exposure	-11.1043
▁ပေါ်ပေါက်လာ	-11.1043
▁ဗြိတိသျှတို့	-11.1059
▁lawrence	-11.1062
▁ရပ်ရွာ	-11.1063
▁oversight	-11.1063
▁remind	-11.1066
▁လှုံ့ဆော်မှု	-11.107
ပြည့်မီသော	-11.1072
▁lewinsky	-11.1081
▁perspective	-11.1081
▁Clear	-11.1081
▁ညီမျှ	-11.1082
▁concentration	-11.11
န္ဓ	-11.1119
▁universal	-11.1119
▁vegetable	-11.1119
▁ဆေးလိပ်သောက်	-11.1119
နှုတ်ခမ်း	-11.1119
▁scottish	-11.1119
▁မတော်တဆ	-11.1126
▁အောက်လွှတ်တော်	-11.1129
ဗိသုကာ	-11.1129
▁republic	-11.1132
▁confidence	-11.1138
▁thursday	-11.1138
▁tuesday	-11.1138
▁မက္ကဆီကို	-11.1138
လွင့်	-11.1138
▁ကတိပြု	-11.1138
အမူအရာ	-11.1139
▁စံနမူနာ	-11.1157
▁အမိုက်စား	-11.1157
▁လိုက်ဖက်	-11.1159
▁intellectual	-11.1176
▁အခြားအရာများ	-11.1187
▁လိင်ပိုင်း	-11.1195
▁ပစ်ခတ်	-11.1195
မျော	-11.1203
▁မရောက်ဖူး	-11.121
စိတ်မ၀င်စား	-11.1214
▁အံ့မခန်း	-11.1214
▁violent	-11.1214
▁soviet	-11.1214
▁တိုးမြင့်လာ	-11.1214
စာတစ်စောင်	-11.1215
▁administrator	-11.1233
▁စောစော	-11.1233
ဝယ်လိုအား	-11.1233
▁voting	-11.1235
ဗီယက်နမ်	-11.1252
▁combination	-11.1252
▁residence	-11.1252
▁daniel	-11.1252
▁ထက်ဝက်	-11.1254
နှစ်ဦးစလုံး	-11.1254
▁orange	-11.1255
အမဲလိုက်	-11.1258
▁kennedy	-11.1272
▁တွန်းလှန်	-11.1272
▁အောက်တိုဘာလ	-11.1272
▁Thorn	-11.1272
▁ပြင်းထန်စွာ	-11.1273
▁solid	-11.1273
▁အိုးးးးးးးးးးး	-11.1289
▁စာနယ်ဇင်း	-11.1291
▁relief	-11.1291
▁nurse	-11.1291
▁prepare	-11.1294
၎င်း၏	-11.1304
▁avenue	-11.131
▁corrupt	-11.131
နဲ့ပတ်သက်တဲ့	-11.131
▁smell	-11.1311
စတော့ရှယ်ယာ	-11.133
▁bradley	-11.133
▁တောရိုင်း	-11.133
▁ငယ်ငယ်က	-11.1337
ကြင်နာ	-11.1349
ဥက္ကဌ	-11.1349
▁ဘာလို့လဲဆိုတော့	-11.1368
▁အရောင်းအ၀ယ်	-11.1368
စီးရီး	-11.1368
▁bunch	-11.1369
စံချိန်စံညွှန်း	-11.1388
အခိုက်အတန့်	-11.1388
▁ireland	-11.1389
၍မရပါ။	-11.139
▁Steve	-11.1392
ရောင်ခြည်	-11.1407
▁license	-11.1407
▁statute	-11.1427
▁replied	-11.1427
ကျဉ်း	-11.1445
▁applicable	-11.1446
ography	-11.1447
▁henry	-11.1448
အံဝင်ခွင်ကျ	-11.1466
▁minimum	-11.1466
▁acquire	-11.1466
ဒီဂရီ	-11.1466
မည်နည်း။	-11.1469
အကူအညီပေးရေး	-11.1486
▁မနေ့က	-11.1486
▁angry	-11.1488
▁danger	-11.1504
ပင်ဆိုစေကာမူ	-11.1505
ဖုံးလွှမ်း	-11.1505
ယန္တရား	-11.1505
▁shelter	-11.1506
▁carpet	-11.1506
▁distribution	-11.1525
▁earthquake	-11.1525
▁splendid	-11.1525
▁excess	-11.1525
▁ဗိမာန်တော်	-11.1525
ကျည်	-11.1526
▁employ	-11.1527
▁adventure	-11.1545
ဖောင်ဒေးရှင်း	-11.1545
မွှား	-11.1545
ရှင်းတမ်းများ	-11.1565
ယွန်	-11.1567
နိုင်ဖွယ်ရှိ	-11.1581
▁advertise	-11.1584
▁february	-11.1584
▁efficiency	-11.1604
▁vietnam	-11.1604
▁ဓါတ်	-11.1604
▁emerge	-11.1605
▁Bradley	-11.1624
▁Lawrence	-11.1624
▁tomorrow	-11.1624
▁cried	-11.1625
▁competitive	-11.1644
▁နှင်ထုတ်	-11.1644
▁လဲလှယ်	-11.1644
▁thorough	-11.1644
▁bottle	-11.1644
▁ခိုးယူ	-11.1645
ပံ့ပိုးပေးပါသည်။	-11.1664
▁possess	-11.1664
▁principal	-11.1664
▁ဂျူရီလူကြီး	-11.1664
▁Place	-11.1664
အမိုးခုံး	-11.1664
▁borrow	-11.1664
▁အေးခဲ	-11.1665
▁begun	-11.1665
,500	-11.1681
▁ကာဒန်း	-11.1684
▁ခက်ခက်ခဲခဲ	-11.1684
စာအုပ်တစ်အုပ်	-11.1684
▁နို့	-11.1686
▁သဲကန္တာရ	-11.1704
▁wolf	-11.1707
▁ကွဲလွဲ	-11.1711
အလုပ်သမားများ	-11.1719
▁နိဂုံးချုပ်	-11.1724
▁nixon	-11.1724
▁wednesday	-11.1724
▁မကြာခဏဆိုသလို	-11.1725
▁Skies	-11.1725
▁ပစ်သတ်	-11.1725
အင်္ဂါ	-11.1742
လှည်း	-11.1745
▁buddhist	-11.1745
▁ကျွန်းဆွယ်	-11.1745
▁ဂန္တဝင်	-11.1745
▁စာမေးပွဲ	-11.1745
▁scream	-11.1745
▁resource	-11.1746
ဗုဒ္ဓ	-11.1765
▁ပေါ့ပေါ့ပါးပါး	-11.1765
အိမ်နီးချင်း	-11.1765
▁စနေနေ့	-11.1765
▁memory	-11.1765
▁session	-11.1765
▁မြင်တွေ့ရ	-11.1783
စိမ့်	-11.1785
▁collapse	-11.1785
▁studied	-11.1785
▁valuable	-11.1785
သတ္တိ	-11.1785
▁Smith	-11.1785
FDA	-11.1785
▁ထမ်းဆောင်	-11.1786
ဖြည့်စွက်	-11.1789
▁hidden	-11.1805
▁summary	-11.1805
ဓိပ္ပာယ်ဖွင့်ဆို	-11.1806
▁tokyo	-11.1806
▁အရေးယူ	-11.1806
▁compare	-11.1811
▁ခရစ္စမတ်	-11.1826
▁ငွေရေးကြေးရေး	-11.1826
▁ပူးတွဲ	-11.1826
ဘယ်မှာလဲ	-11.1835
▁appropriation	-11.1846
▁sensitive	-11.1846
▁bodies	-11.1847
▁assert	-11.1852
▁whittington	-11.1866
▁personnel	-11.1867
သိုလှောင်	-11.1887
▁appendix	-11.1887
▁improper	-11.1887
▁Green	-11.1888
အဲဒီ	-11.1902
▁literature	-11.1907
▁ဘုရှ်	-11.1907
ရှေးရိုးစွဲ	-11.1907
▁turkey	-11.1907
▁ထာဝရ	-11.1928
▁နပိုလီယံ	-11.1928
▁mccain	-11.1928
▁မြက်ခင်းပြင်	-11.1928
▁Center	-11.1928
▁ခဏလောက်	-11.1929
အဆက်အသွယ်	-11.1949
▁thomas	-11.1949
▁ယေဘုယျ	-11.1968
ကုလားထိုင်	-11.1969
ချွေတာရေး	-11.1969
▁turkish	-11.1969
ညှပ်	-11.1969
▁attribut	-11.199
ထမင်းစား	-11.199
သတ္တဝါ	-11.199
▁ဘယ်သူ့ကိုမှ	-11.199
▁ခွင့်လွှတ်	-11.199
▁မှတ်သားထား	-11.2006
▁elsewhere	-11.2011
▁monastery	-11.2011
▁ရှာမတွေ့	-11.2011
$	-11.2021
▁အထက်တန်း	-11.203
ပြုစုပျိုးထောင်	-11.2031
▁တစ်စုံတစ်ဦး	-11.2031
ဝဘ်ဆိုဒ်	-11.2034
နိယာမ	-11.2052
▁understood	-11.2052
▁ဒုတိယကမ္ဘာစစ်	-11.2052
▁conquer	-11.2053
▁improving	-11.2073
▁ထပ်ခါတလဲလဲ	-11.2073
▁abortion	-11.2094
▁divorce	-11.2094
▁ထိထိရောက်ရောက်	-11.2094
▁micro	-11.2094
▁Phil	-11.2109
ချန်ပီယံ	-11.2115
awk	-11.2129
လင့်ခ်	-11.2136
▁knock	-11.2136
▁အကျဉ်းသား	-11.2136
▁ပြတ်ပြတ်သားသား	-11.2157
▁အမှားအယွင်း	-11.2157
သမုဒ္ဒရာ	-11.2157
▁stupid	-11.2157
▁broadcast	-11.2157
▁Piazza	-11.2178
▁နောက်တစ်ကြိမ်	-11.2178
▁champion	-11.2178
▁ကျယ်ဝန်း	-11.2178
▁အိမ်ထောင်စုများ	-11.2178
▁plate	-11.2187
▁ဝဘ်	-11.2196
▁Kennedy	-11.2199
▁ဇိမ်ခံ	-11.2199
▁အလုပ်လက်မဲ့	-11.2199
ဆယ့်ကိုး	-11.222
▁context	-11.222
▁SEC	-11.222
▁ချို့ယွင်းချက်	-11.2223
မြှုပ်	-11.2241
▁ဖလော်ရီဒါ	-11.2241
▁framework	-11.2241
လက်ဝတ်ရတနာ	-11.2241
▁climate	-11.2241
▁crusade	-11.2242
အမြဲ	-11.2244
▁connect	-11.2247
▁deposit	-11.2256
▁စောဒကတက်	-11.2262
▁ကိုယ်ဝန်ဖျက်ချ	-11.2262
▁invasion	-11.2262
pollutant	-11.2262
▁ကိုင်ဆောင်ထား	-11.2263
▁democracy	-11.2284
▁incorporate	-11.2284
▁အီလက်ထရွန်နစ်	-11.2284
▁အနိမ့်ဆုံး	-11.2284
▁ကြာသပတေး	-11.2305
▁artifacts	-11.2305
ဖျော်ဖြေပွဲများ	-11.231
အနာဂတ်	-11.2312
▁boulevard	-11.2326
▁pyramid	-11.2326
▁တစ်ချိန်တည်းမှာ	-11.2326
▁sweet	-11.2326
▁ottoman	-11.2348
▁carolina	-11.2348
▁ချန်ထားခဲ့	-11.2369
▁သြစတြေးလျ	-11.2369
▁အလေးအနက်	-11.2369
မရေရာ	-11.237
▁involving	-11.2391
▁မနက်ဖြန်	-11.2391
▁kitchen	-11.2391
▁သတိထားမိ	-11.2391
▁necessarily	-11.2412
▁ပြဇာတ်ရုံ	-11.2413
▁crown	-11.2413
ချောက်ချား	-11.2434
▁excuse	-11.2434
မတော်တဆမှု	-11.2447
▁Nixon	-11.2455
▁senator	-11.2456
▁ကိုကြည့်ပါ	-11.2468
လိုငွေပြမှု	-11.2477
▁recycle	-11.2477
▁intention	-11.2477
▁၀တ်စုံ	-11.2477
အထွတ်အထိပ်	-11.2499
▁visibility	-11.2499
စိတ်မပူ	-11.2499
▁တိုက်တွန်း	-11.25
▁ဘဏ္ဍာနှစ်	-11.25
လောင်ကျွမ်း	-11.2501
▁ကျက်သရေ	-11.2521
တဝိုက်	-11.2521
▁ကုလသမဂ္ဂ	-11.2521
▁ဖေဖော်ဝါရီ	-11.2521
▁veteran	-11.2521
▁steep	-11.2521
တာဝန်ရှိသူများ	-11.2522
▁folks	-11.2543
▁november	-11.2543
ဒြပ်	-11.2564
▁pocket	-11.2564
▁taught	-11.2565
▁exceed	-11.2565
စမ်းသပ်	-11.258
▁immigration	-11.2586
▁update	-11.2589
၏အရှေ့ဘက်	-11.2608
▁overlook	-11.2609
▁လက်ရာမြောက်	-11.2609
valuation	-11.2627
▁စတုတ္ထ	-11.263
ပိရမစ်	-11.263
▁nursing	-11.263
▁altar	-11.2631
အမှုန်အမွှား	-11.2652
▁Angeles	-11.2652
▁eleven	-11.2652
▁အရိပ်အယောင်	-11.2652
▁ozone	-11.2652
▁reliable	-11.2653
▁တက္ကစီ	-11.2675
▁legislative	-11.2675
▁lobby	-11.2675
▁portrait	-11.2675
္ဌာန်းချက်များ	-11.2678
▁အခြားနေရာများ	-11.2694
တောင်ပံ	-11.2697
▁injured	-11.2697
ဂရုမစိုက်	-11.2703
ပြောကြားခဲ့သည်။	-11.2703
အစပျိုးမှု	-11.2719
▁plastic	-11.2719
မတိုင်ခင်	-11.2719
▁barely	-11.272
▁steal	-11.2721
▁byzantine	-11.2741
▁category	-11.2741
▁အတူတကွ	-11.2741
▁casino	-11.2742
သိပ်သည်း	-11.2742
▁Finn	-11.2746
အဲ့ဒါ	-11.2764
▁categories	-11.2764
▁furniture	-11.2764
▁ခေါ်ဆောင်သွား	-11.2786
▁addict	-11.2793
မိဘများ	-11.2801
economi	-11.2807
▁suburb	-11.2811
▁testimony	-11.2831
ချစ်စရာကောင်းသော	-11.2848
▁destroy	-11.2851
ယုတ်မာ	-11.2853
ထင်မြင်ချက်	-11.2854
ရာသီဥတု	-11.2868
▁sustain	-11.2876
▁switch	-11.2876
ဇွန်	-11.2878
ချောက်ကမ်းပါး	-11.2899
ချွေတာမှု	-11.2899
ယုတ္တိ	-11.2899
အတိုင်ပင်ခံ	-11.2899
▁Cavendish	-11.2899
▁Whittington	-11.2899
▁အဖိုးတန်	-11.2899
ကြားလိုက်ရ	-11.2906
ပတ်ပတ်လည်	-11.2921
▁စိုစွတ်	-11.2921
▁ထိုအချိန်တွင်	-11.2922
အံ့ဖွယ်	-11.2928
အပြုသဘောဆောင်သော	-11.2935
▁differ	-11.2939
▁တရားစီရင်ရေး	-11.2942
အကြီးကျယ်ဆုံး	-11.2944
ံရံဆေးရေးပန်းချီ	-11.2944
▁များပြားလှသော	-11.2944
▁ရောင်ပြန်ဟပ်	-11.2944
▁anticipat	-11.2944
▁scientist	-11.2944
▁fifth	-11.2944
▁ဆိုင်းဘုတ်	-11.2944
ဆယ့်လေး	-11.2967
အပြည့်အစုံ	-11.2967
▁combined	-11.2967
▁gambling	-11.2967
▁ပြဒါး	-11.2967
ဆင်ခြေဖုံး	-11.2967
လာတာနဲ့အမျှ	-11.2967
ကံကြမ္မာ	-11.299
▁assassin	-11.299
ကုတင်	-11.2991
▁exclusive	-11.3012
▁georgia	-11.3012
▁passenger	-11.3012
မက်ထရစ်	-11.3012
အမှတ်တံဆိပ်	-11.3013
အေးချမ်း	-11.3028
ဂန္ထဝင်	-11.3035
▁Renaissance	-11.3035
▁Washington	-11.3035
▁အနှောင့်အယှက်	-11.3035
ဖော်ရွေ	-11.3035
▁exciting	-11.3035
အိမ်ခြံမြေ	-11.3035
ခြင်းပင်ဖြစ်သည်။	-11.3036
ယဉ်ကျေး	-11.304
▁portuguese	-11.3058
စိတ်မကောင်းဖြစ်	-11.3058
▁fountain	-11.3081
▁တိပ်ခွေ	-11.3081
▁warrior	-11.3082
▁တာဝန်ထမ်းဆောင်	-11.3104
▁dismiss	-11.3105
ဝန်ဆောင်မှုပေးသူ	-11.3117
အစွန်	-11.3117
▁resolve	-11.3128
▁profile	-11.3128
လျှပ်	-11.3151
သီတင်းပတ်	-11.3151
▁accuracy	-11.3151
▁disappear	-11.3151
▁heavily	-11.3151
▁Wood	-11.3151
▁လူဝင်မှု	-11.3151
အပြုသဘော	-11.3161
▁kyoto	-11.3174
▁nuclear	-11.3174
▁scientific	-11.3174
▁တစ်နှစ်ပတ်လုံး	-11.3174
▁လူတစ်ဦးချင်းစီ	-11.3174
▁uniform	-11.3174
▁မယုံနိုင်လောက်	-11.3174
▁ဖုန်းခေါ်ဆို	-11.3174
ဖြည့်ဆည်း	-11.319
လိဂ်	-11.3197
ဟင်းလျာ	-11.3197
အမြောက်အမြား	-11.3197
ိတ်အနှောင့်အယှက်	-11.3197
▁analyze	-11.3197
▁တိုကျို	-11.3197
▁excited	-11.3197
▁substance	-11.3221
ဖလှယ်	-11.3221
▁အပတ်စဉ်	-11.3221
▁profession	-11.3236
▁plot	-11.3245
ဆယ့်ရှစ်	-11.3268
▁အင်္ဂါနေ့	-11.3268
▁stakeholders	-11.3291
▁လယ်ကွင်း	-11.3291
▁လင်ကွန်း	-11.3315
▁အသုံးမဝင်	-11.3338
▁boilermaker	-11.3338
▁ငယ်ငယ်တုန်းက	-11.3338
▁settled	-11.3339
▁မြှုပ်နှံထား	-11.3349
▁ordinary	-11.3362
▁precise	-11.3362
▁သူနာပြု	-11.3362
နေ့လည်စာ	-11.3362
အေးဂျင့်	-11.3386
▁galleries	-11.3386
▁အိုဇုန်း	-11.3386
▁obligation	-11.341
ကမ်ပိန်း	-11.3434
▁demonstration	-11.3434
▁fundamental	-11.3434
▁အကျိုးအမြတ်မယူ	-11.3434
▁အထင်ရှားဆုံး	-11.3434
▁prompt	-11.3435
▁dispute	-11.3437
အဲလို	-11.3439
▁အဆင်သင့်	-11.3439
▁ချေမှုန်း	-11.3457
ရေးဆိုခွင့်ရှိသူ	-11.3457
▁mediterranean	-11.3457
▁sulfur	-11.3457
▁reagan	-11.3458
▁ခွဲခြားဆက်ဆံ	-11.3458
▁modest	-11.3458
သုတေသန	-11.3475
▁receiving	-11.3481
▁ပြန်လည်ထူထောင်	-11.3481
▁အော်တိုမန်	-11.3481
သင်္ချာ	-11.3481
power	-11.3484
4,000	-11.3504
▁analyses	-11.3505
▁အတိုချုံး	-11.3505
▁အကြွေးဝယ်ကတ်	-11.3505
လည်ပင်း	-11.3506
▁cousin	-11.3508
▁pink	-11.3508
▁tobacco	-11.353
▁ugly	-11.353
တုန်လှုပ်သွား	-11.3549
ဿ	-11.3554
▁agricultural	-11.3554
▁surface	-11.3554
▁ရုန်းထွက်	-11.3554
▁လက်မှတ်ရေးထိုး	-11.3554
▁စိတ်မဝင်စား	-11.3554
▁portray	-11.3554
အဆောက်အဦ	-11.3571
အလွဲသုံးစားလုပ်	-11.3578
▁outdoor	-11.3578
အာဏာပိုင်များ	-11.3579
▁basilica	-11.3602
▁impression	-11.3602
▁dominate	-11.361
စားသောက်ဆိုင်	-11.361
▁supplement	-11.3627
▁acknowledg	-11.3627
▁situated	-11.3627
▁ပို့ဆောင်ပေး	-11.3627
izz	-11.3632
သံသယ	-11.3632
သိလိုက်ရ	-11.3648
ဆယ့်ခြောက်	-11.3651
ဓာတ်ခွဲခန်း	-11.3651
▁အယူခံဝင်	-11.3651
▁buddha	-11.3675
▁participation	-11.3675
▁hawaii	-11.3675
▁southwest	-11.3675
shaped	-11.3685
ကျန်းမာ	-11.369
ယဇ်ပလ္လင်	-11.37
▁recycling	-11.37
▁stadium	-11.37
▁ပုပ်ရဟန်းမင်း	-11.37
ထင်ရှားကျော်ကြား	-11.37
▁sweat	-11.3701
▁extreme	-11.3704
စျေးပေါ	-11.3724
▁ridiculous	-11.3724
▁အစုရှယ်ယာ	-11.3724
▁ဥပဒေပြုရေး	-11.3725
▁authentic	-11.3749
▁basketball	-11.3749
▁distribute	-11.3749
▁financing	-11.3749
▁ဗုဒ္ဓဟူးနေ့	-11.3749
▁alfred	-11.3749
ကြောက်စရာကောင်း	-11.3771
▁infrastructure	-11.3774
▁palazzo	-11.3774
သဲသောင်ပြင်	-11.3774
▁ဒေါသတကြီး	-11.3774
▁ဘွိုင်လာ	-11.3786
▁enormous	-11.3799
▁ဘိုးဘွားရိပ်သာ	-11.3799
▁ACI	-11.3799
▁texan	-11.3799
▁smoking	-11.3799
းးးးးးး	-11.38
▁exploit	-11.3823
▁privilege	-11.3823
▁ဆာဂျိမ်း	-11.3823
▁chicken	-11.3823
▁ကိုယ့်ကိုကိုယ်	-11.3823
ကောလိပ်	-11.3844
▁သောကြာနေ့	-11.3873
▁နွေးထွေး	-11.3873
လို့မရဘူး။	-11.3873
▁struck	-11.3873
▁educat	-11.3895
အတ္ထုပ္ပတ္တိ	-11.3898
▁prohibit	-11.3898
▁ဖိတ်ခေါ်	-11.3898
▁Henry	-11.3898
▁စော်ကား	-11.3923
▁northwest	-11.3923
▁မရှိမဖြစ်လိုအပ်	-11.3948
▁ချီကာဂို	-11.3948
ထရပ်ကား	-11.3948
▁islamic	-11.3948
▁advisor	-11.3949
▁ထိုလူက	-11.3953
▁souvenir	-11.3974
▁ကမ္ဘာလှည့်ခရီး	-11.3974
▁ဖေဖေ	-11.3974
▁လျှပ်စစ်ဓာတ်အား	-11.3974
▁Texan	-11.3974
အလုံအလောက်	-11.3974
oriented	-11.3975
ခုနှစ်များအတွင်း	-11.3981
▁wrap	-11.3983
▁continuing	-11.3999
▁ဆာလဖာ	-11.3999
ရာဇ၀တ်ကောင်	-11.3999
▁mechanism	-11.4024
ကူးသန်းရောင်းဝယ်	-11.4024
▁အလယ်ဗဟို	-11.4024
▁Wolf	-11.4028
▁greuze	-11.405
▁memorial	-11.405
▁အတုအယောင်	-11.405
ဇုန်	-11.405
ကော်မရှင်	-11.4056
▁mexican	-11.4075
▁taxpayer	-11.4075
▁temperature	-11.4075
▁တဖြည်းဖြည်း	-11.4075
▁compensation	-11.4075
▁natalia	-11.4075
▁County	-11.4075
▁descend	-11.4075
လိမ္မော်	-11.41
အစုအဝေး	-11.41
▁interrupt	-11.41
▁recruit	-11.41
▁ethnic	-11.41
▁admire	-11.4101
ခိုင်လုံ	-11.4126
▁CNN	-11.4126
▁triumph	-11.4126
▁ငုံ့	-11.4152
▁fortunate	-11.4152
▁reaction	-11.4152
မုဆိုး	-11.4153
ဆက်သွယ်မှု	-11.4171
▁archaeological	-11.4177
▁pillar	-11.4178
မြို့တစ်မြို့	-11.4178
လူတန်းစား	-11.4178
▁narrat	-11.4181
▁World	-11.4203
▁securities	-11.4203
▁cinema	-11.4204
▁သြဂုတ်	-11.4214
စုံစမ်းစစ်ဆေးမှု	-11.4221
▁monarch	-11.4229
▁imposing	-11.4229
▁Range	-11.4232
သည်နှင့်အမျှ	-11.4233
▁ထို့ထက်	-11.4247
▁စဉ်ဆက်မပြတ်	-11.4255
အကြံအစည်	-11.4255
▁elephant	-11.4255
▁ရှုတ်ချ	-11.4255
▁Standard	-11.4255
နှစ်ခုစလုံးသည်	-11.4255
သက်သေခံချက်	-11.4256
ြုစုစောင့်ရှောက်	-11.4263
▁entertain	-11.4277
ဆောင်းပါးတစ်ပုဒ်	-11.4281
▁Temple	-11.4281
▁ကျောက်မီးသွေး	-11.4281
▁နေ့လယ်စာ	-11.4281
▁jazz	-11.4281
▁trauma	-11.4281
Class	-11.4283
လွင်ပြင်	-11.4283
▁opponent	-11.4307
▁သမားရိုးကျ	-11.4307
▁စိတ်ဓာတ်ကျ	-11.4307
▁moderate	-11.4307
ချီးမြှင့်	-11.4333
▁colonial	-11.4333
ထင်မြင်ယူဆချက်	-11.4341
ကွဲလွဲမှု	-11.4342
အကောင်အထည်ဖော်	-11.4356
အငြင်းအခုံ	-11.4359
▁complicated	-11.4359
▁disclosure	-11.4359
▁ရွက်လွှင့်	-11.4359
▁drove	-11.4359
▁ပြောကြားခဲ့ပါ	-11.4363
3,000	-11.4374
▁အတင်းအကြပ်	-11.4385
▁academic	-11.4385
▁receipt	-11.4385
▁မြေထဲပင်လယ်	-11.4385
▁သပ်သပ်ရပ်ရပ်	-11.4385
GAO	-11.4411
▁breakfast	-11.4412
▁identity	-11.4412
▁remote	-11.4412
▁nepal	-11.4412
အချက်အချာ	-11.4438
▁achieving	-11.4465
▁elaborate	-11.4465
▁venetian	-11.4465
▁တိုးပွားလာ	-11.4465
▁အလွန်အမင်း	-11.4465
▁Franklin	-11.4491
▁premature	-11.4491
▁အပြည့်အ၀	-11.4491
▁အစိမ်းရောင်	-11.4491
နောက်ကွယ်တွင်	-11.4492
▁ဆက်လက်တည်ရှိနေ	-11.4492
သရဖူ	-11.4518
အလေ့အထ	-11.4518
▁suicide	-11.4518
▁enemies	-11.4518
▁လူအုပ်ကြီး	-11.4518
▁တောင်းပန်ပါတယ်	-11.4518
▁မူးယစ်ဆေး	-11.4544
▁District	-11.4544
▁စေတနာ	-11.4544
▁phrase	-11.4544
▁architectural	-11.4544
ဆယ့်သုံး	-11.4571
သူတော်စင်	-11.4571
▁attestation	-11.4598
▁ထူးချွန်	-11.4598
▁smooth	-11.4598
မယုံဘူး	-11.4605
ကြွေထည်	-11.4625
ဝေဒနာ	-11.4625
▁jordan	-11.4625
▁palestinian	-11.4625
▁statistical	-11.4625
▁စီးပွားဖြစ်	-11.4625
▁retreat	-11.4625
▁facilitate	-11.4652
▁fabric	-11.4652
▁လျာထား	-11.4652
လွှတ်တော်သည်	-11.4661
▁မျိုးနွယ်စု	-11.4679
ဌ	-12.6049
ဍ	-19.0401
ဦ	-19.0402
